{
  "version": "1.0",
  "truncation": null,
  "padding": null,
  "added_tokens": [
    {
      "id": 0,
      "content": "<|bos|>",
      "single_word": false,
      "lstrip": false,
      "rstrip": false,
      "normalized": false,
      "special": true
    },
    {
      "id": 1,
      "content": "<|user_start|>",
      "single_word": false,
      "lstrip": false,
      "rstrip": false,
      "normalized": false,
      "special": true
    },
    {
      "id": 2,
      "content": "<|user_end|>",
      "single_word": false,
      "lstrip": false,
      "rstrip": false,
      "normalized": false,
      "special": true
    },
    {
      "id": 3,
      "content": "<|assistant_start|>",
      "single_word": false,
      "lstrip": false,
      "rstrip": false,
      "normalized": false,
      "special": true
    },
    {
      "id": 4,
      "content": "<|assistant_end|>",
      "single_word": false,
      "lstrip": false,
      "rstrip": false,
      "normalized": false,
      "special": true
    },
    {
      "id": 5,
      "content": "<|python_start|>",
      "single_word": false,
      "lstrip": false,
      "rstrip": false,
      "normalized": false,
      "special": true
    },
    {
      "id": 6,
      "content": "<|python_end|>",
      "single_word": false,
      "lstrip": false,
      "rstrip": false,
      "normalized": false,
      "special": true
    },
    {
      "id": 7,
      "content": "<|output_start|>",
      "single_word": false,
      "lstrip": false,
      "rstrip": false,
      "normalized": false,
      "special": true
    },
    {
      "id": 8,
      "content": "<|output_end|>",
      "single_word": false,
      "lstrip": false,
      "rstrip": false,
      "normalized": false,
      "special": true
    },
    {
      "id": 9,
      "content": "<|extra_0|>",
      "single_word": false,
      "lstrip": false,
      "rstrip": false,
      "normalized": false,
      "special": true
    },
    {
      "id": 10,
      "content": "<|extra_1|>",
      "single_word": false,
      "lstrip": false,
      "rstrip": false,
      "normalized": false,
      "special": true
    },
    {
      "id": 11,
      "content": "<|extra_2|>",
      "single_word": false,
      "lstrip": false,
      "rstrip": false,
      "normalized": false,
      "special": true
    },
    {
      "id": 12,
      "content": "<|extra_3|>",
      "single_word": false,
      "lstrip": false,
      "rstrip": false,
      "normalized": false,
      "special": true
    },
    {
      "id": 13,
      "content": "<|extra_4|>",
      "single_word": false,
      "lstrip": false,
      "rstrip": false,
      "normalized": false,
      "special": true
    },
    {
      "id": 14,
      "content": "<|extra_5|>",
      "single_word": false,
      "lstrip": false,
      "rstrip": false,
      "normalized": false,
      "special": true
    },
    {
      "id": 15,
      "content": "<|extra_6|>",
      "single_word": false,
      "lstrip": false,
      "rstrip": false,
      "normalized": false,
      "special": true
    },
    {
      "id": 16,
      "content": "<|extra_7|>",
      "single_word": false,
      "lstrip": false,
      "rstrip": false,
      "normalized": false,
      "special": true
    },
    {
      "id": 17,
      "content": "<|extra_8|>",
      "single_word": false,
      "lstrip": false,
      "rstrip": false,
      "normalized": false,
      "special": true
    },
    {
      "id": 18,
      "content": "<|extra_9|>",
      "single_word": false,
      "lstrip": false,
      "rstrip": false,
      "normalized": false,
      "special": true
    },
    {
      "id": 19,
      "content": "<|extra_10|>",
      "single_word": false,
      "lstrip": false,
      "rstrip": false,
      "normalized": false,
      "special": true
    },
    {
      "id": 20,
      "content": "<|extra_11|>",
      "single_word": false,
      "lstrip": false,
      "rstrip": false,
      "normalized": false,
      "special": true
    },
    {
      "id": 21,
      "content": "<|extra_12|>",
      "single_word": false,
      "lstrip": false,
      "rstrip": false,
      "normalized": false,
      "special": true
    },
    {
      "id": 22,
      "content": "<|extra_13|>",
      "single_word": false,
      "lstrip": false,
      "rstrip": false,
      "normalized": false,
      "special": true
    },
    {
      "id": 23,
      "content": "<|extra_14|>",
      "single_word": false,
      "lstrip": false,
      "rstrip": false,
      "normalized": false,
      "special": true
    },
    {
      "id": 24,
      "content": "<|extra_15|>",
      "single_word": false,
      "lstrip": false,
      "rstrip": false,
      "normalized": false,
      "special": true
    },
    {
      "id": 25,
      "content": "<|extra_16|>",
      "single_word": false,
      "lstrip": false,
      "rstrip": false,
      "normalized": false,
      "special": true
    },
    {
      "id": 26,
      "content": "<|extra_17|>",
      "single_word": false,
      "lstrip": false,
      "rstrip": false,
      "normalized": false,
      "special": true
    },
    {
      "id": 27,
      "content": "<|extra_18|>",
      "single_word": false,
      "lstrip": false,
      "rstrip": false,
      "normalized": false,
      "special": true
    },
    {
      "id": 28,
      "content": "<|extra_19|>",
      "single_word": false,
      "lstrip": false,
      "rstrip": false,
      "normalized": false,
      "special": true
    },
    {
      "id": 29,
      "content": "<|extra_20|>",
      "single_word": false,
      "lstrip": false,
      "rstrip": false,
      "normalized": false,
      "special": true
    },
    {
      "id": 30,
      "content": "<|extra_21|>",
      "single_word": false,
      "lstrip": false,
      "rstrip": false,
      "normalized": false,
      "special": true
    },
    {
      "id": 31,
      "content": "<|extra_22|>",
      "single_word": false,
      "lstrip": false,
      "rstrip": false,
      "normalized": false,
      "special": true
    }
  ],
  "normalizer": {
    "type": "Sequence",
    "normalizers": [
      {
        "type": "NFKC"
      },
      {
        "type": "Replace",
        "pattern": {
          "Regex": "[\\uFFFD\\u00AD\\u000C\\u0000-\\u0008\\u000B\\u000E-\\u001F\\u007F-\\u009F\\u200B\\u200C\\u200D\\u2060\\uFEFF\\u202A-\\u202E\\u0E00\\uFFFF]"
        },
        "content": ""
      },
      {
        "type": "Replace",
        "pattern": {
          "Regex": "[\\u2000-\\u200A\\u202F\\u205F\\u3000\\u00A0]"
        },
        "content": " "
      },
      {
        "type": "Replace",
        "pattern": {
          "Regex": "[\\u2022\\u2023\\u25E6\\u2043\\u2219\\u25AA\\u25AB\\u25CF]"
        },
        "content": "•"
      },
      {
        "type": "Replace",
        "pattern": {
          "Regex": "[‐–—]"
        },
        "content": "-"
      },
      {
        "type": "Replace",
        "pattern": {
          "Regex": "['`´’‘‚]"
        },
        "content": "'"
      },
      {
        "type": "Replace",
        "pattern": {
          "Regex": "[“”„]"
        },
        "content": "\""
      }
    ]
  },
  "pre_tokenizer": {
    "type": "Sequence",
    "pretokenizers": [
      {
        "type": "Split",
        "pattern": {
          "Regex": "[^\\r\\n\\p{L}\\p{N}]?\\p{L}+|\\p{N}{1,2}| ?[^\\s\\p{L}\\p{N}]+[\\r\\n]*|\\s*[\\r\\n]+|\\s+(?!\\S)|\\s+"
        },
        "behavior": "Isolated",
        "invert": false
      },
      {
        "type": "ByteLevel",
        "add_prefix_space": false,
        "trim_offsets": true,
        "use_regex": false
      }
    ]
  },
  "post_processor": {
    "type": "ByteLevel",
    "add_prefix_space": true,
    "trim_offsets": false,
    "use_regex": true
  },
  "decoder": {
    "type": "ByteLevel",
    "add_prefix_space": true,
    "trim_offsets": true,
    "use_regex": true
  },
  "model": {
    "type": "BPE",
    "dropout": null,
    "unk_token": null,
    "continuing_subword_prefix": null,
    "end_of_word_suffix": null,
    "fuse_unk": false,
    "byte_fallback": false,
    "vocab": {
      "<|bos|>": 0,
      "<|user_start|>": 1,
      "<|user_end|>": 2,
      "<|assistant_start|>": 3,
      "<|assistant_end|>": 4,
      "<|python_start|>": 5,
      "<|python_end|>": 6,
      "<|output_start|>": 7,
      "<|output_end|>": 8,
      "<|extra_0|>": 9,
      "<|extra_1|>": 10,
      "<|extra_2|>": 11,
      "<|extra_3|>": 12,
      "<|extra_4|>": 13,
      "<|extra_5|>": 14,
      "<|extra_6|>": 15,
      "<|extra_7|>": 16,
      "<|extra_8|>": 17,
      "<|extra_9|>": 18,
      "<|extra_10|>": 19,
      "<|extra_11|>": 20,
      "<|extra_12|>": 21,
      "<|extra_13|>": 22,
      "<|extra_14|>": 23,
      "<|extra_15|>": 24,
      "<|extra_16|>": 25,
      "<|extra_17|>": 26,
      "<|extra_18|>": 27,
      "<|extra_19|>": 28,
      "<|extra_20|>": 29,
      "<|extra_21|>": 30,
      "<|extra_22|>": 31,
      "!": 32,
      "\"": 33,
      "#": 34,
      "$": 35,
      "%": 36,
      "&": 37,
      "'": 38,
      "(": 39,
      ")": 40,
      "*": 41,
      "+": 42,
      ",": 43,
      "-": 44,
      ".": 45,
      "/": 46,
      "0": 47,
      "1": 48,
      "2": 49,
      "3": 50,
      "4": 51,
      "5": 52,
      "6": 53,
      "7": 54,
      "8": 55,
      "9": 56,
      ":": 57,
      ";": 58,
      "<": 59,
      "=": 60,
      ">": 61,
      "?": 62,
      "@": 63,
      "A": 64,
      "B": 65,
      "C": 66,
      "D": 67,
      "E": 68,
      "F": 69,
      "G": 70,
      "H": 71,
      "I": 72,
      "J": 73,
      "K": 74,
      "L": 75,
      "M": 76,
      "N": 77,
      "O": 78,
      "P": 79,
      "Q": 80,
      "R": 81,
      "S": 82,
      "T": 83,
      "U": 84,
      "V": 85,
      "W": 86,
      "X": 87,
      "Y": 88,
      "Z": 89,
      "[": 90,
      "\\": 91,
      "]": 92,
      "^": 93,
      "_": 94,
      "`": 95,
      "a": 96,
      "b": 97,
      "c": 98,
      "d": 99,
      "e": 100,
      "f": 101,
      "g": 102,
      "h": 103,
      "i": 104,
      "j": 105,
      "k": 106,
      "l": 107,
      "m": 108,
      "n": 109,
      "o": 110,
      "p": 111,
      "q": 112,
      "r": 113,
      "s": 114,
      "t": 115,
      "u": 116,
      "v": 117,
      "w": 118,
      "x": 119,
      "y": 120,
      "z": 121,
      "{": 122,
      "|": 123,
      "}": 124,
      "~": 125,
      "¡": 126,
      "¢": 127,
      "£": 128,
      "¤": 129,
      "¥": 130,
      "¦": 131,
      "§": 132,
      "¨": 133,
      "©": 134,
      "ª": 135,
      "«": 136,
      "¬": 137,
      "®": 138,
      "¯": 139,
      "°": 140,
      "±": 141,
      "²": 142,
      "³": 143,
      "´": 144,
      "µ": 145,
      "¶": 146,
      "·": 147,
      "¸": 148,
      "¹": 149,
      "º": 150,
      "»": 151,
      "¼": 152,
      "½": 153,
      "¾": 154,
      "¿": 155,
      "À": 156,
      "Á": 157,
      "Â": 158,
      "Ã": 159,
      "Ä": 160,
      "Å": 161,
      "Æ": 162,
      "Ç": 163,
      "È": 164,
      "É": 165,
      "Ê": 166,
      "Ë": 167,
      "Ì": 168,
      "Í": 169,
      "Î": 170,
      "Ï": 171,
      "Ð": 172,
      "Ñ": 173,
      "Ò": 174,
      "Ó": 175,
      "Ô": 176,
      "Õ": 177,
      "Ö": 178,
      "×": 179,
      "Ø": 180,
      "Ù": 181,
      "Ú": 182,
      "Û": 183,
      "Ü": 184,
      "Ý": 185,
      "Þ": 186,
      "ß": 187,
      "à": 188,
      "á": 189,
      "â": 190,
      "ã": 191,
      "ä": 192,
      "å": 193,
      "æ": 194,
      "ç": 195,
      "è": 196,
      "é": 197,
      "ê": 198,
      "ë": 199,
      "ì": 200,
      "í": 201,
      "î": 202,
      "ï": 203,
      "ð": 204,
      "ñ": 205,
      "ò": 206,
      "ó": 207,
      "ô": 208,
      "õ": 209,
      "ö": 210,
      "÷": 211,
      "ø": 212,
      "ù": 213,
      "ú": 214,
      "û": 215,
      "ü": 216,
      "ý": 217,
      "þ": 218,
      "ÿ": 219,
      "Ā": 220,
      "ā": 221,
      "Ă": 222,
      "ă": 223,
      "Ą": 224,
      "ą": 225,
      "Ć": 226,
      "ć": 227,
      "Ĉ": 228,
      "ĉ": 229,
      "Ċ": 230,
      "ċ": 231,
      "Č": 232,
      "č": 233,
      "Ď": 234,
      "ď": 235,
      "Đ": 236,
      "đ": 237,
      "Ē": 238,
      "ē": 239,
      "Ĕ": 240,
      "ĕ": 241,
      "Ė": 242,
      "ė": 243,
      "Ę": 244,
      "ę": 245,
      "Ě": 246,
      "ě": 247,
      "Ĝ": 248,
      "ĝ": 249,
      "Ğ": 250,
      "ğ": 251,
      "Ġ": 252,
      "ġ": 253,
      "Ģ": 254,
      "ģ": 255,
      "Ĥ": 256,
      "ĥ": 257,
      "Ħ": 258,
      "ħ": 259,
      "Ĩ": 260,
      "ĩ": 261,
      "Ī": 262,
      "ī": 263,
      "Ĭ": 264,
      "ĭ": 265,
      "Į": 266,
      "į": 267,
      "İ": 268,
      "ı": 269,
      "Ĳ": 270,
      "ĳ": 271,
      "Ĵ": 272,
      "ĵ": 273,
      "Ķ": 274,
      "ķ": 275,
      "ĸ": 276,
      "Ĺ": 277,
      "ĺ": 278,
      "Ļ": 279,
      "ļ": 280,
      "Ľ": 281,
      "ľ": 282,
      "Ŀ": 283,
      "ŀ": 284,
      "Ł": 285,
      "ł": 286,
      "Ń": 287,
      "ie": 288,
      "ĠĠ": 289,
      "Ġp": 290,
      "Ġw": 291,
      "ÅĤ": 292,
      "ow": 293,
      "Ġs": 294,
      "Ġz": 295,
      "na": 296,
      "ni": 297,
      "cz": 298,
      "Äħ": 299,
      "ÄĻ": 300,
      "ch": 301,
      "rz": 302,
      "nie": 303,
      "ĠĠĠĠ": 304,
      "st": 305,
      "Ã³": 306,
      "ra": 307,
      "Ġd": 308,
      "Ġo": 309,
      "Å¼": 310,
      "Ġt": 311,
      "ro": 312,
      "ÅĽ": 313,
      "Ġk": 314,
      "ne": 315,
      "Ġm": 316,
      "Ġi": 317,
      "sz": 318,
      "Ġna": 319,
      "Ġpo": 320,
      "ny": 321,
      "je": 322,
      "dz": 323,
      "li": 324,
      "go": 325,
      "ia": 326,
      "rze": 327,
      "le": 328,
      "Äĩ": 329,
      "--": 330,
      "ka": 331,
      "..": 332,
      "re": 333,
      "iÄĻ": 334,
      "nia": 335,
      "Ġza": 336,
      "Ġb": 337,
      "Ã³w": 338,
      "Ġdo": 339,
      "owa": 340,
      "ar": 341,
      "ĠĠĠĠĠĠĠĠ": 342,
      "ki": 343,
      "ci": 344,
      "ÅĤa": 345,
      "Ġ|": 346,
      "la": 347,
      "Ġu": 348,
      "ta": 349,
      "ko": 350,
      "wa": 351,
      "Ġwy": 352,
      ".Ċ": 353,
      "ce": 354,
      "no": 355,
      "ja": 356,
      "Ġa": 357,
      "ty": 358,
      "rzy": 359,
      "te": 360,
      "Ġje": 361,
      "mi": 362,
      "da": 363,
      "ĠP": 364,
      "jÄħ": 365,
      "Å¼e": 366,
      "or": 367,
      "Ġnie": 368,
      "cy": 369,
      "Ġprze": 370,
      "ĠsiÄĻ": 371,
      "cze": 372,
      "ku": 373,
      "ry": 374,
      "sta": 375,
      "Ġko": 376,
      "nych": 377,
      "ÅĤo": 378,
      "czy": 379,
      "ma": 380,
      "ÅĽci": 381,
      "po": 382,
      "----": 383,
      "ĠW": 384,
      "wo": 385,
      "kie": 386,
      "tu": 387,
      "....": 388,
      "cj": 389,
      "cie": 390,
      "owe": 391,
      "Ġte": 392,
      "ÅĦ": 393,
      "owy": 394,
      "ĠS": 395,
      "Ġro": 396,
      "dy": 397,
      "Ġod": 398,
      "Ġg": 399,
      "to": 400,
      "Ġ-": 401,
      "wi": 402,
      "er": 403,
      "Ġmo": 404,
      "my": 405,
      "lu": 406,
      "en": 407,
      "ru": 408,
      "za": 409,
      "dzie": 410,
      "ĠM": 411,
      "tÃ³": 412,
      "lo": 413,
      "Å¼y": 414,
      "wie": 415,
      "cji": 416,
      "ÅĤy": 417,
      "Ġjest": 418,
      "ca": 419,
      "ĠK": 420,
      "Ġf": 421,
      "Ġprzy": 422,
      "Ġto": 423,
      "ĠĠĠĠĠĠĠĠĠĠĠĠĠĠĠĠ": 424,
      "szy": 425,
      "Ġpro": 426,
      "ĠktÃ³": 427,
      "Ġma": 428,
      "zy": 429,
      "Ġin": 430,
      "Ġja": 431,
      "ga": 432,
      "sze": 433,
      "em": 434,
      "ĠN": 435,
      "Ġty": 436,
      "cza": 437,
      "du": 438,
      "Ġ(": 439,
      "ob": 440,
      "raz": 441,
      "20": 442,
      "ĊĊ": 443,
      "ĠT": 444,
      "dzi": 445,
      "Ġta": 446,
      "ĠD": 447,
      "pa": 448,
      "ĠC": 449,
      "nej": 450,
      "ÅĽÄĩ": 451,
      "Ġpod": 452,
      "mo": 453,
      "ÅĤu": 454,
      "Ġe": 455,
      "Ġdz": 456,
      "nego": 457,
      "ĠZ": 458,
      "ĠÅ¼e": 459,
      "ĠB": 460,
      "Ġsp": 461,
      "mie": 462,
      "by": 463,
      "co": 464,
      "ĠA": 465,
      "owi": 466,
      "pi": 467,
      "nÄħ": 468,
      "Ġob": 469,
      "Ġpra": 470,
      "ĠO": 471,
      "wia": 472,
      "owie": 473,
      "ĠPo": 474,
      "mu": 475,
      "ĠÅĽ": 476,
      "ĠR": 477,
      "Ġre": 478,
      "Ġr": 479,
      "Ġby": 480,
      "sa": 481,
      "si": 482,
      "........": 483,
      "cja": 484,
      "ĠJ": 485,
      "--------": 486,
      "de": 487,
      "gi": 488,
      "nym": 489,
      "wy": 490,
      "Ġsz": 491,
      "Ġroz": 492,
      "ski": 493,
      "su": 494,
      "Ġch": 495,
      "pie": 496,
      "kÃ³w": 497,
      "cia": 498,
      "niu": 499,
      "owo": 500,
      "Ġlu": 501,
      "owych": 502,
      "ĠG": 503,
      "pe": 504,
      "skie": 505,
      "ĠI": 506,
      "noÅĽci": 507,
      ".ĊĊ": 508,
      "ez": 509,
      "sy": 510,
      "Ġpa": 511,
      "bi": 512,
      "kt": 513,
      "Ġdla": 514,
      "Ġka": 515,
      "Ġmie": 516,
      "rÃ³": 517,
      "ska": 518,
      "Ġsta": 519,
      "on": 520,
      "Ġ\"": 521,
      "Ġoraz": 522,
      "Ġwie": 523,
      "00": 524,
      "Ġst": 525,
      "in": 526,
      "Ġczy": 527,
      "dze": 528,
      "Ġprzez": 529,
      "we": 530,
      "Ġco": 531,
      "sty": 532,
      "sza": 533,
      "ter": 534,
      "bie": 535,
      "niej": 536,
      "Ġkon": 537,
      "Åº": 538,
      "Ġ|Ċ": 539,
      "Ġspo": 540,
      "jÄĻ": 541,
      "ba": 542,
      "Ġjak": 543,
      "pra": 544,
      "un": 545,
      "Ġni": 546,
      "Ġjed": 547,
      "kÅĤa": 548,
      "Ġh": 549,
      "ÅĤe": 550,
      "ĠU": 551,
      "stÄĻ": 552,
      "Ġn": 553,
      "il": 554,
      "ĠL": 555,
      "ĠsÄħ": 556,
      "do": 557,
      "dni": 558,
      "Ġnaj": 559,
      "men": 560,
      "pu": 561,
      "cho": 562,
      "ĠktÃ³re": 563,
      "Ġcz": 564,
      "rowa": 565,
      "Ġda": 566,
      "Ġze": 567,
      "fi": 568,
      "gra": 569,
      "sie": 570,
      "kre": 571,
      "jÄħcy": 572,
      "Ġtak": 573,
      "an": 574,
      "Ġlub": 575,
      "Ġgo": 576,
      "sto": 577,
      "owej": 578,
      "cyj": 579,
      "mia": 580,
      "tycz": 581,
      "Ġli": 582,
      "ju": 583,
      "rzÄħ": 584,
      "Ġsa": 585,
      "Ġdzie": 586,
      "Ġzna": 587,
      "owania": 588,
      "ĠNa": 589,
      "tÃ³w": 590,
      "Ã³ÅĤ": 591,
      "osta": 592,
      "10": 593,
      "al": 594,
      "ĠktÃ³ry": 595,
      "dzia": 596,
      "owanie": 597,
      "ĠE": 598,
      "Ġra": 599,
      "sp": 600,
      "gu": 601,
      "Ġce": 602,
      "Ġprzed": 603,
      "Ġtym": 604,
      "zna": 605,
      "ĠbÄĻ": 606,
      "Ġle": 607,
      "Ġos": 608,
      "me": 609,
      "zu": 610,
      "dzo": 611,
      "ĠF": 612,
      "ĠmoÅ¼e": 613,
      "ĠZa": 614,
      "ier": 615,
      "owego": 616,
      "io": 617,
      "Ġbez": 618,
      "ek": 619,
      "ÅĤÄħ": 620,
      "cje": 621,
      "jÄħce": 622,
      "dza": 623,
      "bo": 624,
      "19": 625,
      "Ġfi": 626,
      "stÄĻp": 627,
      "owaÄĩ": 628,
      "tk": 629,
      "nu": 630,
      "for": 631,
      "................": 632,
      "nika": 633,
      "czo": 634,
      "Ġmi": 635,
      "ĠmoÅ¼": 636,
      "szyst": 637,
      "rza": 638,
      "Ġpoz": 639,
      "Å¼a": 640,
      "Ġwi": 641,
      "wiÄħ": 642,
      "kona": 643,
      "Ġla": 644,
      "rod": 645,
      "spo": 646,
      "iaÅĤa": 647,
      "Ġwo": 648,
      "bu": 649,
      "iÄĻk": 650,
      "ran": 651,
      "czas": 652,
      "jÄħc": 653,
      "niem": 654,
      "Ġsy": 655,
      "ĠÅ": 656,
      "ĠJe": 657,
      "noÅĽÄĩ": 658,
      "Ġde": 659,
      "nd": 660,
      "Ġme": 661,
      "Ġswo": 662,
      "Ġspra": 663,
      "Ġwar": 664,
      "lko": 665,
      "nio": 666,
      "ktu": 667,
      "js": 668,
      "Ġbar": 669,
      "ĠĠĠĠĠĠĠĠĠĠĠĠĠĠĠĠĠĠĠĠĠĠĠĠĠĠĠĠĠĠĠĠ": 670,
      "so": 671,
      "czne": 672,
      "ĠĠĠ": 673,
      "Ġzosta": 674,
      "Ġale": 675,
      "ÅĽli": 676,
      "bli": 677,
      "Ġwszyst": 678,
      "Ġof": 679,
      "nt": 680,
      "cu": 681,
      "Ġbu": 682,
      "tor": 683,
      "ĠwÅĤa": 684,
      "nÄĻ": 685,
      "dnie": 686,
      "ĠH": 687,
      "szcze": 688,
      "Ã³l": 689,
      "Ã³b": 690,
      "ak": 691,
      "----------------": 692,
      "Ġsto": 693,
      "ĠWy": 694,
      "Ġmu": 695,
      "ÅĽcie": 696,
      "ĠrÃ³w": 697,
      "Ġtego": 698,
      "gl": 699,
      "rak": 700,
      "Ġpe": 701,
      "wÃ³": 702,
      "ĠNie": 703,
      "Ġwe": 704,
      "nik": 705,
      "sÅĤu": 706,
      "ĠÅ¼y": 707,
      "powie": 708,
      "Ġku": 709,
      "cha": 710,
      "Ġwz": 711,
      "ona": 712,
      "ĠbÄĻdzie": 713,
      "ĠKo": 714,
      "czÄħ": 715,
      "Ġroku": 716,
      "kÄħ": 717,
      "cjÄĻ": 718,
      "Ġba": 719,
      "pad": 720,
      "Ġca": 721,
      "ĠdziaÅĤa": 722,
      "12": 723,
      "rÄĻ": 724,
      "ĠMa": 725,
      "tem": 726,
      "kich": 727,
      "skiego": 728,
      "kiem": 729,
      "cznych": 730,
      "art": 731,
      "Ġmiejs": 732,
      "ÅĦst": 733,
      "kty": 734,
      "Ġjako": 735,
      "Ġwa": 736,
      "Ġprodu": 737,
      "ĠPa": 738,
      "czenia": 739,
      ":Ċ": 740,
      "Ġosob": 741,
      "ns": 742,
      "Po": 743,
      "Ġju": 744,
      "ĠtakÅ¼e": 745,
      "dzy": 746,
      "owym": 747,
      "ri": 748,
      "15": 749,
      "cznie": 750,
      "ste": 751,
      "Ġpot": 752,
      "ĠbyÄĩ": 753,
      "nieÅ¼": 754,
      "owane": 755,
      "kÄĻ": 756,
      "ali": 757,
      "ÅĤÃ³w": 758,
      "dÄħ": 759,
      "Ġtylko": 760,
      "Ġbo": 761,
      "ciÄħ": 762,
      "um": 763,
      ",Ċ": 764,
      "forma": 765,
      "Ġich": 766,
      "ÅĤem": 767,
      "nymi": 768,
      "war": 769,
      "rÃ³w": 770,
      "niÄĻ": 771,
      "ĠPol": 772,
      "Ġstro": 773,
      "ĠrÃ³wnieÅ¼": 774,
      "Ġop": 775,
      "lej": 776,
      "dzenia": 777,
      "siÄħ": 778,
      "cÃ³w": 779,
      "ĠDo": 780,
      "11": 781,
      "jÄħcych": 782,
      "Ġog": 783,
      "Ġmog": 784,
      "siÄĻ": 785,
      "sia": 786,
      "Ġzd": 787,
      "18": 788,
      "ji": 789,
      "Ã³Å¼": 790,
      "**": 791,
      "bra": 792,
      "ze": 793,
      "szych": 794,
      "Å¼o": 795,
      "ĠwiÄĻ": 796,
      "fe": 797,
      "Ġpla": 798,
      "se": 799,
      "skiej": 800,
      "trzy": 801,
      "Ġsk": 802,
      "ĠczÄĻ": 803,
      "ti": 804,
      "Ġwsp": 805,
      "ĠjuÅ¼": 806,
      "mp": 807,
      "rga": 808,
      "kÅĤad": 809,
      "Ġsie": 810,
      "nak": 811,
      "Ġpow": 812,
      "Ġokre": 813,
      "Ġdu": 814,
      "Ġlo": 815,
      "owÄħ": 816,
      "Ġpi": 817,
      "praw": 818,
      "Ġry": 819,
      "mÃ³w": 820,
      "ĠĠĠĠĠĠĠĠĠĠĠĠ": 821,
      "Ġsu": 822,
      "Ġpier": 823,
      "lne": 824,
      "ĠmoÅ¼na": 825,
      "ÅĤat": 826,
      "14": 827,
      "Ġbardzo": 828,
      "ĠÅĽwia": 829,
      "ĠkaÅ¼": 830,
      "prze": 831,
      "he": 832,
      "ĠzÅĤ": 833,
      "16": 834,
      "ÅĽmy": 835,
      "cznej": 836,
      "ĠuÅ¼y": 837,
      "Ġpre": 838,
      "rzÄĻ": 839,
      "szka": 840,
      "Ġusta": 841,
      "Ġodpowie": 842,
      "Ġno": 843,
      "Ġdy": 844,
      "ng": 845,
      "ĠKa": 846,
      "),": 847,
      "Ã³r": 848,
      "czenie": 849,
      "szÄħ": 850,
      "wiÄħza": 851,
      "Ġcie": 852,
      "Ġjego": 853,
      "towa": 854,
      "Ġwyda": 855,
      "kim": 856,
      "Ġmia": 857,
      "czÄĻ": 858,
      "30": 859,
      "||": 860,
      "owiÄħ": 861,
      "nikÃ³w": 862,
      "|Ċ": 863,
      "ĠRo": 864,
      "rzysta": 865,
      "tego": 866,
      "Ġpowie": 867,
      "Ġcze": 868,
      "13": 869,
      "ĠteÅ¼": 870,
      "py": 871,
      "Na": 872,
      "liwo": 873,
      "Ġwyko": 874,
      "Ġaby": 875,
      "ct": 876,
      "tka": 877,
      "Ġele": 878,
      "sk": 879,
      "Ġofer": 880,
      "Ġdob": 881,
      "prowa": 882,
      "17": 883,
      "Ġgru": 884,
      "cej": 885,
      "ÅĽnie": 886,
      "Ġfor": 887,
      "Ġcza": 888,
      "IE": 889,
      "Ġau": 890,
      "?Ċ": 891,
      "sko": 892,
      "ĠMo": 893,
      "ur": 894,
      "szej": 895,
      "Ġsob": 896,
      "res": 897,
      "leÅ¼y": 898,
      "ĠIn": 899,
      "unk": 900,
      "ĠrÃ³Å¼": 901,
      "wania": 902,
      "Ġsamo": 903,
      "ble": 904,
      "nku": 905,
      "maga": 906,
      "Ġc": 907,
      "Ġorga": 908,
      "ĠTo": 909,
      "Ġbi": 910,
      "Ġpraw": 911,
      "ej": 912,
      "Ġgra": 913,
      "Ġrze": 914,
      "Ġspe": 915,
      "cÄħ": 916,
      "lar": 917,
      "Ġcho": 918,
      "Ġpu": 919,
      "Ġspos": 920,
      "...": 921,
      "staw": 922,
      "Ġdoda": 923,
      "Ġszko": 924,
      "zacji": 925,
      "Ġinforma": 926,
      "Ġfir": 927,
      "tek": 928,
      "rÄħ": 929,
      "szym": 930,
      "den": 931,
      "Ġpierw": 932,
      "skich": 933,
      "ĠCh": 934,
      "ĠJa": 935,
      "ĠMi": 936,
      "Ġjednak": 937,
      "Ġprac": 938,
      "Ġzw": 939,
      "ory": 940,
      "Ġpracy": 941,
      "ĠÅĽrod": 942,
      "Ġkie": 943,
      "sku": 944,
      "Ġznaj": 945,
      "ĠPrze": 946,
      "logi": 947,
      ").": 948,
      "Ġpie": 949,
      "stem": 950,
      "zie": 951,
      "Ġprzypad": 952,
      "sÅĤa": 953,
      "Ġtra": 954,
      "dzÄħ": 955,
      "owia": 956,
      "ĠÅļ": 957,
      "im": 958,
      "uro": 959,
      "ec": 960,
      "nek": 961,
      "tki": 962,
      "ĠRa": 963,
      "Ġtu": 964,
      "Ġjej": 965,
      "jemy": 966,
      "Å¼Äħ": 967,
      "lnych": 968,
      "Ġser": 969,
      "Za": 970,
      "gie": 971,
      "stra": 972,
      "dar": 973,
      "rem": 974,
      "Ġpomo": 975,
      "ner": 976,
      "tra": 977,
      "Ġnad": 978,
      "nta": 979,
      "stu": 980,
      "Ġszcze": 981,
      "dowa": 982,
      "21": 983,
      "rÃ³d": 984,
      "Ġkom": 985,
      "Ġswoje": 986,
      "tyw": 987,
      "Ġdnia": 988,
      "dziej": 989,
      "dÃ³w": 990,
      "Ġproje": 991,
      "Ġgdy": 992,
      "ĠV": 993,
      "Ġstan": 994,
      "miÄĻ": 995,
      "Ġwarto": 996,
      "Ġjedno": 997,
      "ĠWar": 998,
      "50": 999,
      "glÄħ": 1000,
      "ge": 1001,
      "tni": 1002,
      "tro": 1003,
      "Ġfa": 1004,
      "ĠPro": 1005,
      "ii": 1006,
      "pÅĤy": 1007,
      "trzyma": 1008,
      "Ġdru": 1009,
      "Ġar": 1010,
      "czny": 1011,
      "................................": 1012,
      "Ġwykona": 1013,
      "Ġpowi": 1014,
      "Ġtej": 1015,
      "gÃ³l": 1016,
      "cznego": 1017,
      "kiego": 1018,
      "kowa": 1019,
      "dania": 1020,
      "waÄĩ": 1021,
      "22": 1022,
      "dÅº": 1023,
      "Ġspraw": 1024,
      "kach": 1025,
      "ĠRe": 1026,
      "Ġprowa": 1027,
      "kiej": 1028,
      "Ġraz": 1029,
      "Ġorgani": 1030,
      "Ġten": 1031,
      "ÅĽwia": 1032,
      "lnoÅĽci": 1033,
      "gro": 1034,
      "dziaÅĤ": 1035,
      "strze": 1036,
      "ĠosÃ³b": 1037,
      "sÃ³w": 1038,
      "Ġkil": 1039,
      "ĠSz": 1040,
      "Ġlat": 1041,
      "szta": 1042,
      "czu": 1043,
      "Ġnau": 1044,
      "wiet": 1045,
      "ĠktÃ³ra": 1046,
      "dzenie": 1047,
      "peÅĤ": 1048,
      "czyÄĩ": 1049,
      "Ġon": 1050,
      "lÄĻ": 1051,
      "ĠmogÄħ": 1052,
      "pro": 1053,
      "chni": 1054,
      "lny": 1055,
      "Ġrodzi": 1056,
      "nowa": 1057,
      "Ġczas": 1058,
      "Ġdro": 1059,
      "Ġinter": 1060,
      "Ġwyso": 1061,
      "__": 1062,
      "pisa": 1063,
      "ĠmiÄĻ": 1064,
      "dÄĻ": 1065,
      "wier": 1066,
      "mio": 1067,
      "iÄĻki": 1068,
      "Ġpotrze": 1069,
      "Ġpoda": 1070,
      "ĠniÅ¼": 1071,
      "Ġpol": 1072,
      "ciu": 1073,
      "-|": 1074,
      "Ġbud": 1075,
      "Ġkra": 1076,
      "bior": 1077,
      "trz": 1078,
      "Ġreali": 1079,
      "net": 1080,
      "nans": 1081,
      "Ġse": 1082,
      "tych": 1083,
      "ĠbÄĻdÄħ": 1084,
      "wiÄĻ": 1085,
      "wet": 1086,
      "Ġzgo": 1087,
      "ĠbyÅĤo": 1088,
      "lep": 1089,
      "di": 1090,
      "liÅĽmy": 1091,
      "pew": 1092,
      "teria": 1093,
      "Ġsobie": 1094,
      "Ġuwa": 1095,
      "szu": 1096,
      "szo": 1097,
      "Ġga": 1098,
      "ÅĤam": 1099,
      "ĠnaleÅ¼y": 1100,
      "tach": 1101,
      "stru": 1102,
      "ezpie": 1103,
      "Ġmieszka": 1104,
      "ren": 1105,
      "szego": 1106,
      "lnie": 1107,
      "lnego": 1108,
      "Ġmar": 1109,
      "ktÃ³w": 1110,
      "min": 1111,
      "ĠdÅĤu": 1112,
      "tnie": 1113,
      "ha": 1114,
      "waÅ¼": 1115,
      "ĠktÃ³rych": 1116,
      "lie": 1117,
      "25": 1118,
      "Ġzmia": 1119,
      "Ġhi": 1120,
      "szcza": 1121,
      "Ġproce": 1122,
      "kcji": 1123,
      ".p": 1124,
      "23": 1125,
      "24": 1126,
      "Ġszy": 1127,
      "Ġprzypadku": 1128,
      "skim": 1129,
      "el": 1130,
      "ĠsposÃ³b": 1131,
      "ĠBo": 1132,
      "zen": 1133,
      "jem": 1134,
      "ĠĠĠĠĠ": 1135,
      "Ġzakre": 1136,
      "ort": 1137,
      "dziÄĩ": 1138,
      "Ġpew": 1139,
      "ĠzÅĤo": 1140,
      "Wy": 1141,
      "czna": 1142,
      "Ġnas": 1143,
      "Ġkolej": 1144,
      ";Ċ": 1145,
      "mach": 1146,
      "kaza": 1147,
      "rek": 1148,
      "Ġpowo": 1149,
      "stÄĻpu": 1150,
      ")Ċ": 1151,
      "rzu": 1152,
      "Ġru": 1153,
      "Ġsko": 1154,
      "ÄĻd": 1155,
      "OW": 1156,
      "daw": 1157,
      "siada": 1158,
      "AN": 1159,
      "ÅĦstwa": 1160,
      "ĠusÅĤu": 1161,
      "owni": 1162,
      "Ġal": 1163,
      "czni": 1164,
      "bezpie": 1165,
      "cych": 1166,
      "Ġtrze": 1167,
      "ÅĽwiad": 1168,
      "Ġtych": 1169,
      "Ġniez": 1170,
      "01": 1171,
      "!Ċ": 1172,
      "spodar": 1173,
      "tru": 1174,
      "lnej": 1175,
      "cjÄħ": 1176,
      "II": 1177,
      "ary": 1178,
      "Ġdzi": 1179,
      "tÄĻ": 1180,
      "chro": 1181,
      "wu": 1182,
      "kar": 1183,
      "tura": 1184,
      "Ġnawet": 1185,
      "Ġfunk": 1186,
      "Åģ": 1187,
      "Å¼ej": 1188,
      "Ġkla": 1189,
      "kÅĤada": 1190,
      "Ġjeszcze": 1191,
      "ment": 1192,
      "ĠmajÄħ": 1193,
      "sji": 1194,
      "ĠspoÅĤe": 1195,
      "Ġinnych": 1196,
      "wanie": 1197,
      "Ġmy": 1198,
      "mina": 1199,
      "zowa": 1200,
      "Å¼enia": 1201,
      "Ġek": 1202,
      "ĠwÅĤas": 1203,
      "lenia": 1204,
      "stÄħ": 1205,
      "ĠTe": 1206,
      "ĠwspÃ³ÅĤ": 1207,
      "Ġsku": 1208,
      "40": 1209,
      "fa": 1210,
      "ĠĠĠĠĠĠ": 1211,
      "ĠmoÅ¼liwo": 1212,
      "stawie": 1213,
      "ĠdostÄĻp": 1214,
      "ĠbyÅĤ": 1215,
      "ing": 1216,
      "ĠDz": 1217,
      "Ġdzieci": 1218,
      "ĠSta": 1219,
      "oru": 1220,
      "ÅĤoÅĽci": 1221,
      "Ġpubli": 1222,
      "gÄĻ": 1223,
      "Ġsystem": 1224,
      "Ġproble": 1225,
      "lni": 1226,
      "ĠCo": 1227,
      "ho": 1228,
      ":ĊĊ": 1229,
      "lÄħ": 1230,
      "Ġso": 1231,
      "rzenia": 1232,
      "ĠpeÅĤ": 1233,
      "Ġprzygo": 1234,
      "ÅĤÄĻ": 1235,
      "nki": 1236,
      "kry": 1237,
      "rwa": 1238,
      "Je": 1239,
      "pera": 1240,
      "Ġzach": 1241,
      "Ġinte": 1242,
      "nii": 1243,
      "ĠwiÄĻcej": 1244,
      "ĠwiÄĻk": 1245,
      "leÅ¼": 1246,
      "\",": 1247,
      "ĠLi": 1248,
      "ĠOd": 1249,
      "Ġprogra": 1250,
      "Ġpoja": 1251,
      "mat": 1252,
      "Ġpoli": 1253,
      "tora": 1254,
      "od": 1255,
      "Ġposta": 1256,
      "ĠPod": 1257,
      "Ġwska": 1258,
      ".,": 1259,
      "tp": 1260,
      "tku": 1261,
      "Ġzapew": 1262,
      "ĠokreÅĽ": 1263,
      ".pl": 1264,
      "Ġthe": 1265,
      "stwa": 1266,
      "Ġsprze": 1267,
      "chu": 1268,
      "oba": 1269,
      "Ġwymaga": 1270,
      "nad": 1271,
      "niÄĩ": 1272,
      "rzÄħd": 1273,
      "Ġcy": 1274,
      "ĠWie": 1275,
      "taj": 1276,
      "czej": 1277,
      "Ġpodczas": 1278,
      "Ġrozpo": 1279,
      "ĠmiÄĻdzy": 1280,
      "nali": 1281,
      "kami": 1282,
      "ntÃ³w": 1283,
      "Ġsza": 1284,
      "mowy": 1285,
      "Ġ[": 1286,
      "ĠwiÄĻc": 1287,
      "mniej": 1288,
      "Ġtwo": 1289,
      "Ġad": 1290,
      "ww": 1291,
      "stos": 1292,
      "ÅĤych": 1293,
      "twa": 1294,
      "\".": 1295,
      "Ġsze": 1296,
      "redni": 1297,
      "daÅĦ": 1298,
      "grani": 1299,
      "Ġspecja": 1300,
      "ĠÅĤa": 1301,
      "tua": 1302,
      "Ġosta": 1303,
      "et": 1304,
      "pis": 1305,
      "mowa": 1306,
      "Ġnr": 1307,
      "jÄĻcia": 1308,
      "Ġwiele": 1309,
      "ich": 1310,
      "tyczÄħ": 1311,
      "ĠsÅĤu": 1312,
      "Ġpowin": 1313,
      "ĠmÃ³w": 1314,
      "sztaÅĤ": 1315,
      "ĠWo": 1316,
      "Do": 1317,
      "IA": 1318,
      "Ġkar": 1319,
      "cyjne": 1320,
      "zuje": 1321,
      "dek": 1322,
      "Ġposiada": 1323,
      "ÅĽcia": 1324,
      "Ġzro": 1325,
      "star": 1326,
      "czywi": 1327,
      "ĠdotyczÄħ": 1328,
      "Ġzawo": 1329,
      "Ġzdr": 1330,
      "Ġ/": 1331,
      "menta": 1332,
      "wÃ³j": 1333,
      "cyjnych": 1334,
      "ĠLe": 1335,
      "zd": 1336,
      "szko": 1337,
      "niÄħ": 1338,
      "60": 1339,
      "Ġter": 1340,
      "fika": 1341,
      "ĠTa": 1342,
      "Ġnich": 1343,
      "kro": 1344,
      "pÅĤa": 1345,
      "Ġbie": 1346,
      "ĠzwiÄħza": 1347,
      "ĠkoÅĦ": 1348,
      "Ġdanych": 1349,
      "Ġoko": 1350,
      "ĠwÅĤaÅĽci": 1351,
      "Ġfil": 1352,
      "ĠktÃ³rym": 1353,
      "Ġkre": 1354,
      "Ġtre": 1355,
      "ĠÅģ": 1356,
      "tÄħ": 1357,
      "Ġzmie": 1358,
      "Ġzasa": 1359,
      "sce": 1360,
      "ve": 1361,
      "jÄħcego": 1362,
      "Ġfinans": 1363,
      "---|": 1364,
      "nk": 1365,
      "ĠciÄħ": 1366,
      "ĠobowiÄħ": 1367,
      "Ġgdzie": 1368,
      "Ġszyb": 1369,
      "cznym": 1370,
      "zji": 1371,
      "stytu": 1372,
      "Ġoce": 1373,
      "Ġpozy": 1374,
      "Ġkosz": 1375,
      "Ġha": 1376,
      "biera": 1377,
      "duje": 1378,
      "Ġmateria": 1379,
      "ĠWarsza": 1380,
      "ĠwpÅĤy": 1381,
      "Ġpozio": 1382,
      "Ġpoprze": 1383,
      "ĠWa": 1384,
      "ĠX": 1385,
      "Nie": 1386,
      "Å¼enie": 1387,
      "Ġmnie": 1388,
      "czki": 1389,
      "ĠMar": 1390,
      "Ġwszystkich": 1391,
      "nÃ³w": 1392,
      "one": 1393,
      "Ġstanowi": 1394,
      "lek": 1395,
      "wiera": 1396,
      "Ġucze": 1397,
      "ciw": 1398,
      "try": 1399,
      "ser": 1400,
      "now": 1401,
      "Ġwarun": 1402,
      "Ġbezpie": 1403,
      "ĠktÃ³rzy": 1404,
      "ĠĠĠĠĠĠĠ": 1405,
      "ĠmÃ³wi": 1406,
      "ck": 1407,
      "wsze": 1408,
      "dnia": 1409,
      "dia": 1410,
      "Ġbra": 1411,
      "tar": 1412,
      "ĠEuro": 1413,
      "ÅĤowie": 1414,
      "Ã³j": 1415,
      "wiÄħz": 1416,
      "ĠkaÅ¼dy": 1417,
      "onu": 1418,
      "ST": 1419,
      "nienia": 1420,
      "cka": 1421,
      "Ġpozosta": 1422,
      "lem": 1423,
      "lega": 1424,
      "Ġcelu": 1425,
      "Ġstra": 1426,
      "wen": 1427,
      "Ġgodzi": 1428,
      "miast": 1429,
      "czes": 1430,
      "Ġmiejsce": 1431,
      "be": 1432,
      "lna": 1433,
      "Ġsytua": 1434,
      "AR": 1435,
      "Ġelekt": 1436,
      "lenie": 1437,
      "ĠPrzy": 1438,
      "ĠĠĠĠĠĠĠĠĠ": 1439,
      "ktyw": 1440,
      "czego": 1441,
      "--------------------------------": 1442,
      "Ġok": 1443,
      "per": 1444,
      "cznÄħ": 1445,
      "log": 1446,
      "ĠPra": 1447,
      "nach": 1448,
      "ĠurzÄħ": 1449,
      "tion": 1450,
      "Åļ": 1451,
      "Ġim": 1452,
      "Ġtran": 1453,
      "sem": 1454,
      "dÅĤu": 1455,
      "Ġloka": 1456,
      "ZE": 1457,
      "Ġklie": 1458,
      "ĠczÄĻÅĽci": 1459,
      "Ġtele": 1460,
      "Ġpor": 1461,
      "Ġkilka": 1462,
      "ul": 1463,
      "Ġstos": 1464,
      "Ã³d": 1465,
      "lnoÅĽÄĩ": 1466,
      "ĠkaÅ¼de": 1467,
      "ut": 1468,
      "oby": 1469,
      "pre": 1470,
      "Ġspotka": 1471,
      "Ġmusi": 1472,
      "stawi": 1473,
      "tury": 1474,
      "lnym": 1475,
      "Ġcha": 1476,
      "Ġust": 1477,
      "ĠwaÅ¼": 1478,
      "szenia": 1479,
      "mawia": 1480,
      "rÃ³Å¼": 1481,
      "Ġkobie": 1482,
      "pli": 1483,
      "muje": 1484,
      "tr": 1485,
      "ĠGo": 1486,
      "por": 1487,
      "Ġpy": 1488,
      "ĠgÅĤÃ³w": 1489,
      "Ġstu": 1490,
      "ĠWi": 1491,
      "ĠrozwiÄħza": 1492,
      "tery": 1493,
      "glÄħda": 1494,
      "cach": 1495,
      "Å¼eli": 1496,
      "Ġot": 1497,
      "bar": 1498,
      "ĠTwo": 1499,
      "Ġdoku": 1500,
      "ĠjeÅĽli": 1501,
      "gÅĤo": 1502,
      "Ġnam": 1503,
      "ÅĤym": 1504,
      "Ġauto": 1505,
      "moÅĽci": 1506,
      "ĠktÃ³rej": 1507,
      "Ġsi": 1508,
      "Ġzda": 1509,
      "niki": 1510,
      "gen": 1511,
      "ĠmÅĤo": 1512,
      "Ġochro": 1513,
      "Ġart": 1514,
      "Ġkonie": 1515,
      "ĠszczegÃ³l": 1516,
      "nÄħÄĩ": 1517,
      "ĠuÅ¼ytk": 1518,
      "stor": 1519,
      "chy": 1520,
      "ote": 1521,
      "ktor": 1522,
      "kra": 1523,
      "Ġtakie": 1524,
      "ĠbyÅĤa": 1525,
      "Ġkiedy": 1526,
      "ten": 1527,
      "Ġgospodar": 1528,
      "Ko": 1529,
      "ĠBa": 1530,
      "Ġumie": 1531,
      "Ġwia": 1532,
      "wyk": 1533,
      "nem": 1534,
      "ÅĤego": 1535,
      "Ġbardziej": 1536,
      "Ġdni": 1537,
      "Ġtru": 1538,
      "...Ċ": 1539,
      "Ġwielu": 1540,
      "nÄĻtrz": 1541,
      "wala": 1542,
      "zo": 1543,
      "Ġregu": 1544,
      "Ġobec": 1545,
      "ster": 1546,
      "ĠKon": 1547,
      "80": 1548,
      "Ġarty": 1549,
      "02": 1550,
      "Ġuzy": 1551,
      "Ġdecy": 1552,
      "Å¼li": 1553,
      "Ġsprzeda": 1554,
      "Å¼u": 1555,
      "glÄĻ": 1556,
      "ĠSa": 1557,
      "Ġstrony": 1558,
      "cÄĻ": 1559,
      "31": 1560,
      "Ġlicz": 1561,
      "dem": 1562,
      "wane": 1563,
      "27": 1564,
      "czeÅĦ": 1565,
      "miny": 1566,
      "Ġinternet": 1567,
      "ĠdziÄĻki": 1568,
      "zacja": 1569,
      "Ġzakresie": 1570,
      "cznoÅĽci": 1571,
      "stro": 1572,
      "czych": 1573,
      "dno": 1574,
      "fek": 1575,
      "line": 1576,
      "ĠPolsce": 1577,
      "Ġobie": 1578,
      "Ġpar": 1579,
      "wali": 1580,
      "09": 1581,
      "com": 1582,
      "âĢ": 1583,
      "Ġponie": 1584,
      "Ġwyb": 1585,
      "Prze": 1586,
      "Ġprzeciw": 1587,
      "Ġul": 1588,
      "sÅĤ": 1589,
      "26": 1590,
      "wem": 1591,
      "trze": 1592,
      "ĠCzy": 1593,
      "cjona": 1594,
      "chi": 1595,
      "mÃ³wie": 1596,
      "koÅĦ": 1597,
      "Ġosoby": 1598,
      "nosi": 1599,
      "Ġjakie": 1600,
      "Ġrodza": 1601,
      "ĠÅ¼ycia": 1602,
      "tera": 1603,
      "Ġzapo": 1604,
      "Ġwybra": 1605,
      "stnie": 1606,
      "pita": 1607,
      "Ã³Åº": 1608,
      "scy": 1609,
      "RA": 1610,
      "Ma": 1611,
      "tne": 1612,
      "Ġkorzysta": 1613,
      "Ġczasu": 1614,
      "ciÄĩ": 1615,
      "chodzi": 1616,
      "ĠSp": 1617,
      "Ġwnio": 1618,
      "ÅĤej": 1619,
      "czone": 1620,
      "Ġsty": 1621,
      "Ġinwe": 1622,
      "om": 1623,
      "cki": 1624,
      "stwo": 1625,
      "Ġczyn": 1626,
      "Ġopi": 1627,
      "Ġramach": 1628,
      "jÄħca": 1629,
      "Ġnajlep": 1630,
      "Ġcharak": 1631,
      "ĠÅĽwie": 1632,
      "rywa": 1633,
      "03": 1634,
      "Ġdodatk": 1635,
      "Ġci": 1636,
      "kla": 1637,
      "Ġwszystkie": 1638,
      "szenie": 1639,
      "Ġsprawie": 1640,
      "dÅĤ": 1641,
      "04": 1642,
      "28": 1643,
      "ĠCz": 1644,
      "Ġponad": 1645,
      "ĠDa": 1646,
      "05": 1647,
      "Ġtam": 1648,
      "Ġoka": 1649,
      "tyczne": 1650,
      "ĠgÅĤo": 1651,
      "ĠÅ¼a": 1652,
      "Ġpowsta": 1653,
      "Ġzaku": 1654,
      "ĠzwiÄħz": 1655,
      "ÅĽrÃ³d": 1656,
      "Ġzie": 1657,
      "RO": 1658,
      "07": 1659,
      "ĠczÄĻsto": 1660,
      "ĠpÅĤy": 1661,
      "dne": 1662,
      "ĠLu": 1663,
      "Ġkry": 1664,
      "Ġfo": 1665,
      "Ġtere": 1666,
      "ÅĦski": 1667,
      "90": 1668,
      "vi": 1669,
      "koÅĽci": 1670,
      "Ġak": 1671,
      "th": 1672,
      "Ġge": 1673,
      "bywa": 1674,
      "ĠĠĠĠĠĠĠĠĠĠ": 1675,
      "Ġczasie": 1676,
      "Ġwszystkim": 1677,
      "mier": 1678,
      "jÄĻzy": 1679,
      "der": 1680,
      "owany": 1681,
      "Ġener": 1682,
      "08": 1683,
      "CH": 1684,
      "rzo": 1685,
      "Ġchce": 1686,
      "mini": 1687,
      "29": 1688,
      "Â§": 1689,
      "rom": 1690,
      "Ġinformacji": 1691,
      "ÅĦstwo": 1692,
      "owiada": 1693,
      "Ġnaz": 1694,
      "Å¼yÄĩ": 1695,
      "Ġ.": 1696,
      "ĠDla": 1697,
      "ownikÃ³w": 1698,
      "Ġkomu": 1699,
      "Ġuczest": 1700,
      "ĠÅ»": 1701,
      "Pro": 1702,
      "Ġpodstaw": 1703,
      "Ġzapa": 1704,
      "06": 1705,
      "Ġtowa": 1706,
      "leg": 1707,
      "uje": 1708,
      "lacji": 1709,
      "wer": 1710,
      "mentÃ³w": 1711,
      "Ġuzyska": 1712,
      "Ġinne": 1713,
      "Ġczyli": 1714,
      "Ġ,": 1715,
      "ĠTy": 1716,
      "ĠpoczÄħ": 1717,
      "Ġotrzyma": 1718,
      "wnÄĻtrz": 1719,
      "stÃ³w": 1720,
      "ĠdoÅĽwiad": 1721,
      "Ġkonta": 1722,
      "Ġmin": 1723,
      "kowi": 1724,
      "Ġchwi": 1725,
      "Ġand": 1726,
      "zi": 1727,
      "ĠbyÅĤy": 1728,
      "wiÄĻk": 1729,
      "âĢ¢": 1730,
      "sti": 1731,
      "ĠrÄĻ": 1732,
      "ard": 1733,
      "Ġkonku": 1734,
      "Ġdomu": 1735,
      "nka": 1736,
      "Ġpyta": 1737,
      "ĠJak": 1738,
      "jÄħcej": 1739,
      "pozy": 1740,
      "nera": 1741,
      "AT": 1742,
      "fo": 1743,
      "prac": 1744,
      "ĠMie": 1745,
      "cenia": 1746,
      "Ġozna": 1747,
      "ktÃ³": 1748,
      "Ġnowo": 1749,
      "Ġws": 1750,
      "fer": 1751,
      "ĠzostaÅĤ": 1752,
      "maty": 1753,
      "owski": 1754,
      "Ãĵ": 1755,
      "Ġczer": 1756,
      "Ġwprowa": 1757,
      ").Ċ": 1758,
      "bÄĻ": 1759,
      "ĠJeÅĽli": 1760,
      "ĠĠĠĠĠĠĠĠĠĠĠ": 1761,
      "Ġat": 1762,
      "ĠprzedsiÄĻ": 1763,
      "jÄħcym": 1764,
      "sek": 1765,
      "Ġzawiera": 1766,
      "Ġzawsze": 1767,
      "____": 1768,
      "ĠkrÃ³": 1769,
      "Ġtakich": 1770,
      "Ġmniej": 1771,
      "skona": 1772,
      "spe": 1773,
      "-Ċ": 1774,
      "ĠRoz": 1775,
      "ĠmÄĻ": 1776,
      "biÄĩ": 1777,
      "gii": 1778,
      "ĠjÄħ": 1779,
      "ĠusÅĤug": 1780,
      "Ġwszystko": 1781,
      "ĠMe": 1782,
      "Ġfirmy": 1783,
      "ĠjÄĻzy": 1784,
      "Ġpodstawie": 1785,
      "Ġtech": 1786,
      "czeniu": 1787,
      "leca": 1788,
      "ciÄĻ": 1789,
      "ok": 1790,
      "tacji": 1791,
      "stan": 1792,
      "ĠskÅĤa": 1793,
      "sja": 1794,
      "ĠCi": 1795,
      "ctwa": 1796,
      "Ġkul": 1797,
      "rucho": 1798,
      "CZ": 1799,
      "owaniu": 1800,
      "Ġcia": 1801,
      "Ġtemat": 1802,
      "Ġspa": 1803,
      "Ġtemu": 1804,
      "hi": 1805,
      "Ġprzeprowa": 1806,
      "ĠÅĽwiad": 1807,
      "ĠJest": 1808,
      "danie": 1809,
      "noÅĽciÄħ": 1810,
      "Ġnp": 1811,
      "nne": 1812,
      "usz": 1813,
      "ĠwartoÅĽci": 1814,
      "ĠNaj": 1815,
      "Ġopie": 1816,
      "Ġwypo": 1817,
      "70": 1818,
      "35": 1819,
      "Ġpun": 1820,
      "Ġne": 1821,
      "ĠokreÅĽlo": 1822,
      "Ġkol": 1823,
      "nkÃ³w": 1824,
      "waÅĤ": 1825,
      "cep": 1826,
      "ĠÅĽwiat": 1827,
      "Ġper": 1828,
      "tami": 1829,
      "ĠksiÄħ": 1830,
      "Ġodpowiedni": 1831,
      "Ġ|ĊĊ": 1832,
      "Ġklu": 1833,
      "Ġzamie": 1834,
      "ON": 1835,
      "moÅ¼li": 1836,
      "Ġsiebie": 1837,
      "ĠskÃ³": 1838,
      "Ġjaki": 1839,
      "Ġbe": 1840,
      "menty": 1841,
      "wz": 1842,
      "Ġilo": 1843,
      "pod": 1844,
      "nty": 1845,
      "Ġpozwala": 1846,
      "ĠdziaÅĤania": 1847,
      "roni": 1848,
      "ER": 1849,
      "Ġzain": 1850,
      "45": 1851,
      "pej": 1852,
      "Ġzde": 1853,
      "ĠktÃ³rego": 1854,
      "ÅĽredni": 1855,
      "ĠÅĤÄħ": 1856,
      "ÅĽniej": 1857,
      "che": 1858,
      "OR": 1859,
      "czka": 1860,
      "Ġpodej": 1861,
      "IN": 1862,
      "uka": 1863,
      "ĠwspÃ³l": 1864,
      "czyna": 1865,
      "rzÄħdza": 1866,
      "Ġjedy": 1867,
      "bardziej": 1868,
      "Ġwykorzysta": 1869,
      "ĠrÃ³Å¼nych": 1870,
      "ĠDe": 1871,
      "Ġalbo": 1872,
      "ĠBi": 1873,
      "Ġstronie": 1874,
      "Ġdobrze": 1875,
      "Ġ\\": 1876,
      "Ġpotrzeb": 1877,
      ".in": 1878,
      "nienie": 1879,
      "Ġmode": 1880,
      "wÃ³r": 1881,
      "ĠzamÃ³wie": 1882,
      "Ġzgodnie": 1883,
      "Ġnim": 1884,
      "Ġkto": 1885,
      "Ġograni": 1886,
      "Ġprzygot": 1887,
      "rach": 1888,
      "Ġtrzy": 1889,
      "Ġprezen": 1890,
      "Ġludzi": 1891,
      "ÅĤowa": 1892,
      "ĠÅĤat": 1893,
      "and": 1894,
      "wca": 1895,
      "Ġprzestrze": 1896,
      "ÅĽciÄħ": 1897,
      "Ġprawa": 1898,
      "EN": 1899,
      "iaÅĤ": 1900,
      "Ġ:": 1901,
      "Ġwzro": 1902,
      "Ġwiel": 1903,
      "Ġmeto": 1904,
      "piej": 1905,
      "ly": 1906,
      "ĠAr": 1907,
      "rzenie": 1908,
      "ĠOb": 1909,
      "ĠwÅĤaÅĽnie": 1910,
      "two": 1911,
      "ĠFi": 1912,
      "Ġkli": 1913,
      "Ġustawy": 1914,
      "32": 1915,
      "Ġzawar": 1916,
      "Ġrozwo": 1917,
      "twarza": 1918,
      "Ġkontro": 1919,
      "Ġaktyw": 1920,
      "mple": 1921,
      "lnÄħ": 1922,
      "kowe": 1923,
      "ĠÅ¼eby": 1924,
      "Ġstosu": 1925,
      "chodzÄħ": 1926,
      "gna": 1927,
      "rÃ³wno": 1928,
      "Ġuro": 1929,
      "wyÅ¼": 1930,
      "stÄħpi": 1931,
      "owymi": 1932,
      "ĠPolski": 1933,
      "czeÅĽniej": 1934,
      "ÅĤoÅĽÄĩ": 1935,
      "Ġide": 1936,
      "pular": 1937,
      "ss": 1938,
      "Ġwal": 1939,
      "tej": 1940,
      "kacji": 1941,
      "ĠSo": 1942,
      "Ġtechni": 1943,
      "Ġnaszej": 1944,
      "Ġmiejsc": 1945,
      "waran": 1946,
      "Ġtrwa": 1947,
      "ĠzarÃ³wno": 1948,
      "ÅĤek": 1949,
      "ĠPi": 1950,
      "nami": 1951,
      "Ġjednost": 1952,
      "ĠII": 1953,
      "Ro": 1954,
      "Ġrynku": 1955,
      "wÃ³dz": 1956,
      "Ġsek": 1957,
      "Ġ*": 1958,
      "czycie": 1959,
      "Ġhistor": 1960,
      "Ġ**": 1961,
      "raca": 1962,
      "Ġbudy": 1963,
      "ĠCa": 1964,
      "tel": 1965,
      "ĠksztaÅĤ": 1966,
      "cyjny": 1967,
      "ĠdÅĤugo": 1968,
      "ĠczÅĤo": 1969,
      "mienia": 1970,
      "Ġnada": 1971,
      "ĠnastÄĻp": 1972,
      "mentu": 1973,
      "ĠÅ¼ycie": 1974,
      "Ġgry": 1975,
      "ĠciÄĻ": 1976,
      "KA": 1977,
      "naj": 1978,
      "//": 1979,
      "Ġban": 1980,
      "ĠwÅĤo": 1981,
      "Ġprzedstawi": 1982,
      "ĠuwagÄĻ": 1983,
      "wÄħ": 1984,
      "ĠÅĽrodowi": 1985,
      "Ġumowy": 1986,
      "OD": 1987,
      "Ġsamocho": 1988,
      "zja": 1989,
      "jewÃ³dz": 1990,
      "Ġprzedmio": 1991,
      "Ġcu": 1992,
      "Ġswoich": 1993,
      "Pa": 1994,
      "ĠpamiÄĻ": 1995,
      "orÃ³w": 1996,
      "Ġzastos": 1997,
      "Å»": 1998,
      "Ġkilku": 1999,
      "gÄħ": 2000,
      "Ġonline": 2001,
      "ÅĽla": 2002,
      "pada": 2003,
      "Ġwynika": 2004,
      "Ġstop": 2005,
      "dzieÄĩ": 2006,
      "ĠjakoÅĽci": 2007,
      "Ġklasy": 2008,
      "Ġkredy": 2009,
      "Ġpowierz": 2010,
      "czywiÅĽcie": 2011,
      "wiÄĩ": 2012,
      "ttp": 2013,
      "Ġdwa": 2014,
      "cen": 2015,
      "bia": 2016,
      "mar": 2017,
      "tory": 2018,
      "Ġtrzeba": 2019,
      "Ġone": 2020,
      "Ġbezpiecze": 2021,
      "ĠmoÅ¼esz": 2022,
      "owanych": 2023,
      "ĠzwiÄĻk": 2024,
      "Ġmini": 2025,
      "ĠpostÄĻp": 2026,
      "ĠĠĠĠĠĠĠĠĠĠĠĠĠĠ": 2027,
      "ĠprÃ³": 2028,
      "Ġdar": 2029,
      "Ġsam": 2030,
      "Ġstanie": 2031,
      "ĠÅº": 2032,
      "Ġwsze": 2033,
      "ĠpÃ³Åº": 2034,
      "Ã³g": 2035,
      "://": 2036,
      "dniej": 2037,
      "Ġpoprzez": 2038,
      "Ġobej": 2039,
      "powiada": 2040,
      "Ġpoko": 2041,
      "ĠczÅĤowie": 2042,
      "ĠBy": 2043,
      "ĠwyÅĤÄħ": 2044,
      "dow": 2045,
      "Ġpara": 2046,
      "ĠosiÄħ": 2047,
      "Ġrealizacji": 2048,
      "jÄħcÄħ": 2049,
      "nij": 2050,
      "nicy": 2051,
      "ĠcoÅĽ": 2052,
      "Ġnajbardziej": 2053,
      "Ġinwesty": 2054,
      "tycznych": 2055,
      "prasza": 2056,
      "Ġkwo": 2057,
      "Jak": 2058,
      "Ġkur": 2059,
      "Ġwraz": 2060,
      "ĠBu": 2061,
      "logii": 2062,
      "ĠmieÄĩ": 2063,
      "ĠmoÅ¼liwoÅĽÄĩ": 2064,
      "Ġem": 2065,
      "ĠmieszkaÅĦ": 2066,
      "Ġzwie": 2067,
      "ĠobsÅĤu": 2068,
      "ĠponiewaÅ¼": 2069,
      "ĠpoÅĤÄħ": 2070,
      "Ġdrugie": 2071,
      "skÄħ": 2072,
      "koÅĽÄĩ": 2073,
      "ÅĽwiet": 2074,
      "Ġkro": 2075,
      "ĠwspÃ³ÅĤpra": 2076,
      "Ġgro": 2077,
      "ĠDzie": 2078,
      "zm": 2079,
      "Ġnatura": 2080,
      "Ġkieru": 2081,
      "ĠdziaÅĤalnoÅĽci": 2082,
      "Ġani": 2083,
      "ĠobowiÄħz": 2084,
      "pol": 2085,
      "kom": 2086,
      "Ġanali": 2087,
      "36": 2088,
      "ĠdzieÅĦ": 2089,
      "Ġwspo": 2090,
      "ĠwzglÄĻ": 2091,
      "szÄĻ": 2092,
      "pla": 2093,
      "owiÄħza": 2094,
      "Pod": 2095,
      "Ġdom": 2096,
      "Ġistnie": 2097,
      "Ġtytu": 2098,
      "ĠJed": 2099,
      "Ġsztu": 2100,
      "Ġczym": 2101,
      "ÅĽnia": 2102,
      "42": 2103,
      "ĠprzedsiÄĻbior": 2104,
      "Ġuda": 2105,
      "ĠtÅĤu": 2106,
      "ĠAu": 2107,
      "Ka": 2108,
      "Ġpoza": 2109,
      "dziaÅĤu": 2110,
      "cer": 2111,
      "Ġprawo": 2112,
      "tomiast": 2113,
      "wodni": 2114,
      "Ġdoskona": 2115,
      "Dz": 2116,
      "Ġ+": 2117,
      "ministra": 2118,
      "wki": 2119,
      "dro": 2120,
      "Ġinformacje": 2121,
      "Ġudzie": 2122,
      "Ġdosta": 2123,
      "nuje": 2124,
      "Ġznale": 2125,
      "33": 2126,
      "Ġfirm": 2127,
      "Ġx": 2128,
      "Ġrok": 2129,
      "Ġteraz": 2130,
      "byt": 2131,
      ")ĊĊ": 2132,
      "kol": 2133,
      "cjach": 2134,
      "owaÅĤ": 2135,
      "spÃ³ÅĤ": 2136,
      "Ġpodob": 2137,
      "chwa": 2138,
      "Ġprzysz": 2139,
      "ĠZe": 2140,
      "ĠpoÅ¼y": 2141,
      "ĠnastÄĻpu": 2142,
      "ĠzostaÅĤa": 2143,
      "Ġml": 2144,
      "prezen": 2145,
      "ĠmoÅ¼liwoÅĽci": 2146,
      "dnych": 2147,
      "Ġtro": 2148,
      "Ġnieza": 2149,
      "ĠswojÄħ": 2150,
      "Ġmiejsca": 2151,
      "Ġmiejscu": 2152,
      "czony": 2153,
      "Ġzaj": 2154,
      "dÅĤug": 2155,
      "owaniem": 2156,
      "pia": 2157,
      "Ġtechno": 2158,
      "tyka": 2159,
      "dli": 2160,
      "Ġjeden": 2161,
      "ciem": 2162,
      "ĠKra": 2163,
      "wÄĻ": 2164,
      "cyjnego": 2165,
      "Ġwyra": 2166,
      "ĠSÄħ": 2167,
      "Ġwykony": 2168,
      "Ġmoc": 2169,
      "ĠpÃ³ÅĤ": 2170,
      "ĠĠĠĠĠĠĠĠĠĠĠĠĠ": 2171,
      "Ġnaszych": 2172,
      "ĠĠĠĠĠĠĠĠĠĠĠĠĠĠĠĠĠĠĠĠĠĠĠĠĠĠĠĠĠĠĠĠĠĠĠĠĠĠĠĠĠĠĠĠĠĠĠĠ": 2173,
      "ĠÅĽrodkÃ³w": 2174,
      "Ġserwi": 2175,
      "czeÅĽnie": 2176,
      "ĠWe": 2177,
      "In": 2178,
      "ĠsÅĤo": 2179,
      "tuje": 2180,
      "iel": 2181,
      "Ġprojektu": 2182,
      "ĠpiÄĻk": 2183,
      "99": 2184,
      "Ġbli": 2185,
      "ĠmiesiÄħ": 2186,
      "ber": 2187,
      "gram": 2188,
      "Äĺ": 2189,
      "pisy": 2190,
      "ÄĦ": 2191,
      "Od": 2192,
      "ĠzakoÅĦ": 2193,
      "tnych": 2194,
      "Ġisto": 2195,
      "wÃ³ch": 2196,
      "ĠzwiÄħzku": 2197,
      "Ġzapewnia": 2198,
      "Ġmiasta": 2199,
      "Ġpomy": 2200,
      "tnoÅĽci": 2201,
      "ĠÐ": 2202,
      "niejsze": 2203,
      "Ġefek": 2204,
      "ĠÅĽwiet": 2205,
      "Ġwieku": 2206,
      "cent": 2207,
      "Czy": 2208,
      "OL": 2209,
      "Ġartyku": 2210,
      "Ġsil": 2211,
      "ktual": 2212,
      "48": 2213,
      "kÃ³ÅĤ": 2214,
      "cyjnej": 2215,
      "Ġwymia": 2216,
      "widu": 2217,
      "Ġeksp": 2218,
      "75": 2219,
      "Ġzaba": 2220,
      "ĠwyjÄħ": 2221,
      "ĠmoÅ¼emy": 2222,
      "Ġskute": 2223,
      ").ĊĊ": 2224,
      "ĠwczeÅĽniej": 2225,
      "Ġkraj": 2226,
      "Ġcm": 2227,
      "ĠogÃ³l": 2228,
      "ĠSe": 2229,
      "Ġtypu": 2230,
      "owoÅĽci": 2231,
      "Ġsame": 2232,
      ".com": 2233,
      "niesie": 2234,
      "Ġprzezna": 2235,
      "Mo": 2236,
      "ĠSy": 2237,
      "cego": 2238,
      "Ġprojekt": 2239,
      "ĠiÅ¼": 2240,
      "Ġtem": 2241,
      "ĠdwÃ³ch": 2242,
      "ĠudziaÅĤ": 2243,
      "os": 2244,
      "Ġzmiany": 2245,
      "jona": 2246,
      "ckiego": 2247,
      "NI": 2248,
      "ĠcaÅĤ": 2249,
      "chÄĻ": 2250,
      "ĠMu": 2251,
      "ĠLa": 2252,
      "Ġzu": 2253,
      "Ġsieci": 2254,
      "Ġzam": 2255,
      "Ġmamy": 2256,
      "zer": 2257,
      "ĠKu": 2258,
      "SZ": 2259,
      "ĠspeÅĤ": 2260,
      "tedy": 2261,
      "ĠAle": 2262,
      "rzyÄĩ": 2263,
      "nowi": 2264,
      "Ġsamy": 2265,
      "Ġstwo": 2266,
      "Ġrzecz": 2267,
      "ĠGa": 2268,
      "kowych": 2269,
      "Ġcieka": 2270,
      "undu": 2271,
      "wych": 2272,
      "god": 2273,
      "Ġkasy": 2274,
      "Ġpart": 2275,
      "sÅĤaw": 2276,
      "Ġodpowiedzia": 2277,
      "wykle": 2278,
      "Ġnapraw": 2279,
      "nna": 2280,
      "Ġtermi": 2281,
      "ĠNr": 2282,
      "ÅĦskiego": 2283,
      "Ġzale": 2284,
      "Ġokoli": 2285,
      "pÅĤat": 2286,
      "Ġpozna": 2287,
      "Ġska": 2288,
      "Ġdlatego": 2289,
      "ĠzostaÅĤy": 2290,
      "Ġdane": 2291,
      "ĠaÅ¼": 2292,
      "kow": 2293,
      "41": 2294,
      "Ġpsy": 2295,
      "tycznie": 2296,
      "34": 2297,
      "kuje": 2298,
      "owana": 2299,
      "Ġpomocy": 2300,
      "ĠCie": 2301,
      "rew": 2302,
      "zne": 2303,
      "ĠRady": 2304,
      "Ġlek": 2305,
      "Ġbudow": 2306,
      "ĠksiÄħÅ¼": 2307,
      "Re": 2308,
      "wycza": 2309,
      "Ġostatni": 2310,
      "Ġnowe": 2311,
      "stawia": 2312,
      "gniÄĻ": 2313,
      "bÄĻd": 2314,
      "ĠPre": 2315,
      "AL": 2316,
      "Ġwyja": 2317,
      "Ġzespo": 2318,
      "Ġwer": 2319,
      "czÄĻÅĽcie": 2320,
      "siÄĻcy": 2321,
      "par": 2322,
      "Ġspecjali": 2323,
      "gle": 2324,
      "Ġjeste": 2325,
      "Ġskle": 2326,
      "towe": 2327,
      "teres": 2328,
      "ke": 2329,
      "moc": 2330,
      "Ġchoro": 2331,
      "Ġsytuacji": 2332,
      "niku": 2333,
      "ĠmoÅ¼li": 2334,
      "lach": 2335,
      "feren": 2336,
      "dywidu": 2337,
      "Ġobro": 2338,
      "ony": 2339,
      "dzeÅĦ": 2340,
      "dziÅĤ": 2341,
      "nomi": 2342,
      "Ġpacje": 2343,
      "fes": 2344,
      "Ġdobre": 2345,
      "................................................................": 2346,
      "rii": 2347,
      "Ġpkt": 2348,
      "Ġfizy": 2349,
      "Ġlata": 2350,
      "ĠDziÄĻki": 2351,
      "Ġcel": 2352,
      "ĠSu": 2353,
      "bieg": 2354,
      "Ġopa": 2355,
      "Ġuzna": 2356,
      "ĠumoÅ¼li": 2357,
      "ownika": 2358,
      "Ġswojej": 2359,
      "ĠpomocÄħ": 2360,
      "Ġniego": 2361,
      "ces": 2362,
      "ler": 2363,
      "ĠkaÅ¼dego": 2364,
      "Ġv": 2365,
      "ctwo": 2366,
      "Ġwody": 2367,
      "ĠBar": 2368,
      "ĠtÄĻ": 2369,
      "bud": 2370,
      "tyki": 2371,
      "Ġwielo": 2372,
      "Ġtaki": 2373,
      "Ġimp": 2374,
      "39": 2375,
      "Ġdowo": 2376,
      "Ġwykorzy": 2377,
      "Ġzob": 2378,
      "ĠprzykÅĤad": 2379,
      "Ġlatach": 2380,
      "Å¼czy": 2381,
      "Ġoferty": 2382,
      "Ġprzyczy": 2383,
      "Ġki": 2384,
      "---|---|": 2385,
      "qu": 2386,
      "Ġopera": 2387,
      "Ġszero": 2388,
      "ĠniektÃ³": 2389,
      "ĠwÄħ": 2390,
      "Ġprzede": 2391,
      "44": 2392,
      "czonych": 2393,
      "Ġwskaza": 2394,
      "Ġdokona": 2395,
      "Ġeko": 2396,
      "dzone": 2397,
      "Ġzau": 2398,
      "Ġdie": 2399,
      "ĠÅ¼": 2400,
      "lan": 2401,
      "rzÄħdu": 2402,
      "czyÅĤ": 2403,
      "jÄĻÄĩ": 2404,
      "Ġmoje": 2405,
      "Ja": 2406,
      "ĠNi": 2407,
      "Ġrazem": 2408,
      "biega": 2409,
      "ÅĽni": 2410,
      "mery": 2411,
      "obec": 2412,
      "Ġzostanie": 2413,
      "\".Ċ": 2414,
      "38": 2415,
      "ĠTwoje": 2416,
      "Ġkole": 2417,
      "Ġuczni": 2418,
      "ĠskÅĤada": 2419,
      "ĠsprzÄĻ": 2420,
      "ĠmiaÅĤ": 2421,
      "godnie": 2422,
      "Ġnowych": 2423,
      "cjon": 2424,
      "Ġniej": 2425,
      "zacjÄĻ": 2426,
      "nione": 2427,
      "Ġnaszym": 2428,
      "Ġmuzy": 2429,
      "Ġkonkur": 2430,
      "misji": 2431,
      "Ġmam": 2432,
      "ĠMoÅ¼e": 2433,
      "ĠduÅ¼y": 2434,
      "Ġterenie": 2435,
      "ĠnajwiÄĻk": 2436,
      "Ġswoim": 2437,
      "43": 2438,
      "dach": 2439,
      "Ġjednym": 2440,
      "kowy": 2441,
      "dywidual": 2442,
      "ĠokoÅĤo": 2443,
      "ĠwzglÄĻdu": 2444,
      "Ġczego": 2445,
      "ĠJu": 2446,
      "Ġwiado": 2447,
      "------------": 2448,
      "obie": 2449,
      "Ġrozwoju": 2450,
      "Ġeg": 2451,
      "Ġproduk": 2452,
      "Ġusu": 2453,
      "nic": 2454,
      "Ġstar": 2455,
      "sen": 2456,
      "tur": 2457,
      "gno": 2458,
      "wiek": 2459,
      "Ġzdecy": 2460,
      "ĠzaÅĤo": 2461,
      "Ġwyposa": 2462,
      "rma": 2463,
      "sach": 2464,
      "Ġoznacza": 2465,
      "liwoÅĽci": 2466,
      "ĠĠĠĠĠĠĠĠĠĠĠĠĠĠĠ": 2467,
      "Ġznajdzie": 2468,
      "To": 2469,
      "37": 2470,
      "KI": 2471,
      "wczy": 2472,
      "tom": 2473,
      "Å¼one": 2474,
      "ĠproduktÃ³w": 2475,
      "tkÃ³w": 2476,
      "Ġpotwier": 2477,
      "Ġpomoc": 2478,
      "ĠÅĽwiecie": 2479,
      "Ġpotra": 2480,
      "rea": 2481,
      "us": 2482,
      "Ġryzy": 2483,
      "Ġdobry": 2484,
      "ĠPrzed": 2485,
      "--|": 2486,
      "mpa": 2487,
      "ĠSpo": 2488,
      "55": 2489,
      "Ġotwar": 2490,
      "mail": 2491,
      "Ġrekla": 2492,
      "Ġpora": 2493,
      "Ġkomunika": 2494,
      "lub": 2495,
      "85": 2496,
      "Ġpowy": 2497,
      "Ġapli": 2498,
      "Ġzre": 2499,
      "cenie": 2500,
      "NE": 2501,
      "niach": 2502,
      "Ġcoraz": 2503,
      "ĠdotyczÄħce": 2504,
      "Ġrozwi": 2505,
      "ÅºÄĩ": 2506,
      "jÄĻcie": 2507,
      "ĠFa": 2508,
      "Ð¾": 2509,
      "dr": 2510,
      "Ġzawod": 2511,
      "Ġbezpo": 2512,
      "kolwiek": 2513,
      "ĠpÅĤa": 2514,
      "niwer": 2515,
      "ĠCen": 2516,
      "Ġtek": 2517,
      "gnie": 2518,
      "cÅĤa": 2519,
      "Ġprzyj": 2520,
      "Ġubezpie": 2521,
      "Ġpopular": 2522,
      "Åºdzie": 2523,
      "Ġzainteres": 2524,
      "ura": 2525,
      "lami": 2526,
      "Co": 2527,
      "Ġzapro": 2528,
      "ĠczÄĻÅĽÄĩ": 2529,
      "ktury": 2530,
      "Ġkonsu": 2531,
      "Ġcent": 2532,
      "jo": 2533,
      "nnych": 2534,
      "Ġedu": 2535,
      "lia": 2536,
      "Ġideal": 2537,
      "tal": 2538,
      "Ġpodmio": 2539,
      "Ġprzej": 2540,
      "Ġona": 2541,
      "ium": 2542,
      "Przy": 2543,
      "grafi": 2544,
      "Ġwspar": 2545,
      "Ġwszel": 2546,
      "Ġszuka": 2547,
      "man": 2548,
      "ksy": 2549,
      "Ġkraju": 2550,
      "dra": 2551,
      "Ġgwaran": 2552,
      "ĠpiÄĻ": 2553,
      "ĠPoli": 2554,
      "nien": 2555,
      "let": 2556,
      "tym": 2557,
      "ownik": 2558,
      "glÄĻd": 2559,
      "Ġreje": 2560,
      "Ġeta": 2561,
      "Ġznajdu": 2562,
      "Ġznajduje": 2563,
      "ĠchÅĤo": 2564,
      "ĠktÃ³rÄħ": 2565,
      "ĠWykona": 2566,
      "czek": 2567,
      "ĠwyglÄħda": 2568,
      "Ġnaszego": 2569,
      "dnoÅĽci": 2570,
      "ĠĠĠĠĠĠĠĠĠĠĠĠĠĠĠĠĠĠĠĠĠĠĠĠĠĠĠĠĠĠĠĠĠĠĠĠĠĠĠĠĠĠĠĠĠĠĠĠĠĠĠĠĠĠĠĠĠĠĠĠĠĠĠĠ": 2571,
      "Ġnierucho": 2572,
      "Ġinnymi": 2573,
      "ĠMia": 2574,
      "Ġnauczycie": 2575,
      "szczegÃ³l": 2576,
      "ĠDu": 2577,
      "zyden": 2578,
      "Ġdoty": 2579,
      "Ġindywidual": 2580,
      "jcie": 2581,
      "taÄĩ": 2582,
      "ĠSzko": 2583,
      "ĠzarzÄħdza": 2584,
      "piera": 2585,
      "Ġho": 2586,
      "Ġkier": 2587,
      "dio": 2588,
      "west": 2589,
      "ĠwysokoÅĽci": 2590,
      "ĠusÅĤugi": 2591,
      "ÅĦska": 2592,
      "Ġleka": 2593,
      "CJ": 2594,
      "ver": 2595,
      "Ġmedy": 2596,
      "va": 2597,
      "Ġnasze": 2598,
      "ĠAl": 2599,
      "widÅĤ": 2600,
      "---": 2601,
      "ĠpÅĤat": 2602,
      "ĠUS": 2603,
      "sh": 2604,
      "Ġwyna": 2605,
      "miar": 2606,
      "Ġpowodu": 2607,
      "ĠWarszawa": 2608,
      "\"Ċ": 2609,
      "RE": 2610,
      "ĠTak": 2611,
      "ĠciÄħgu": 2612,
      "ĠPe": 2613,
      "AM": 2614,
      "ĠPu": 2615,
      "Ġzdoby": 2616,
      "siÅĤ": 2617,
      "ĠnaprawdÄĻ": 2618,
      "ĠpoczÄħtku": 2619,
      "owiem": 2620,
      "cznoÅĽÄĩ": 2621,
      "Ġbadania": 2622,
      "szcz": 2623,
      "Ġpopra": 2624,
      "ĠbudÅ¼e": 2625,
      "51": 2626,
      "Ġodby": 2627,
      "szczy": 2628,
      "Ġuli": 2629,
      "ĠPola": 2630,
      "Ġpierwszy": 2631,
      "ĠCho": 2632,
      "ĠzgÅĤo": 2633,
      "wej": 2634,
      "ĠniezbÄĻd": 2635,
      "gÃ³ÅĤ": 2636,
      "Ġsport": 2637,
      "daÄĩ": 2638,
      "Ġczu": 2639,
      "ĠwiÄĻkszo": 2640,
      "Ġnic": 2641,
      "Ġdziec": 2642,
      "rami": 2643,
      "szuki": 2644,
      "Ġsma": 2645,
      "Ġadres": 2646,
      "ĠBe": 2647,
      "resu": 2648,
      "ĠEuropej": 2649,
      "Ġzabezpie": 2650,
      "szczÄĻ": 2651,
      "Ġrodzaju": 2652,
      "ndy": 2653,
      "lta": 2654,
      "ĠmyÅĽ": 2655,
      "Te": 2656,
      "ĠduÅ¼o": 2657,
      "wyczaj": 2658,
      "ĠpÃ³Åºniej": 2659,
      "len": 2660,
      "Ġprzyja": 2661,
      "Ġtys": 2662,
      "wego": 2663,
      "ĠzwiÄħzane": 2664,
      "ĠCe": 2665,
      "para": 2666,
      "Ġdostar": 2667,
      "Ġtrady": 2668,
      "Ġsystemu": 2669,
      "ÅĤka": 2670,
      "Ġmm": 2671,
      "ĠInter": 2672,
      "puszcza": 2673,
      "zmu": 2674,
      "Ġzoba": 2675,
      "mow": 2676,
      "ĠspÃ³ÅĤ": 2677,
      "ortu": 2678,
      "unda": 2679,
      "sÅĤo": 2680,
      "Ġwrze": 2681,
      "ĠRy": 2682,
      "budowa": 2683,
      "Ġsub": 2684,
      "dostÄĻp": 2685,
      "tkowo": 2686,
      "szar": 2687,
      "46": 2688,
      "ĠszkoÅĤy": 2689,
      "Ġjedynie": 2690,
      "Ġstwier": 2691,
      "gdy": 2692,
      "Ġtutaj": 2693,
      "ĠDy": 2694,
      "kÅĤadu": 2695,
      "ĠÂ": 2696,
      "Ð°": 2697,
      "sÅĤy": 2698,
      "Ġwtedy": 2699,
      "ĠHo": 2700,
      "Ġpozwo": 2701,
      "Ġkompu": 2702,
      "tny": 2703,
      "ĠMini": 2704,
      "Ġochrony": 2705,
      "lik": 2706,
      "ĠpracownikÃ³w": 2707,
      "nny": 2708,
      "Ġprywa": 2709,
      "Ġpowierzchni": 2710,
      "narod": 2711,
      "mula": 2712,
      "trza": 2713,
      "ĠciÄĻÅ¼": 2714,
      "ĠkaÅ¼dym": 2715,
      "Ġokresie": 2716,
      "ĠmÄĻÅ¼czy": 2717,
      "Ġwoj": 2718,
      "Ġprzyzna": 2719,
      "mnia": 2720,
      "Ġokres": 2721,
      "Ġszybko": 2722,
      "ĠzamÃ³wienia": 2723,
      "Ġdwu": 2724,
      "ĠchoÄĩ": 2725,
      "gh": 2726,
      "Ġdziecka": 2727,
      "dziaÅĤa": 2728,
      "Å¼ony": 2729,
      "Ġprzetwarza": 2730,
      "ĠnarzÄĻ": 2731,
      "Ġpowia": 2732,
      "szyÄĩ": 2733,
      "Ġuczestni": 2734,
      "ÅĦstw": 2735,
      "mowe": 2736,
      "dzÄĻ": 2737,
      "gÃ³w": 2738,
      "Ġeuro": 2739,
      "ĠĠĊ": 2740,
      "ĠcaÅĤkowi": 2741,
      "52": 2742,
      "Ġhand": 2743,
      "stw": 2744,
      "Ġdniu": 2745,
      "mÄĻ": 2746,
      "lizacji": 2747,
      "wany": 2748,
      "Ġwymie": 2749,
      "65": 2750,
      "fia": 2751,
      "Ġinsta": 2752,
      "przy": 2753,
      "dzeniu": 2754,
      "Ġrobi": 2755,
      "liÄĩ": 2756,
      "Ġorganiza": 2757,
      "Ġtransp": 2758,
      "Ġtempera": 2759,
      "Ġregi": 2760,
      "ĠPolska": 2761,
      "towy": 2762,
      "Ġnatomiast": 2763,
      "ad": 2764,
      "Ġpromo": 2765,
      "Ġhttp": 2766,
      "fesjona": 2767,
      "Ġy": 2768,
      "towych": 2769,
      "struk": 2770,
      "ĠumiejÄĻ": 2771,
      "Ġpoka": 2772,
      "wiel": 2773,
      "ĠAnd": 2774,
      "Ġocze": 2775,
      "Ġblo": 2776,
      "dami": 2777,
      "ĠÅĽwiata": 2778,
      "Ġobraz": 2779,
      "Ġchodzi": 2780,
      "Ġsamym": 2781,
      "szech": 2782,
      "Ġproblem": 2783,
      "umer": 2784,
      "zdy": 2785,
      "Ġcodzie": 2786,
      "wiajÄħ": 2787,
      "Ġzatru": 2788,
      "szczenia": 2789,
      "stety": 2790,
      "syw": 2791,
      "cami": 2792,
      "Ġdaw": 2793,
      "Ġtrak": 2794,
      "ÄħdÅº": 2795,
      "Ġstru": 2796,
      "rocÅĤa": 2797,
      "xa": 2798,
      "Ġtry": 2799,
      "Ġoprac": 2800,
      "czeniem": 2801,
      "ĠGminy": 2802,
      "ckie": 2803,
      "ĠLo": 2804,
      "leÅ¼noÅĽci": 2805,
      "OS": 2806,
      "Ġgrupy": 2807,
      "TA": 2808,
      "ĠNo": 2809,
      "ĠcaÅĤy": 2810,
      "Ġchcia": 2811,
      "ĠzrobiÄĩ": 2812,
      "ĠJednak": 2813,
      "ĠwÅĽrÃ³d": 2814,
      "Ġtowarzy": 2815,
      "NA": 2816,
      "ĠpracÄĻ": 2817,
      "Ġforma": 2818,
      "49": 2819,
      "ĠwyÅ¼": 2820,
      "wienia": 2821,
      "Ġwido": 2822,
      "47": 2823,
      "Ġodpowiada": 2824,
      "styczne": 2825,
      "Ġbrak": 2826,
      "piero": 2827,
      "moÅĽÄĩ": 2828,
      "zujÄħ": 2829,
      "Ġelektry": 2830,
      "Ġrobo": 2831,
      "Ġatrak": 2832,
      "zw": 2833,
      "owaÅ¼": 2834,
      "jekt": 2835,
      "ĠurzÄħdzenia": 2836,
      "Ġprawdzi": 2837,
      "ĠjeÅ¼eli": 2838,
      "ksztaÅĤ": 2839,
      "Ġprzygotowa": 2840,
      "ld": 2841,
      "nnie": 2842,
      "ĠsprzedaÅ¼y": 2843,
      "towi": 2844,
      "ĠSzcze": 2845,
      "Ġlep": 2846,
      "woz": 2847,
      "ĠklientÃ³w": 2848,
      "Ġrozu": 2849,
      "Ġdalej": 2850,
      "Ġdia": 2851,
      "ĠwÄĻ": 2852,
      "is": 2853,
      "Ġopar": 2854,
      "Ta": 2855,
      "tyczny": 2856,
      "pisÃ³w": 2857,
      "ĠbezpieczeÅĦstwa": 2858,
      "Ġsposob": 2859,
      "demi": 2860,
      "ĠroÅĽli": 2861,
      "Ġbran": 2862,
      "Ġpowinien": 2863,
      "Ġswojego": 2864,
      "Ġutrzyma": 2865,
      "ĠogÅĤo": 2866,
      "Ġbizne": 2867,
      "piÄĻ": 2868,
      "ĠWszyst": 2869,
      "czona": 2870,
      "ĠznaleÅºÄĩ": 2871,
      "ir": 2872,
      "ĠWarto": 2873,
      "ĠPozna": 2874,
      "Ġzy": 2875,
      "www": 2876,
      "ĠPL": 2877,
      "Naj": 2878,
      "nnego": 2879,
      "Ġkatego": 2880,
      "ĠPla": 2881,
      "sami": 2882,
      "zowane": 2883,
      "ple": 2884,
      "Ġkr": 2885,
      "ĠzobowiÄħza": 2886,
      "iÄħ": 2887,
      "JeÅĽli": 2888,
      "Ġor": 2889,
      "95": 2890,
      "stoÅĽci": 2891,
      "gina": 2892,
      "towaÄĩ": 2893,
      "nos": 2894,
      "ĠswÃ³j": 2895,
      "ĠdziÅĽ": 2896,
      "Ġpom": 2897,
      "cyjna": 2898,
      "Ġzdrowia": 2899,
      "Ġprzemy": 2900,
      "Ġile": 2901,
      "cieÅ¼": 2902,
      "ĠÅĽwiÄĻ": 2903,
      "zyj": 2904,
      "ĠdziaÅĤaÅĦ": 2905,
      "Ġwynosi": 2906,
      "Ġwych": 2907,
      "stry": 2908,
      "ÅĽwiÄĻ": 2909,
      "Ġsez": 2910,
      "Ġstand": 2911,
      "Ġobu": 2912,
      "rzeÅĦ": 2913,
      "cznik": 2914,
      "54": 2915,
      "cym": 2916,
      "ĠRze": 2917,
      "Ġautor": 2918,
      "Ġrzeczy": 2919,
      "syj": 2920,
      "ĠskÅĤad": 2921,
      "ĠposzczegÃ³l": 2922,
      "zÄĻ": 2923,
      "fikacji": 2924,
      "gar": 2925,
      "Ġprodukcji": 2926,
      "woÅĤa": 2927,
      "bio": 2928,
      "ÅĦskiej": 2929,
      "Ġprogram": 2930,
      "IS": 2931,
      "gani": 2932,
      "Ġzad": 2933,
      "Ġnajmniej": 2934,
      "lin": 2935,
      "wal": 2936,
      "Ġzagro": 2937,
      "tual": 2938,
      "ĠszczegÃ³lnie": 2939,
      "ĠgÅĤ": 2940,
      "Ġczeka": 2941,
      "Å¼na": 2942,
      "laz": 2943,
      "AD": 2944,
      "mer": 2945,
      "ĠPar": 2946,
      "Ġogrom": 2947,
      "ĠtreÅĽci": 2948,
      "Da": 2949,
      "ĠskÅĤadni": 2950,
      "ĠzaÅĽ": 2951,
      "pienia": 2952,
      "Ġprostu": 2953,
      "Ġstycz": 2954,
      "Ġdal": 2955,
      "Ġdocho": 2956,
      "Ġzmniej": 2957,
      "59": 2958,
      "cjami": 2959,
      "zjÄĻ": 2960,
      "Ġczar": 2961,
      "miÄĻdzy": 2962,
      "Ðµ": 2963,
      "97": 2964,
      "Ġnowoczes": 2965,
      "tw": 2966,
      "pier": 2967,
      "53": 2968,
      "nowie": 2969,
      "Ġpli": 2970,
      "Ġkorzy": 2971,
      "szyscy": 2972,
      "ĠY": 2973,
      "ĠstanowiÄħ": 2974,
      "ĠporÃ³w": 2975,
      "ts": 2976,
      "ĠwystÄĻpu": 2977,
      "pisu": 2978,
      "OM": 2979,
      "Ġpostaci": 2980,
      "kowej": 2981,
      "kniÄĻ": 2982,
      "Ġinstytu": 2983,
      "ĠnieruchomoÅĽci": 2984,
      "ĠnajwaÅ¼": 2985,
      "Ġbowiem": 2986,
      "rÃ³j": 2987,
      "ĠopÅĤa": 2988,
      "ĠpieniÄĻ": 2989,
      "rzej": 2990,
      "ĠTu": 2991,
      "Ġwyro": 2992,
      "strzy": 2993,
      "Ġpodkre": 2994,
      "Ġosobi": 2995,
      "Ġszkole": 2996,
      "ĠGdy": 2997,
      "Ġadministra": 2998,
      "piÄĩ": 2999,
      "Ġuwz": 3000,
      "Ġuza": 3001,
      "Ġwystar": 3002,
      "ĠwaÅ¼ne": 3003,
      "56": 3004,
      "ĠbadaÅĦ": 3005,
      "Ġjednej": 3006,
      "Ġuchwa": 3007,
      "ĠskÃ³ry": 3008,
      "Ġprogramu": 3009,
      "ĠÅĽredni": 3010,
      "Åºdzier": 3011,
      "Ġenergii": 3012,
      "Ġosoba": 3013,
      "ckiej": 3014,
      "mencie": 3015,
      "Ġdrew": 3016,
      "wski": 3017,
      "ĠmiaÅĤa": 3018,
      "Ġtrakcie": 3019,
      "Ġelektroni": 3020,
      "lika": 3021,
      "Ġbia": 3022,
      "ÅĤÃ³": 3023,
      "Ġwobec": 3024,
      "Ġdziedzi": 3025,
      "Ġan": 3026,
      "ĠwyÅĤÄħcznie": 3027,
      "Ġwej": 3028,
      "iedy": 3029,
      "ĠÅĽmier": 3030,
      "ĠJo": 3031,
      "ĠÅºrÃ³d": 3032,
      "Ġcharaktery": 3033,
      "Ġzadania": 3034,
      "Ã³gÅĤ": 3035,
      "Ġskorzysta": 3036,
      "Ġprakty": 3037,
      "ĠwojewÃ³dz": 3038,
      "61": 3039,
      "ĠwedÅĤug": 3040,
      "zio": 3041,
      "Ġoczy": 3042,
      "Ġwyzna": 3043,
      "Ġgodz": 3044,
      "Ġwra": 3045,
      "ĠpoÅĤo": 3046,
      "Wi": 3047,
      "Ġponi": 3048,
      "ĠbieÅ¼Äħ": 3049,
      "lno": 3050,
      "Ġtelef": 3051,
      "Ġab": 3052,
      "nce": 3053,
      "trÃ³w": 3054,
      "tycznej": 3055,
      "ĠGru": 3056,
      "Ġproduktu": 3057,
      "ĠbezpoÅĽredni": 3058,
      "Ġkwiet": 3059,
      "ĠuwaÅ¼a": 3060,
      "ÅĽciach": 3061,
      "bÄħ": 3062,
      "Ġbio": 3063,
      "peÅĤnia": 3064,
      "Ġpomie": 3065,
      "ria": 3066,
      "nÄħÅĤ": 3067,
      "ĠwewnÄĻtrz": 3068,
      "ĠksiÄĻ": 3069,
      "ĠHa": 3070,
      "ĠDoda": 3071,
      "ĠGra": 3072,
      "Ġzmian": 3073,
      "64": 3074,
      "\\(": 3075,
      "Mi": 3076,
      "ĠSP": 3077,
      "nci": 3078,
      "Ġsuk": 3079,
      "Ġmasz": 3080,
      "Ġrazie": 3081,
      "ĠmateriaÅĤÃ³w": 3082,
      "92": 3083,
      "58": 3084,
      "Ġmili": 3085,
      "mal": 3086,
      "ĠFran": 3087,
      "**ĊĊ": 3088,
      "Roz": 3089,
      "Ġnale": 3090,
      "ciel": 3091,
      "ĠkaÅ¼dej": 3092,
      "Ġprodukty": 3093,
      "row": 3094,
      "Ġorganizacji": 3095,
      "Ġprofesjona": 3096,
      "72": 3097,
      "ĠzewnÄĻtrz": 3098,
      "klu": 3099,
      "57": 3100,
      "Ġzdo": 3101,
      "Ġbudowla": 3102,
      "organi": 3103,
      "gry": 3104,
      "zumie": 3105,
      "ĠsobÄħ": 3106,
      "Ġ=": 3107,
      "niejszych": 3108,
      "wicz": 3109,
      "Ġgrani": 3110,
      "Ġprak": 3111,
      "Ġnu": 3112,
      "ĠrozpoczÄĻ": 3113,
      "chani": 3114,
      "Ġkonkre": 3115,
      "yba": 3116,
      "Ġplan": 3117,
      "kowego": 3118,
      "racji": 3119,
      "dzeniem": 3120,
      "lone": 3121,
      "Li": 3122,
      "Ġlisto": 3123,
      "ĠÄĩ": 3124,
      "Sz": 3125,
      "62": 3126,
      "ĠpaÅºdzier": 3127,
      "wym": 3128,
      "Ġsier": 3129,
      "publi": 3130,
      "ĠwpÅĤyw": 3131,
      "ĠrÃ³Å¼ne": 3132,
      "ĠPan": 3133,
      "ĠgÃ³": 3134,
      "tencja": 3135,
      "Ġjednego": 3136,
      "ĠJan": 3137,
      "stycznych": 3138,
      "Ġkwest": 3139,
      "ĠPR": 3140,
      "66": 3141,
      "Ġpoziom": 3142,
      "Ġformie": 3143,
      "ÅĤaszcza": 3144,
      "ĠDlatego": 3145,
      "\\(^": 3146,
      "praszamy": 3147,
      "Ġdwie": 3148,
      "lony": 3149,
      "ĠkrÃ³t": 3150,
      "fra": 3151,
      "ĠÂ§": 3152,
      "Ġpisa": 3153,
      "Ġzbyt": 3154,
      "ĠzwrÃ³": 3155,
      "ĠpomiÄĻdzy": 3156,
      "Ġprzewi": 3157,
      "ĠHi": 3158,
      "GO": 3159,
      "czÄĻÅĽciej": 3160,
      "czym": 3161,
      "tna": 3162,
      "Ġupraw": 3163,
      "bym": 3164,
      "ton": 3165,
      "Ġrela": 3166,
      "ĠnastÄĻpnie": 3167,
      "towej": 3168,
      "Ġkm": 3169,
      "bili": 3170,
      "ĠnajwyÅ¼": 3171,
      "67": 3172,
      "ĠzdjÄĻcia": 3173,
      "ÃĵW": 3174,
      "Ġwypad": 3175,
      "NIE": 3176,
      "Ġmowa": 3177,
      "Ġosobowych": 3178,
      "Ġkos": 3179,
      "pania": 3180,
      "kon": 3181,
      "krÄĻ": 3182,
      "ÅĤeÅĽ": 3183,
      "ĠuczniÃ³w": 3184,
      "land": 3185,
      "Ġlecz": 3186,
      ".)": 3187,
      "ĠJeÅ¼eli": 3188,
      "Ġpierwsze": 3189,
      "rÃ³b": 3190,
      "ĠumoÅ¼liwia": 3191,
      "98": 3192,
      "Ġpomaga": 3193,
      "Ġsen": 3194,
      "trum": 3195,
      "ĠzadaÅĦ": 3196,
      "zywa": 3197,
      "ZY": 3198,
      "ĠGe": 3199,
      "Ġobja": 3200,
      "ĠPio": 3201,
      "dowanie": 3202,
      "Ġpoziomie": 3203,
      "Ġreprezen": 3204,
      "cem": 3205,
      "Ġpolega": 3206,
      "Ġâ": 3207,
      "bry": 3208,
      "Ġrozwija": 3209,
      "SP": 3210,
      "zowaÄĩ": 3211,
      "Ġfoto": 3212,
      "63": 3213,
      "cyjnym": 3214,
      "!!": 3215,
      "Ġzim": 3216,
      "Ġmaja": 3217,
      "mor": 3218,
      "ĠwspÃ³ÅĤpracy": 3219,
      "ower": 3220,
      "Ġrzeczywi": 3221,
      "ĠbÄħdÅº": 3222,
      "Ġgrup": 3223,
      "Ġtury": 3224,
      "Ġimpre": 3225,
      "ĠÅĽcia": 3226,
      "kowania": 3227,
      "Ġniniej": 3228,
      "Ġsiedzi": 3229,
      "Ġczerwca": 3230,
      "Ġproces": 3231,
      "rÃ³t": 3232,
      "Ġwarunki": 3233,
      "Ġodwie": 3234,
      "________": 3235,
      "ĠThe": 3236,
      "Ġpotrzeby": 3237,
      "Ġdrugi": 3238,
      "gÅĤa": 3239,
      "bro": 3240,
      "lowa": 3241,
      "Ġwygra": 3242,
      "ĠzwiÄħzanych": 3243,
      "ĠAd": 3244,
      "Ġowo": 3245,
      "stna": 3246,
      "Ã³z": 3247,
      "Ġmarca": 3248,
      "Ġniepo": 3249,
      "Ġokaza": 3250,
      "71": 3251,
      "syte": 3252,
      "Ġnapisa": 3253,
      "Ġminut": 3254,
      "Ġgrudnia": 3255,
      "Ġpan": 3256,
      "ĠWiel": 3257,
      "Ġdrugiej": 3258,
      "Ġodpowiednie": 3259,
      "Ġdotyczy": 3260,
      "Ġzwro": 3261,
      "Ġanty": 3262,
      "niwersyte": 3263,
      "ĠwrzeÅĽnia": 3264,
      "ĠmieszkaÅĦcÃ³w": 3265,
      "gan": 3266,
      "cena": 3267,
      "ĠNe": 3268,
      "Ġwykonania": 3269,
      "licza": 3270,
      "ger": 3271,
      "ĠRu": 3272,
      "Ġpozytyw": 3273,
      "ĠĠĠĠĠĠĠĠĠĠĠĠĠĠĠĠĠ": 3274,
      "Ġaktual": 3275,
      "Ġproc": 3276,
      "ĠduÅ¼e": 3277,
      "AK": 3278,
      "ĠmÃ³gÅĤ": 3279,
      "Ġdoro": 3280,
      "Ġkwa": 3281,
      "mbo": 3282,
      "ĠczÅĤowieka": 3283,
      "Ġlip": 3284,
      "Ġkoniec": 3285,
      "lina": 3286,
      "Ġmln": 3287,
      "ĠSer": 3288,
      "torÃ³w": 3289,
      "sc": 3290,
      "ownicy": 3291,
      "Ġbru": 3292,
      "Ġnieu": 3293,
      "Ġmaszy": 3294,
      "Ġpracu": 3295,
      "ĠjednoczeÅĽnie": 3296,
      "cieli": 3297,
      "Ġobecnie": 3298,
      "tycznego": 3299,
      "Ġl": 3300,
      "Ġprzeka": 3301,
      "sowe": 3302,
      "Ġzakup": 3303,
      "Ġlepiej": 3304,
      "96": 3305,
      "91": 3306,
      "Ġtwa": 3307,
      "ĠmÅĤodzie": 3308,
      "ÅĤki": 3309,
      ".o": 3310,
      "ĠSpÃ³ÅĤ": 3311,
      "ĠSto": 3312,
      "Ġarchi": 3313,
      "Ġstara": 3314,
      "OÅļ": 3315,
      "AS": 3316,
      "Ġklucz": 3317,
      "finans": 3318,
      "Ġprawie": 3319,
      "nal": 3320,
      "Ġzmienia": 3321,
      "wnÄħ": 3322,
      "ĠKaÅ¼": 3323,
      "Ġdobra": 3324,
      "Ġkomp": 3325,
      "ĠWarszawie": 3326,
      "Ġpotrafi": 3327,
      "Ġwyj": 3328,
      "CI": 3329,
      "glÄħd": 3330,
      "LE": 3331,
      "chowy": 3332,
      "Ġpowinny": 3333,
      "Ġprowadzi": 3334,
      "Ð¸": 3335,
      "zwa": 3336,
      "ĠÅ¼ad": 3337,
      "lepiej": 3338,
      "gÃ³": 3339,
      "Ġznacznie": 3340,
      "Ġkobiet": 3341,
      "ĠdostÄĻpne": 3342,
      "ĠprawidÅĤ": 3343,
      "tex": 3344,
      "ĠZamawia": 3345,
      "Ġzbior": 3346,
      "wcy": 3347,
      "Ġspowo": 3348,
      "AW": 3349,
      "Ġoczeki": 3350,
      "siaj": 3351,
      "krai": 3352,
      "ciÄħga": 3353,
      "lkoho": 3354,
      "ĠciaÅĤa": 3355,
      "ĠdoÅĽÄĩ": 3356,
      "Ġprzekaza": 3357,
      "US": 3358,
      "gaÅ¼": 3359,
      "stawy": 3360,
      "Å¼eÅĦ": 3361,
      "Ġjestem": 3362,
      "Ġzaka": 3363,
      "Ġodbior": 3364,
      "Ġpowinna": 3365,
      "ĠWrocÅĤa": 3366,
      "ÅĽrod": 3367,
      "ĠiloÅĽci": 3368,
      "ll": 3369,
      "TY": 3370,
      "Ġwww": 3371,
      "xample": 3372,
      "ĠjednÄħ": 3373,
      "Ġhistorii": 3374,
      "rum": 3375,
      "ÅĽcio": 3376,
      "ou": 3377,
      "Ġdzia": 3378,
      "ÅĽmie": 3379,
      "tali": 3380,
      "rektor": 3381,
      "Ġucz": 3382,
      "pach": 3383,
      "ted": 3384,
      "88": 3385,
      "Ġeduka": 3386,
      "ĠprowadzÄħ": 3387,
      "wodniczÄħ": 3388,
      "rych": 3389,
      "Ġzasady": 3390,
      "Ġstuden": 3391,
      "wek": 3392,
      "nica": 3393,
      "Ġpotencja": 3394,
      "Ġprzypo": 3395,
      "Ġkwietnia": 3396,
      "jÃ³w": 3397,
      "dopod": 3398,
      "tnej": 3399,
      "ĠsÅĤuÅ¼": 3400,
      "ĠKrak": 3401,
      ".:": 3402,
      "mujÄħ": 3403,
      "ĠcaÅĤej": 3404,
      "ĠIII": 3405,
      "rgani": 3406,
      "Ġtrans": 3407,
      "ĠgÅĤÄĻ": 3408,
      "ĠgdyÅ¼": 3409,
      "83": 3410,
      "ĠszczegÃ³ÅĤ": 3411,
      "Ġpewno": 3412,
      "ĠmiesiÄĻcy": 3413,
      "ĠchÄĻ": 3414,
      "ĠpaÅĦstwa": 3415,
      "Ġodda": 3416,
      "CE": 3417,
      "ĠSt": 3418,
      "Ġtyle": 3419,
      "ciaÅ¼": 3420,
      "94": 3421,
      "dzonych": 3422,
      "Ġpojawi": 3423,
      "rzÄĻdu": 3424,
      ".A": 3425,
      "ĠKar": 3426,
      "wach": 3427,
      "Ġprojek": 3428,
      "jÄħcymi": 3429,
      "ciej": 3430,
      "ĠwartoÅĽÄĩ": 3431,
      "ciÅĤ": 3432,
      "77": 3433,
      "Ġemo": 3434,
      "69": 3435,
      "Ce": 3436,
      "nikiem": 3437,
      "serwa": 3438,
      "rygina": 3439,
      "tkiem": 3440,
      "Ġwielko": 3441,
      "81": 3442,
      "Ġpotrzebu": 3443,
      "szczenie": 3444,
      "Ġpierwszej": 3445,
      "Ġceny": 3446,
      "Ġdr": 3447,
      "ckich": 3448,
      "nnej": 3449,
      "Ġwspiera": 3450,
      "Ġefe": 3451,
      "Ġskar": 3452,
      "peÅĤnie": 3453,
      "Ġstanu": 3454,
      "Ġzaczyna": 3455,
      "example": 3456,
      "ÅĽle": 3457,
      "stname": 3458,
      "Ġrand": 3459,
      "ĠzostaÄĩ": 3460,
      "ĠkosztÃ³w": 3461,
      "ĠBan": 3462,
      "dowaÄĩ": 3463,
      "dnienia": 3464,
      "@example": 3465,
      "Ġstycznia": 3466,
      "Ã³c": 3467,
      "Ġzakresu": 3468,
      "Ġfirma": 3469,
      "Ġkontakt": 3470,
      "ĠpieniÄħ": 3471,
      "Ġwiedzy": 3472,
      "73": 3473,
      "Ġfunkcjon": 3474,
      "Ġrozumie": 3475,
      "Ġkrwi": 3476,
      "Ġogro": 3477,
      "Ġstrate": 3478,
      "spi": 3479,
      "89": 3480,
      "iÄĩ": 3481,
      "waniu": 3482,
      "giem": 3483,
      "Ġzas": 3484,
      "Ġpole": 3485,
      "Ġwykorzysty": 3486,
      "rad": 3487,
      "Ġstron": 3488,
      "ĠÅļwiÄĻ": 3489,
      "Ġpsycho": 3490,
      "niony": 3491,
      "Ġfe": 3492,
      "ĠumiejÄĻtnoÅĽci": 3493,
      "Ġsierp": 3494,
      "Ġen": 3495,
      "Ġgodzin": 3496,
      "strzega": 3497,
      "82": 3498,
      "Ġbada": 3499,
      "Ġszpita": 3500,
      "bÃ³w": 3501,
      "zje": 3502,
      "krzy": 3503,
      "jesz": 3504,
      "68": 3505,
      "ĠwybraÄĩ": 3506,
      "rÃ³cz": 3507,
      "ĠÅ¼yciu": 3508,
      "Ġdecyzji": 3509,
      "Ġludzie": 3510,
      "Ġrazy": 3511,
      "diÃ³w": 3512,
      "ĠtrochÄĻ": 3513,
      "ĠpeÅĤni": 3514,
      "ĠgÃ³r": 3515,
      "wyciÄĻ": 3516,
      "ĠmoÅ¼liwe": 3517,
      "czno": 3518,
      "III": 3519,
      "Ġchwili": 3520,
      "ĠCentrum": 3521,
      "raj": 3522,
      "Ã©": 3523,
      "Ġobszar": 3524,
      "War": 3525,
      "Dla": 3526,
      "Ġzao": 3527,
      "ĠwarunkÃ³w": 3528,
      "Ġnigdy": 3529,
      "ĠkÄħ": 3530,
      "ĠurzÄħdzeÅĦ": 3531,
      "ĠrozwiÄħzania": 3532,
      "Ġzatem": 3533,
      "torem": 3534,
      "Ġjakim": 3535,
      "ĠÄĩwi": 3536,
      "king": 3537,
      "Ġkolor": 3538,
      "zdu": 3539,
      "wanych": 3540,
      "Ġliczba": 3541,
      "NY": 3542,
      "Ġhote": 3543,
      "deo": 3544,
      "ĠgÅĤos": 3545,
      "Ġautoma": 3546,
      "ĠokreÅĽla": 3547,
      "Ġnumer": 3548,
      "ĠâĢ¢": 3549,
      "logia": 3550,
      "ĠspeÅĤnia": 3551,
      "ĠZie": 3552,
      "Ġdziecko": 3553,
      "Ġcen": 3554,
      "ĠKrzy": 3555,
      "ĠÅĤatwo": 3556,
      "Ġnadzie": 3557,
      "Ġboga": 3558,
      "kÅĤadnie": 3559,
      "ĠobjÄĻ": 3560,
      "ĠpostÄĻpowania": 3561,
      "Ġrodziny": 3562,
      "Ġakcji": 3563,
      "roz": 3564,
      "mos": 3565,
      "Ġinfor": 3566,
      "ol": 3567,
      "Ġdostos": 3568,
      "Ġoceny": 3569,
      "Ġoto": 3570,
      "ĠFor": 3571,
      "ĠÅĽrodowiska": 3572,
      "76": 3573,
      "wienie": 3574,
      "Ra": 3575,
      "onÃ³w": 3576,
      "ĠÅĽwiado": 3577,
      "ĠCzÄĻ": 3578,
      "dny": 3579,
      "Ġciep": 3580,
      "Ġkolo": 3581,
      "Ġzrobi": 3582,
      "78": 3583,
      "obacz": 3584,
      "strowa": 3585,
      "ĠtytuÅĤu": 3586,
      "Ch": 3587,
      "ĠiloÅĽÄĩ": 3588,
      "ning": 3589,
      "Ġprodukt": 3590,
      "ĠwyjÄħtk": 3591,
      "kowanie": 3592,
      "ket": 3593,
      "Ġtakiego": 3594,
      "ĠsÅĤowa": 3595,
      "Ġtakim": 3596,
      "Ġludz": 3597,
      "Ġdrze": 3598,
      "story": 3599,
      "ĠmuszÄħ": 3600,
      "74": 3601,
      "ĠkoÅĦca": 3602,
      "Ġprzyjem": 3603,
      "tnego": 3604,
      "cin": 3605,
      "ĠktoÅĽ": 3606,
      "Ġprzewo": 3607,
      "dnio": 3608,
      "ĠstronÄĻ": 3609,
      "kowaÄĩ": 3610,
      "Ġnasz": 3611,
      "Ġtzw": 3612,
      "tacja": 3613,
      "Ġnoc": 3614,
      "ĠsÅĤa": 3615,
      "nawia": 3616,
      "waÅ¼a": 3617,
      "jecha": 3618,
      "fikowa": 3619,
      "Ġpodzie": 3620,
      "ĠÅĽrodki": 3621,
      "ĠPO": 3622,
      "ĠJego": 3623,
      "Ġwysy": 3624,
      "lii": 3625,
      "orÄħ": 3626,
      "ĠzostaÅĤo": 3627,
      "czeni": 3628,
      "Ġ$": 3629,
      "Ġdaje": 3630,
      "DZ": 3631,
      "Ġuszko": 3632,
      "ĠSi": 3633,
      "Ġnieco": 3634,
      "Ġkapita": 3635,
      "nionych": 3636,
      "Ġruchu": 3637,
      "ÄĨ": 3638,
      "Ġbudynku": 3639,
      "meryka": 3640,
      "ðŁ": 3641,
      "Ġfak": 3642,
      "ierw": 3643,
      "Ġchyba": 3644,
      "ron": 3645,
      "okie": 3646,
      "Ġzab": 3647,
      "Ġpokry": 3648,
      "Ġtera": 3649,
      "Ġtema": 3650,
      "Ġznajo": 3651,
      "93": 3652,
      "ĠdziaÅĤalnoÅĽÄĩ": 3653,
      "Ġodpowiedzi": 3654,
      "obra": 3655,
      "Kon": 3656,
      "wnÄħtrz": 3657,
      "Ġdoko": 3658,
      "chÃ³d": 3659,
      "ĠCiebie": 3660,
      "Ġfunkcjona": 3661,
      "Ã³wczas": 3662,
      "Ġuzu": 3663,
      "Ġtar": 3664,
      "Ġdrz": 3665,
      "Ġang": 3666,
      "lor": 3667,
      "owska": 3668,
      "Ġalkoho": 3669,
      "ĠgÅĤÃ³wnie": 3670,
      "lania": 3671,
      "Ġprzedstawia": 3672,
      "ĠtwÃ³r": 3673,
      "cznymi": 3674,
      "Ġdrogi": 3675,
      "Ġwio": 3676,
      "czba": 3677,
      "ĠdotyczÄħcych": 3678,
      "Ġskrzy": 3679,
      "ksyma": 3680,
      "---|Ċ": 3681,
      "ĠpaÅºdziernika": 3682,
      "zÃ³w": 3683,
      "wÅĤa": 3684,
      "Ġdopiero": 3685,
      "Ġzle": 3686,
      "Ġtrzech": 3687,
      "ĠMy": 3688,
      "ĠzwÅĤaszcza": 3689,
      "ĠPonad": 3690,
      "Å¼d": 3691,
      "Ġpropozy": 3692,
      "kowane": 3693,
      "79": 3694,
      "Ġpolskich": 3695,
      "rusza": 3696,
      "86": 3697,
      "ĠprzepisÃ³w": 3698,
      "gia": 3699,
      "ciÄħÅ¼": 3700,
      "lacja": 3701,
      "owaÅĦ": 3702,
      "ĠobsÅĤugi": 3703,
      "##": 3704,
      "Ġtakiej": 3705,
      "ĠÅ»y": 3706,
      "ĠprzyjÄĻ": 3707,
      "Ġtygo": 3708,
      "Ġinternetowej": 3709,
      "Ġinten": 3710,
      "ĠMiasta": 3711,
      "Ġklienta": 3712,
      "ĠpoÅĽredni": 3713,
      "ĠrozwÃ³j": 3714,
      "84": 3715,
      "Ġwizy": 3716,
      "Ġzawodni": 3717,
      "Ġterminie": 3718,
      "Ġgminy": 3719,
      "Fi": 3720,
      "Ġobsza": 3721,
      "Ġnadal": 3722,
      "Ġwynagro": 3723,
      "Ġmechani": 3724,
      "ID": 3725,
      "ĠmiÄĻdzynarod": 3726,
      "wka": 3727,
      "ĠjakoÅĽÄĩ": 3728,
      "towego": 3729,
      "EK": 3730,
      "ĠjakÄħ": 3731,
      "Ġwybiera": 3732,
      "zem": 3733,
      "ĠFe": 3734,
      "ĠNA": 3735,
      "ĠspÄĻ": 3736,
      "IT": 3737,
      "ĠSie": 3738,
      "Ġorygina": 3739,
      "Ġwyboru": 3740,
      "pas": 3741,
      "nin": 3742,
      "Ġkobiety": 3743,
      "Ġwyniku": 3744,
      "Ð½": 3745,
      "wana": 3746,
      "lona": 3747,
      "noszÄħ": 3748,
      "ĠszczegÃ³lnoÅĽci": 3749,
      "ĠzaÅĤÄħ": 3750,
      "Ġnowy": 3751,
      "87": 3752,
      "ĠoÅĽwiad": 3753,
      "ĠpowiedziaÅĤ": 3754,
      "bliÅ¼": 3755,
      "rty": 3756,
      "Ġotrzy": 3757,
      "ĠpielÄĻ": 3758,
      "Äħd": 3759,
      "les": 3760,
      "ĠchcÄħ": 3761,
      "Ġczyta": 3762,
      "gazy": 3763,
      "Ġnowego": 3764,
      "ĠzaleÅ¼noÅĽci": 3765,
      "Ġgrze": 3766,
      "Ġchcesz": 3767,
      "kÅĤady": 3768,
      "Ġtyp": 3769,
      "Ġlistopada": 3770,
      "ĠkoÅĦcu": 3771,
      "woÅĽci": 3772,
      "]Ċ": 3773,
      "Ġmarki": 3774,
      "Ġszans": 3775,
      "ĠdziaÅĤ": 3776,
      "ĠzakÅĤad": 3777,
      "ĠzÅĤotych": 3778,
      "Ġas": 3779,
      "ĠOs": 3780,
      "Ġpoczu": 3781,
      "owoÅĽÄĩ": 3782,
      "ĠposzczegÃ³lnych": 3783,
      "ciÄħg": 3784,
      "ĠoczywiÅĽcie": 3785,
      "ks": 3786,
      "Ġzja": 3787,
      "kali": 3788,
      "ÑĤ": 3789,
      "ĠudostÄĻp": 3790,
      "rowi": 3791,
      "ÅĤach": 3792,
      "ĠwyrÃ³Å¼": 3793,
      "Ġpopraw": 3794,
      "fy": 3795,
      "ctwem": 3796,
      "tkÄĻ": 3797,
      "Ġspotkania": 3798,
      "grze": 3799,
      "dna": 3800,
      "ĠMiej": 3801,
      "ĠpoÅĽwiÄĻ": 3802,
      "towania": 3803,
      "rzÄħdzenia": 3804,
      "Ġmedia": 3805,
      "Ġpowinno": 3806,
      "resz": 3807,
      "nitor": 3808,
      "jedno": 3809,
      "Ġstre": 3810,
      "ĠzajÄĻÄĩ": 3811,
      "ĠwÅĤÄħ": 3812,
      "ĠWÅĤa": 3813,
      "liwoÅĽÄĩ": 3814,
      "ĠwzglÄĻd": 3815,
      "Å¼ar": 3816,
      "niom": 3817,
      "ĠniÄħ": 3818,
      "kierowa": 3819,
      "Ġedy": 3820,
      "Ġitp": 3821,
      "Ġhandl": 3822,
      "Ġorze": 3823,
      "Ġis": 3824,
      "Ġtrafi": 3825,
      "ĠczynnoÅĽci": 3826,
      "Ob": 3827,
      "dzony": 3828,
      "Ġfilm": 3829,
      "Ġmonta": 3830,
      "Ġkomenta": 3831,
      "ĠpieniÄħdze": 3832,
      "ĠSpraw": 3833,
      "ĠporÃ³wna": 3834,
      "ĠPowia": 3835,
      "ĠÅĽw": 3836,
      "nospraw": 3837,
      "kru": 3838,
      "ĠCza": 3839,
      "Ġkana": 3840,
      "Ġpytanie": 3841,
      "Ġniedo": 3842,
      "Ġniezwykle": 3843,
      "skÃ³w": 3844,
      "Ġkoszty": 3845,
      "letni": 3846,
      "Ġdoj": 3847,
      "Ġkomfor": 3848,
      "Ġodbywa": 3849,
      "Ġwszyscy": 3850,
      "ĠNau": 3851,
      "Ġuwagi": 3852,
      "Ty": 3853,
      "ĠniepeÅĤ": 3854,
      "chÃ³w": 3855,
      "Ġproduce": 3856,
      "Ġzada": 3857,
      "Ġkrzy": 3858,
      "ĠGdaÅĦ": 3859,
      "noc": 3860,
      "niami": 3861,
      "ĠInforma": 3862,
      "Ġwarszta": 3863,
      "Ġprzekona": 3864,
      "Ġlipca": 3865,
      "Ġoferuje": 3866,
      "sÅĤugu": 3867,
      "Ġfar": 3868,
      "owaÅĤa": 3869,
      "ĠmÄĻÅ¼czyz": 3870,
      "Ġdostaw": 3871,
      "Sta": 3872,
      "ĠzajÄĻcia": 3873,
      "Ġjas": 3874,
      "ĠmaÅĤo": 3875,
      "Ġzni": 3876,
      "Ġdysku": 3877,
      "ĠwybÃ³r": 3878,
      "ĠbÄĻdziemy": 3879,
      "Ġmaksyma": 3880,
      "mowanie": 3881,
      "Ġwil": 3882,
      "Ġponow": 3883,
      "ĠsÅĤy": 3884,
      "obnie": 3885,
      "skiem": 3886,
      "ĠKlie": 3887,
      "prawy": 3888,
      "ĠpodÅĤo": 3889,
      "pÄĻ": 3890,
      "LI": 3891,
      "gach": 3892,
      "wajÄħ": 3893,
      "ĠspoÅ¼y": 3894,
      "sjÄĻ": 3895,
      "wÃ³w": 3896,
      "Ġdziewczy": 3897,
      "gne": 3898,
      "pii": 3899,
      "deÅĤ": 3900,
      "Ġgier": 3901,
      "Ġnadz": 3902,
      "org": 3903,
      "Ġodpor": 3904,
      "Ġprof": 3905,
      "bliote": 3906,
      "*,": 3907,
      "infor": 3908,
      "Ġgodziny": 3909,
      "Ġprzedszko": 3910,
      "Ġbonu": 3911,
      "stych": 3912,
      "gn": 3913,
      "ĠdokÅĤadnie": 3914,
      "Ġprofi": 3915,
      "ĠNarod": 3916,
      "Ġsamodzie": 3917,
      "Ġdowie": 3918,
      "Ġporno": 3919,
      "}\\": 3920,
      "jÄħÄĩ": 3921,
      "ĠplacÃ³w": 3922,
      "ED": 3923,
      "Ġniemie": 3924,
      "Ġofert": 3925,
      "Ġodkry": 3926,
      "ĠdruÅ¼y": 3927,
      "Ġpotem": 3928,
      "leÅĦ": 3929,
      "UR": 3930,
      "Ġniewiel": 3931,
      "Å¼onych": 3932,
      "pÅĤaty": 3933,
      "ĠcaÅĤego": 3934,
      "WA": 3935,
      "ĠelementÃ³w": 3936,
      "nim": 3937,
      "ĠpowaÅ¼": 3938,
      "Ġczasem": 3939,
      "ĠSzy": 3940,
      "Ġkolei": 3941,
      "Ġzak": 3942,
      "ĠDO": 3943,
      ",ĊĊ": 3944,
      "ĠzaleÅ¼y": 3945,
      "ĠHe": 3946,
      "szÅĤo": 3947,
      "Ġkolejne": 3948,
      "ĠdÅº": 3949,
      "ĠUniwersyte": 3950,
      "ĠpiÄħ": 3951,
      "wor": 3952,
      "groma": 3953,
      "Ġkierunku": 3954,
      "ĠwyÅĽwiet": 3955,
      "np": 3956,
      "ĠproblemÃ³w": 3957,
      "dak": 3958,
      "niÅĤ": 3959,
      "ĠwiÄħ": 3960,
      "cyjnÄħ": 3961,
      "terze": 3962,
      "koj": 3963,
      "ĠudziaÅĤu": 3964,
      "ari": 3965,
      "sowych": 3966,
      "ĠgoÅĽci": 3967,
      "plo": 3968,
      "Ġokazji": 3969,
      "Ġdyspo": 3970,
      "ĠST": 3971,
      "Ġsprawia": 3972,
      "Ġjedna": 3973,
      "Ġistnieje": 3974,
      "Ġinnym": 3975,
      "Ġrejestra": 3976,
      "tyczna": 3977,
      "ft": 3978,
      "trwa": 3979,
      "mowaÄĩ": 3980,
      "ĠsÅĤ": 3981,
      "weÅĤ": 3982,
      "Ġsierpnia": 3983,
      "dzania": 3984,
      "ĠtÅĤuma": 3985,
      "Ġczemu": 3986,
      "ĠniektÃ³rych": 3987,
      "ĠpewnoÅĽciÄħ": 3988,
      "Ġproblemy": 3989,
      "Ġdrodze": 3990,
      "ĠcaÅĤym": 3991,
      "dom": 3992,
      "mont": 3993,
      "Ġkart": 3994,
      "owu": 3995,
      "Ġzapozna": 3996,
      "Ġefektyw": 3997,
      "ĠNiem": 3998,
      "zes": 3999,
      "Ġkontroli": 4000,
      "ĠosiÄħgniÄĻ": 4001,
      "Ġnimi": 4002,
      "Ġsklep": 4003,
      "Ġopro": 4004,
      "krotnie": 4005,
      "Å¼ona": 4006,
      "ĠÅļlÄħ": 4007,
      "lon": 4008,
      "ono": 4009,
      "leÅ¼nie": 4010,
      "czyÅĤa": 4011,
      "dziaÅĤem": 4012,
      "Ġzorgani": 4013,
      "ĠbezpoÅĽrednio": 4014,
      "Ġobli": 4015,
      "ĠPie": 4016,
      "Ġwysokiej": 4017,
      "dam": 4018,
      "ĠBez": 4019,
      "Ġodci": 4020,
      "ĠprÃ³b": 4021,
      "ĠpunktÃ³w": 4022,
      "Ġplanu": 4023,
      "Ġtelewi": 4024,
      "ĠjesteÅĽmy": 4025,
      "Ġsprawoz": 4026,
      "ÅĽciami": 4027,
      "ĠOp": 4028,
      "ĠMicha": 4029,
      "Ġliczby": 4030,
      "Ġmiesza": 4031,
      "ĠznajdujÄħ": 4032,
      "ĠJez": 4033,
      "Ġkosme": 4034,
      "Ġprostytu": 4035,
      "lus": 4036,
      "strz": 4037,
      "Ġchro": 4038,
      "stawa": 4039,
      "Ġkategorii": 4040,
      "Ġmogli": 4041,
      "Ġnajlepiej": 4042,
      "nicja": 4043,
      "pt": 4044,
      "Ġtworzy": 4045,
      "ĠKomi": 4046,
      "Åºnie": 4047,
      "Ġsubstan": 4048,
      "ĠmyÅĽli": 4049,
      "Ġgu": 4050,
      "angaÅ¼": 4051,
      "bierz": 4052,
      "Ġpublicznych": 4053,
      "EM": 4054,
      "szymi": 4055,
      "emi": 4056,
      "Å¼yÅĤ": 4057,
      "Ġostatnich": 4058,
      "Ġkandy": 4059,
      "emo": 4060,
      "Ġwier": 4061,
      "ĠzostanÄħ": 4062,
      "czyk": 4063,
      "at": 4064,
      "ĠnajczÄĻÅĽciej": 4065,
      "pow": 4066,
      "ĠbezpÅĤat": 4067,
      "logiczne": 4068,
      "ĠuÅĤat": 4069,
      "Ġtaka": 4070,
      "|----------------": 4071,
      "ÑĢ": 4072,
      "styki": 4073,
      "Ġprezyden": 4074,
      "tyma": 4075,
      "Ġpodpisa": 4076,
      "iÄĻcej": 4077,
      "Ġdokumenta": 4078,
      "mart": 4079,
      "CY": 4080,
      "Ġmodel": 4081,
      "ĠÅĤ": 4082,
      "Ġfunkcji": 4083,
      "lety": 4084,
      "ckim": 4085,
      "ĠÅļwia": 4086,
      "Ġpierwszym": 4087,
      "-mail": 4088,
      "ĠjÄĻzyka": 4089,
      "Ġnag": 4090,
      "ĠÅ¼o": 4091,
      "Ġkwali": 4092,
      "ĠwzglÄĻdem": 4093,
      "ĠWojewÃ³dz": 4094,
      "Ġbla": 4095,
      "Ġznalaz": 4096,
      "ĠnajbliÅ¼": 4097,
      "toÅĽÄĩ": 4098,
      "ĠĠĠĠĠĠĠĠĠĠĠĠĠĠĠĠĠĠ": 4099,
      "tychczas": 4100,
      "biÃ³r": 4101,
      "Ġtermin": 4102,
      "Ġnorma": 4103,
      "Ġinnego": 4104,
      "jach": 4105,
      "ĠdÅĤuÅ¼": 4106,
      "ĠStu": 4107,
      "Ġcywi": 4108,
      "ĠdziaÅĤanie": 4109,
      "Ġmagazy": 4110,
      "Ġunika": 4111,
      "Ġprocedu": 4112,
      "owskiego": 4113,
      "ĠAby": 4114,
      "szty": 4115,
      "Ġwniosku": 4116,
      "Ġinwestycji": 4117,
      "Ñģ": 4118,
      "Ġzdrowo": 4119,
      "Ġkonkuren": 4120,
      "Ġinteresu": 4121,
      "\\(^{": 4122,
      "ĠPonadto": 4123,
      "bel": 4124,
      "szki": 4125,
      "szek": 4126,
      "Ġnaby": 4127,
      "port": 4128,
      "ÅĦskich": 4129,
      "nnika": 4130,
      "ĠKul": 4131,
      "ian": 4132,
      "del": 4133,
      "denty": 4134,
      "Ġinstru": 4135,
      "Ġzapy": 4136,
      "ĠOrgani": 4137,
      "ĠBie": 4138,
      "zowanych": 4139,
      "OWE": 4140,
      "ĠCiÄĻ": 4141,
      "OP": 4142,
      "ĠprÄĻ": 4143,
      "Ġwiem": 4144,
      "Å¹": 4145,
      "Ġcentrum": 4146,
      "czania": 4147,
      "Ġzasad": 4148,
      "Å¼ek": 4149,
      "stwie": 4150,
      "Ġwyniki": 4151,
      "ĠpaÅĦstw": 4152,
      "Ġpoinfor": 4153,
      "ĠTen": 4154,
      "ÅĦskie": 4155,
      "Ġchoroby": 4156,
      "Ġdrzwi": 4157,
      "tto": 4158,
      "mentem": 4159,
      "Ġbyli": 4160,
      "rÃ³dÅĤo": 4161,
      "Ġlitera": 4162,
      "bor": 4163,
      "Wie": 4164,
      "Ġzwo": 4165,
      "ĠStra": 4166,
      "Ġpoleca": 4167,
      "Ġteren": 4168,
      "Ġrach": 4169,
      ":||": 4170,
      "Ġcena": 4171,
      "cal": 4172,
      "Ġpomi": 4173,
      "Ġsymbo": 4174,
      ".org": 4175,
      "iÄĻku": 4176,
      "nice": 4177,
      "dium": 4178,
      "OT": 4179,
      "tnym": 4180,
      "ĠbÅĤÄĻ": 4181,
      "Ġpytania": 4182,
      "ĠpowyÅ¼ej": 4183,
      "ĠrodzicÃ³w": 4184,
      "Ġznajdziesz": 4185,
      "ktuali": 4186,
      "ĠmÅĤody": 4187,
      "ĠMoÅ¼na": 4188,
      "rzem": 4189,
      "CZE": 4190,
      "dziaÅĤy": 4191,
      "ĠProdu": 4192,
      "Åĥ": 4193,
      "ĠobowiÄħzu": 4194,
      "towanie": 4195,
      "Ġpoje": 4196,
      "Ġkoncer": 4197,
      "Ġmetody": 4198,
      "Ġtka": 4199,
      "MA": 4200,
      "ĠspoÅĤecznoÅĽci": 4201,
      "Ġmomencie": 4202,
      "ĠniepeÅĤnospraw": 4203,
      "Å¼eniu": 4204,
      "Ġwzrost": 4205,
      "owarzy": 4206,
      "Ġnieo": 4207,
      "Le": 4208,
      "ĠwciÄħÅ¼": 4209,
      "We": 4210,
      "Ġdba": 4211,
      "Ġsprawy": 4212,
      "lnia": 4213,
      "Ġangiel": 4214,
      "wans": 4215,
      "Ġmiej": 4216,
      "ĠzaangaÅ¼": 4217,
      "ĠsÅĤucha": 4218,
      "dawcy": 4219,
      "Ġcharakter": 4220,
      "ĠWY": 4221,
      "nar": 4222,
      "Ġsyste": 4223,
      "ĠzaczÄĻ": 4224,
      "Ġoba": 4225,
      "ĠCze": 4226,
      "Ġfan": 4227,
      "Ġpozwoli": 4228,
      "ĠPaÅĦstwa": 4229,
      "mienie": 4230,
      "ĠTym": 4231,
      "Ġtechnologii": 4232,
      "Ġelementy": 4233,
      "ĠzwyciÄĻ": 4234,
      "ĠuzyskaÄĩ": 4235,
      "Ġkandyda": 4236,
      "Ġtj": 4237,
      "kura": 4238,
      "Ġmikro": 4239,
      "jaw": 4240,
      "ĠBia": 4241,
      "siej": 4242,
      "ktura": 4243,
      "ĠRob": 4244,
      "rzuca": 4245,
      "siÄĩ": 4246,
      "Ġprace": 4247,
      "Ġkwia": 4248,
      "Ġpodlega": 4249,
      "Ġobni": 4250,
      "Ġodpowiednio": 4251,
      "budowy": 4252,
      "sekwen": 4253,
      "Ġcookie": 4254,
      "Ġprzechowy": 4255,
      "ĠDob": 4256,
      "ĠPoz": 4257,
      "mowania": 4258,
      "kli": 4259,
      "Ġ...": 4260,
      "Ġofi": 4261,
      "Ġekonomi": 4262,
      "Ġpapie": 4263,
      "ĠÅĤy": 4264,
      "ĠzamkniÄĻ": 4265,
      "nkiem": 4266,
      "Ġzaa": 4267,
      "dowy": 4268,
      "usza": 4269,
      "Ġgatu": 4270,
      "Ġpoziomu": 4271,
      ";ĊĊ": 4272,
      "ĠIN": 4273,
      "Å¼eniem": 4274,
      "ĠOr": 4275,
      "kwi": 4276,
      "ĠPLN": 4277,
      "Ġaplikacji": 4278,
      "ĠXX": 4279,
      "Ġrozpozna": 4280,
      "Ġkomputer": 4281,
      "Ġoferu": 4282,
      "Ġzanie": 4283,
      "Å¼ne": 4284,
      "EL": 4285,
      "Ġboha": 4286,
      "chnia": 4287,
      "ĠRegu": 4288,
      "ĠPani": 4289,
      "ĠnaszÄħ": 4290,
      "frastru": 4291,
      "Ġwybo": 4292,
      "Ġlinii": 4293,
      "ĠÅĽcie": 4294,
      "Ġminima": 4295,
      "Ġdi": 4296,
      "Ġnami": 4297,
      "Ġpojawia": 4298,
      "Ġhistory": 4299,
      "Ġpas": 4300,
      "torzy": 4301,
      "Ġwyka": 4302,
      "ÅĤoby": 4303,
      "Ġwarunkach": 4304,
      "toÅĽci": 4305,
      "Ġwydaje": 4306,
      "ĠwystÄĻp": 4307,
      "ĠpodrÃ³Å¼": 4308,
      "ven": 4309,
      "ĠwÃ³wczas": 4310,
      "Ġobywa": 4311,
      "Ġznaczenie": 4312,
      "rzeÄĩ": 4313,
      "Ġkg": 4314,
      "Ġatmos": 4315,
      "Ġsamego": 4316,
      "Ġopieku": 4317,
      "fr": 4318,
      "Ġjednostki": 4319,
      "ÅĽciÄĩ": 4320,
      "zwyczaj": 4321,
      "Ġmocy": 4322,
      "text": 4323,
      "ĠuwzglÄĻ": 4324,
      "dla": 4325,
      "Ġprzestrzeni": 4326,
      "Ġprzyro": 4327,
      "Ġnajnow": 4328,
      "mnie": 4329,
      "ĠKiedy": 4330,
      "Ġzestaw": 4331,
      "Ġostat": 4332,
      "Ġlutego": 4333,
      "Ġkultury": 4334,
      "ĠponiÅ¼ej": 4335,
      "simy": 4336,
      "Ġsoli": 4337,
      "Ġregular": 4338,
      "kur": 4339,
      "Ġzagrani": 4340,
      "Ġmimo": 4341,
      "fie": 4342,
      "ĠFundu": 4343,
      "ĠjesteÅĽ": 4344,
      "sÅĤugi": 4345,
      "kademi": 4346,
      "wrÃ³": 4347,
      "ownie": 4348,
      "gospodar": 4349,
      "twÃ³r": 4350,
      "AP": 4351,
      "prawa": 4352,
      "Ġpokaza": 4353,
      "wil": 4354,
      "czkÄĻ": 4355,
      "Ġporo": 4356,
      "Ġpogo": 4357,
      "SK": 4358,
      "Ġdelika": 4359,
      "Ð¾Ð": 4360,
      "stki": 4361,
      "Ġstosunku": 4362,
      "Ġhy": 4363,
      "metry": 4364,
      "Åľ": 4365,
      "ĠdokumentÃ³w": 4366,
      "bÃ³": 4367,
      "kres": 4368,
      "ĠpÄĻ": 4369,
      "gre": 4370,
      "|----": 4371,
      "ĠÅĽci": 4372,
      "reje": 4373,
      "padÃ³w": 4374,
      "Ġniewy": 4375,
      "Ġkierow": 4376,
      "Ġutra": 4377,
      "ĠPiotr": 4378,
      "Ġprzepisa": 4379,
      "Ġgi": 4380,
      "dzanie": 4381,
      "Ġdodatkowe": 4382,
      "Ġraczej": 4383,
      "ĠprzeglÄħ": 4384,
      "ĠrozwiÄħzanie": 4385,
      "mÄħ": 4386,
      "ĠÌ": 4387,
      "Ġleczenia": 4388,
      "Ġwycie": 4389,
      "naczej": 4390,
      "Ġwersji": 4391,
      "Ġprzesy": 4392,
      "kle": 4393,
      "onie": 4394,
      "chem": 4395,
      "Ġnor": 4396,
      "Ġdra": 4397,
      "ĠDzi": 4398,
      "Ġsukce": 4399,
      "Ġkonferen": 4400,
      "Ġlotni": 4401,
      "ĠwrÃ³": 4402,
      "ĠuÅ¼ytkownikÃ³w": 4403,
      "Ġbudowy": 4404,
      "Ġ;": 4405,
      "Ġzabu": 4406,
      "twier": 4407,
      "Ġnagro": 4408,
      "ĠKomisji": 4409,
      "Ġnarod": 4410,
      "ĠÅĽmie": 4411,
      "tnÄħ": 4412,
      "ĠWÅĤo": 4413,
      "Ġinterne": 4414,
      "Ba": 4415,
      "Ġzaraz": 4416,
      "ĠzupeÅĤnie": 4417,
      "Ġpraca": 4418,
      "wska": 4419,
      "dzona": 4420,
      "Ġplat": 4421,
      "Ġple": 4422,
      "ĠwiadomoÅĽci": 4423,
      "Ġpodatk": 4424,
      "Ġobra": 4425,
      "ĠWal": 4426,
      "Ġnauki": 4427,
      "spekty": 4428,
      "styczny": 4429,
      "ĠwiÄĻkszoÅĽÄĩ": 4430,
      "sÄħ": 4431,
      "ÄĻdzie": 4432,
      "Ġegza": 4433,
      "Ġprzesz": 4434,
      "ÅĽliÄĩ": 4435,
      "ĠzespÃ³ÅĤ": 4436,
      "ĠÅ¼adnych": 4437,
      "mek": 4438,
      "tere": 4439,
      "Ġdzisiaj": 4440,
      "dziÅĤa": 4441,
      "Ġjakich": 4442,
      "Ġsia": 4443,
      "Ġnar": 4444,
      "Ġpodatku": 4445,
      "Ġgrafi": 4446,
      "Ġeksper": 4447,
      "dago": 4448,
      "tycznym": 4449,
      "Ġnajlepsze": 4450,
      "ĠoglÄħda": 4451,
      "ĠzachÄĻ": 4452,
      "leni": 4453,
      "ĠwÅĤasne": 4454,
      "ĠSpe": 4455,
      "wentual": 4456,
      "Ġzazna": 4457,
      "ĠgÅĤÄĻbo": 4458,
      "ĠwspÃ³ÅĤczes": 4459,
      "Ġstylu": 4460,
      "lanie": 4461,
      "Ġaplika": 4462,
      "Ġstosowania": 4463,
      "ĠpÅĤatnoÅĽci": 4464,
      "ĠksiÄħÅ¼ki": 4465,
      "Ġpocz": 4466,
      "Ġkonty": 4467,
      "stÄĻpnie": 4468,
      "eli": 4469,
      "Ġcier": 4470,
      "szto": 4471,
      "NIA": 4472,
      "ĠzakÅĤada": 4473,
      "ĠĠĠĠĠĠĠĠĠĠĠĠĠĠĠĠĠĠĠĠĠ": 4474,
      "Ġkoro": 4475,
      "kaÄĩ": 4476,
      "Ġniedzie": 4477,
      "ĠUkrai": 4478,
      "Ġwspania": 4479,
      "tnoÅĽÄĩ": 4480,
      "Ġwniosek": 4481,
      "nnym": 4482,
      "brania": 4483,
      "minu": 4484,
      "Ġinny": 4485,
      "Pra": 4486,
      "ĠQ": 4487,
      "zÅĤ": 4488,
      "towarzy": 4489,
      "Ġenerge": 4490,
      "ĠpieniÄĻdzy": 4491,
      "Ġwydarzenia": 4492,
      "Ġmonitor": 4493,
      "nden": 4494,
      "ĠpamiÄĻtaÄĩ": 4495,
      "Ġreko": 4496,
      "Ġgenera": 4497,
      "br": 4498,
      "kracza": 4499,
      "Ġzauwa": 4500,
      "pon": 4501,
      "Ġczerwo": 4502,
      "Ġinnowa": 4503,
      "Ġzasi": 4504,
      "Ġstatu": 4505,
      "kÃ³j": 4506,
      "lowe": 4507,
      "turze": 4508,
      "Ġopisa": 4509,
      "Ġkonsekwen": 4510,
      "Ġzatrzyma": 4511,
      "ĠciÄħg": 4512,
      "szedÅĤ": 4513,
      "mieni": 4514,
      "dziale": 4515,
      "Ġlubi": 4516,
      "ĠĠĠĠĠĠĠĠĠĠĠĠĠĠĠĠĠĠĠĠĠĠĠ": 4517,
      "Ġmor": 4518,
      "tio": 4519,
      "Ġrezer": 4520,
      "niÄĻcia": 4521,
      "ĠchociaÅ¼": 4522,
      "ĠspoÅĤecze": 4523,
      "Ġwypowie": 4524,
      "Ġmobi": 4525,
      "Ġchi": 4526,
      "szone": 4527,
      "zowany": 4528,
      "tam": 4529,
      "Ġprzyci": 4530,
      "stej": 4531,
      "Ġdopas": 4532,
      "Ġwykonane": 4533,
      "Ġtur": 4534,
      "gla": 4535,
      "Ġmieli": 4536,
      "Ġzaga": 4537,
      "Au": 4538,
      "dawca": 4539,
      "ĠwskaÅº": 4540,
      "ĠbranÅ¼y": 4541,
      "Ġfina": 4542,
      "Ġcelem": 4543,
      "ĠuÅ¼ywa": 4544,
      "Ġdotychczas": 4545,
      "ĠwÅĤosÃ³w": 4546,
      "Ġefekt": 4547,
      "Ġprawdopod": 4548,
      "Ġwyraz": 4549,
      "ĠToma": 4550,
      "cio": 4551,
      "Ġbro": 4552,
      "Ġhttps": 4553,
      "Ġkomplek": 4554,
      "Ġpowietrza": 4555,
      "ĠzespoÅĤu": 4556,
      "stka": 4557,
      "http": 4558,
      "Ġkomple": 4559,
      "Ġobo": 4560,
      "ĠzaczÄħ": 4561,
      "ĠpodrÃ³": 4562,
      "Ġkolejny": 4563,
      "Ġpia": 4564,
      "stycznej": 4565,
      "Ġspad": 4566,
      "miÄħ": 4567,
      "Ġdoros": 4568,
      "Ġfran": 4569,
      "ĠmaÅĤ": 4570,
      "Ġdodatkowo": 4571,
      "ĠUE": 4572,
      "OK": 4573,
      "pieÅĦ": 4574,
      "Ġode": 4575,
      "Ġwin": 4576,
      "ĠzwiÄĻksza": 4577,
      "cone": 4578,
      "Ġspotkanie": 4579,
      "Ġeuropej": 4580,
      "ET": 4581,
      "jmy": 4582,
      "dzono": 4583,
      "Przed": 4584,
      "ĠĠĠĠĠĠĠĠĠĠĠĠĠĠĠĠĠĠĠ": 4585,
      "Ġpolskiego": 4586,
      "owali": 4587,
      "ĠCy": 4588,
      "ingu": 4589,
      "ciela": 4590,
      "gatyw": 4591,
      "ogle": 4592,
      "ght": 4593,
      "Dzie": 4594,
      "Ġmg": 4595,
      "ĠpomÃ³c": 4596,
      "dowych": 4597,
      "Ġkata": 4598,
      "Ġformy": 4599,
      "ĠAn": 4600,
      "ĠodÅ¼y": 4601,
      "gda": 4602,
      "ĠðŁ": 4603,
      "sÅĤawa": 4604,
      "Ġster": 4605,
      "Ġskierowa": 4606,
      "ĠGÅĤÃ³w": 4607,
      "jazd": 4608,
      "Ġpojem": 4609,
      "Ġnowej": 4610,
      "ĠwypeÅĤ": 4611,
      "Ġserca": 4612,
      "Ġpowinni": 4613,
      "Ġdrog": 4614,
      "ĠrolÄĻ": 4615,
      "ĠmÃ³wiÄħ": 4616,
      "Ã³le": 4617,
      "piÄħ": 4618,
      "Ġnazwi": 4619,
      "Ġumy": 4620,
      "Opis": 4621,
      "Â°": 4622,
      "ĠÅĽwiÄħ": 4623,
      "ĠĠĠĠĠĠĠĠĠĠĠĠĠĠĠĠĠĠĠĠ": 4624,
      "ÅĽciu": 4625,
      "ĠrzÄħd": 4626,
      "ĠuchwaÅĤy": 4627,
      "Ġoj": 4628,
      "Ġniebezpie": 4629,
      "Ġrado": 4630,
      "zeum": 4631,
      "mm": 4632,
      "Ġgeo": 4633,
      "Ġprzyda": 4634,
      "czyli": 4635,
      "Ġmasa": 4636,
      "Ġuroczy": 4637,
      "snÄħ": 4638,
      "ĠczÅĤonkÃ³w": 4639,
      "ĠInstytu": 4640,
      "ĠudaÅĤo": 4641,
      "ĠBra": 4642,
      "ĠÅĤo": 4643,
      "Ġ%": 4644,
      "ĠSte": 4645,
      "ĠtysiÄĻcy": 4646,
      "ĠtakÄħ": 4647,
      "Ġnasi": 4648,
      "Ġuzasa": 4649,
      "ĠprzecieÅ¼": 4650,
      "rodek": 4651,
      "Ġmarket": 4652,
      "ws": 4653,
      "cebo": 4654,
      "dyn": 4655,
      "czonego": 4656,
      "ĠpowyÅ¼": 4657,
      "suje": 4658,
      "Ġinstalacji": 4659,
      "rzÄħt": 4660,
      "legÅĤoÅĽci": 4661,
      "Ġjazdy": 4662,
      "it": 4663,
      "Ġpozycji": 4664,
      "ĠcelÃ³w": 4665,
      "stym": 4666,
      "ĠjakiÅĽ": 4667,
      "Ġdostarcza": 4668,
      "Ġofercie": 4669,
      "pisz": 4670,
      "rzÄħdzenie": 4671,
      "ĠbudÅ¼etu": 4672,
      "Ġpowszech": 4673,
      "Ġ'": 4674,
      "ciele": 4675,
      "wskiego": 4676,
      "LA": 4677,
      "mieniu": 4678,
      "ĠKraj": 4679,
      "Ze": 4680,
      "tania": 4681,
      "torium": 4682,
      "szczeÅĦ": 4683,
      "Ġniemal": 4684,
      "Ġpolskiej": 4685,
      "Ġintensyw": 4686,
      "ĠmogÄĻ": 4687,
      "ĠwnÄĻ": 4688,
      "nawi": 4689,
      "owano": 4690,
      "zdÃ³w": 4691,
      "ĠszczÄĻ": 4692,
      "Wa": 4693,
      "grywa": 4694,
      "Ġzmar": 4695,
      "mon": 4696,
      "Ġfakt": 4697,
      "ĠcaÅĤÄħ": 4698,
      "ĠwrÄĻ": 4699,
      "norod": 4700,
      "Ġfra": 4701,
      "ĠdokÅĤad": 4702,
      "Ġprowadzenia": 4703,
      "Ġczwar": 4704,
      "ĠprojektÃ³w": 4705,
      "ĠFo": 4706,
      "ĠTra": 4707,
      "terna": 4708,
      "logicznych": 4709,
      "stego": 4710,
      "chwy": 4711,
      "Ġtelefo": 4712,
      "Ġwygo": 4713,
      "armo": 4714,
      "Ġhe": 4715,
      "ĠpowiedzieÄĩ": 4716,
      "ĠchciaÅĤ": 4717,
      "tak": 4718,
      "Ġprocesu": 4719,
      "Ġprzepisy": 4720,
      "Me": 4721,
      "Ġds": 4722,
      "ĠkomÃ³r": 4723,
      "tanie": 4724,
      "Ġkontra": 4725,
      "czyn": 4726,
      "wio": 4727,
      "Ġszkolenia": 4728,
      "ĠukÅĤad": 4729,
      "Ġtrudno": 4730,
      "Ġobejmuje": 4731,
      "Ġuz": 4732,
      "Ġzm": 4733,
      "ĠnastÄħpi": 4734,
      "Ġutwo": 4735,
      "Ġmle": 4736,
      "ĠUÅ¼y": 4737,
      "czymy": 4738,
      "ĠÅĽre": 4739,
      "Doda": 4740,
      "ĠbÄĻdziesz": 4741,
      "Sa": 4742,
      "ĠcaÅĤkowicie": 4743,
      "Ġkoszt": 4744,
      "Ġwyd": 4745,
      "Ġkolejnych": 4746,
      "ĠwiÄĻkszoÅĽci": 4747,
      "OB": 4748,
      "Ġwykorzystu": 4749,
      "pierw": 4750,
      "ĠpacjentÃ³w": 4751,
      "Ġtr": 4752,
      "ĠszkÃ³ÅĤ": 4753,
      "ĠokreÅĽlonych": 4754,
      "Ġpunk": 4755,
      "ĠporzÄħd": 4756,
      "ĠWszystkie": 4757,
      "Ġspecy": 4758,
      "prawia": 4759,
      "dowe": 4760,
      "ĠuczestnikÃ³w": 4761,
      "iÄĻdzy": 4762,
      "Ġdoskonale": 4763,
      "Ġwykonanie": 4764,
      "Ġocenia": 4765,
      "rÄĻb": 4766,
      "Ġzwykle": 4767,
      "jne": 4768,
      "tywa": 4769,
      "Ġkomi": 4770,
      "Å¼Äħda": 4771,
      "Ġszere": 4772,
      "najmniej": 4773,
      "Ġsama": 4774,
      "Ġwprowadza": 4775,
      "ĠÅļrod": 4776,
      "ĠÅģa": 4777,
      "ekla": 4778,
      "Ġdoprowa": 4779,
      "unku": 4780,
      "----------------------------------------------------------------": 4781,
      "ĠÅĤazie": 4782,
      "niec": 4783,
      "ĠdoÅĽwiadczenia": 4784,
      "ĠÅĽle": 4785,
      "Ġ&": 4786,
      "ĠkupiÄĩ": 4787,
      "Ġmeta": 4788,
      "KS": 4789,
      "trona": 4790,
      "enty": 4791,
      "ĠtÄħ": 4792,
      "Ġmusisz": 4793,
      "OWY": 4794,
      "Åºni": 4795,
      "Ġnegatyw": 4796,
      "Ġposzuki": 4797,
      "braÄĩ": 4798,
      "chen": 4799,
      "Å¼ki": 4800,
      "Ġewentual": 4801,
      "Ġgwia": 4802,
      "ĠsprzÄĻtu": 4803,
      "Ġstaje": 4804,
      "dowania": 4805,
      "Ġuczu": 4806,
      "ĠEuropejskiej": 4807,
      "Ġzreali": 4808,
      "ĠsprzedaÅ¼": 4809,
      "Ġcele": 4810,
      "Ġblisko": 4811,
      "nÄĻÅĤa": 4812,
      "rego": 4813,
      "ĠOn": 4814,
      "Ġostate": 4815,
      "Ġbraku": 4816,
      "ĠodbÄĻ": 4817,
      "ĠdoÅĽwiadczenie": 4818,
      "tujÄħ": 4819,
      "Ġzawie": 4820,
      "Ġpodda": 4821,
      "ĠmiaÅĤy": 4822,
      "Ġkor": 4823,
      "Tak": 4824,
      "Ġchemi": 4825,
      "trzeb": 4826,
      "styka": 4827,
      "ĠWil": 4828,
      "Ġopinii": 4829,
      "Ġinaczej": 4830,
      "koÅĤa": 4831,
      "czer": 4832,
      "Ġosie": 4833,
      "ĠdoÅĤÄħ": 4834,
      "Ġfundu": 4835,
      "ĠukÅĤadu": 4836,
      "Ġsprawdza": 4837,
      "ery": 4838,
      "Ġminu": 4839,
      "ĠTar": 4840,
      "De": 4841,
      "ĠpoÅĤu": 4842,
      "Ġdiagno": 4843,
      "son": 4844,
      "Ġj": 4845,
      "Ġwsparcia": 4846,
      "ĠrozwiÄħzaÅĦ": 4847,
      "CJA": 4848,
      "Ġpolity": 4849,
      "Ġtwier": 4850,
      "Ġwypadku": 4851,
      "ĠTrze": 4852,
      "UM": 4853,
      "ĠBoga": 4854,
      "ĠwpÅĤywa": 4855,
      "Ġspi": 4856,
      "Ġregula": 4857,
      "ĠoszczÄĻ": 4858,
      "Ġwychowa": 4859,
      "lec": 4860,
      "ĠPodstaw": 4861,
      "Ġformula": 4862,
      "lak": 4863,
      "fini": 4864,
      "ĠcaÅĤoÅĽci": 4865,
      "Ġdzisiej": 4866,
      "ĠwziÄĻ": 4867,
      "dyna": 4868,
      "ĠzobaczyÄĩ": 4869,
      "Ġnet": 4870,
      "ssi": 4871,
      "ÅĤod": 4872,
      "tan": 4873,
      "Ġmieszkania": 4874,
      "ĠzarzÄħdzania": 4875,
      "Ġprzycho": 4876,
      "Ġprzypomina": 4877,
      "niona": 4878,
      "Ġoni": 4879,
      "ĠUSA": 4880,
      "Ġabso": 4881,
      "ĠpochodzÄħ": 4882,
      "Ġwita": 4883,
      "czest": 4884,
      "ĠSpoÅĤe": 4885,
      "towane": 4886,
      "sam": 4887,
      "Ġstandar": 4888,
      "ĠVi": 4889,
      "ĠpoÅ¼yczki": 4890,
      "Ġzagra": 4891,
      "owanej": 4892,
      "Ġzadowo": 4893,
      "widen": 4894,
      "Ġnajlepszych": 4895,
      "ĠprzyszÅĤoÅĽci": 4896,
      "Ġgmin": 4897,
      "Ġmusia": 4898,
      "Ġher": 4899,
      "Ġutrzy": 4900,
      "ĠEx": 4901,
      "ĠÅĽmierci": 4902,
      "ĠrealizacjÄĻ": 4903,
      "ÅĦca": 4904,
      "Ġtransa": 4905,
      "ĠPodczas": 4906,
      "Ġdlaczego": 4907,
      "ĠzwierzÄĻ": 4908,
      "Ġkuchni": 4909,
      "ĠJedno": 4910,
      "ĠniezbÄĻdne": 4911,
      "Ġreak": 4912,
      "ĠofertÄĻ": 4913,
      "kowym": 4914,
      "Ġucie": 4915,
      "ĠCon": 4916,
      "ĠgÅĤowy": 4917,
      "ĠRodzi": 4918,
      "ĠgorÄħ": 4919,
      "kowo": 4920,
      "Ġjednostek": 4921,
      "Ġserii": 4922,
      "ĠUnii": 4923,
      "Ġkolory": 4924,
      "stoÅĽÄĩ": 4925,
      "Ġkredyt": 4926,
      "ÅĦskim": 4927,
      "ĠkrÄĻ": 4928,
      "Ġwith": 4929,
      "Ġpane": 4930,
      "ĠPow": 4931,
      "ĠduÅ¼Äħ": 4932,
      "Ġofia": 4933,
      "Ġfilmy": 4934,
      "KO": 4935,
      "ĠspÃ³ÅĤki": 4936,
      "ÅĽcioÅĤa": 4937,
      "MI": 4938,
      "Mie": 4939,
      "ĠmieÅĽcie": 4940,
      "Ġ#": 4941,
      "nictwo": 4942,
      "ĠKrÃ³": 4943,
      "miany": 4944,
      "ĠwÅĤaÅĽciwoÅĽci": 4945,
      "Ġpali": 4946,
      "ĠrÃ³wno": 4947,
      "ĠodpowiedzialnoÅĽci": 4948,
      "ĠwÄħtp": 4949,
      "sje": 4950,
      "ĠzwierzÄħt": 4951,
      "Ġpocho": 4952,
      "Ġstopniu": 4953,
      "Ġpotwierdza": 4954,
      "ĠobciÄħ": 4955,
      "Ġsobo": 4956,
      "Ġup": 4957,
      "ĠStowarzy": 4958,
      "ĠIV": 4959,
      "ĠmiejscowoÅĽci": 4960,
      "Ġulicy": 4961,
      "Ġrozpa": 4962,
      "Ġproblemu": 4963,
      "ml": 4964,
      "Ġdofinans": 4965,
      "Ġzapobiega": 4966,
      "staura": 4967,
      "ĠskorzystaÄĩ": 4968,
      "Ġprzys": 4969,
      "Ġzwraca": 4970,
      "ĠwystÄħpi": 4971,
      "Ġodno": 4972,
      "Ġgene": 4973,
      "Spo": 4974,
      "wne": 4975,
      "ds": 4976,
      "parta": 4977,
      "ecnie": 4978,
      "Ġpraco": 4979,
      "Ġwsparcie": 4980,
      "ĠnastÄĻpujÄħce": 4981,
      "Ġwystarczy": 4982,
      "ÅĦczy": 4983,
      "Ġreli": 4984,
      "ies": 4985,
      "ĠurzÄĻ": 4986,
      "rodzi": 4987,
      "Ġam": 4988,
      "dzieÅĦ": 4989,
      "ĠwÅĤasnych": 4990,
      "Ġopowie": 4991,
      "szpa": 4992,
      "Ġukry": 4993,
      "PS": 4994,
      "Ġdeko": 4995,
      "cjali": 4996,
      "rÃ³g": 4997,
      "imna": 4998,
      "Ġzjawi": 4999,
      "ĠZarzÄħdu": 5000,
      "Ġwszelkie": 5001,
      "Ġprzypadkach": 5002,
      "rzad": 5003,
      "tychmiast": 5004,
      "Ġryzyko": 5005,
      "kier": 5006,
      "Ġlokali": 5007,
      "Ġtwarzy": 5008,
      "Ġinfrastru": 5009,
      "ĠznaczÄħ": 5010,
      "ĠosiÄħg": 5011,
      "Ġbrz": 5012,
      "ĠspoÅĽrÃ³d": 5013,
      "ĠBardzo": 5014,
      "ĠSza": 5015,
      "Ġzwyk": 5016,
      "ANIA": 5017,
      "giÄĻ": 5018,
      "'a": 5019,
      "Ġameryka": 5020,
      "ÅĦstwie": 5021,
      "Ġkompe": 5022,
      "nte": 5023,
      "ĠÅģo": 5024,
      "Ġmocno": 5025,
      "toli": 5026,
      "ĠmÄħ": 5027,
      "ĠzwrÃ³ciÄĩ": 5028,
      "dziel": 5029,
      "wczych": 5030,
      "ĠNaleÅ¼y": 5031,
      "ĠwziÄħ": 5032,
      "miary": 5033,
      "Ġzi": 5034,
      "stÄħpienia": 5035,
      "lonych": 5036,
      "kowski": 5037,
      "ĠodpadÃ³w": 5038,
      "ĠKaÅ¼dy": 5039,
      "nieÅĽÄĩ": 5040,
      "Ġdrob": 5041,
      "ĠIz": 5042,
      "Ġpostanowi": 5043,
      "Ġoprogram": 5044,
      "Ġserwis": 5045,
      "ĠwokÃ³ÅĤ": 5046,
      "IV": 5047,
      "ĠpodkreÅĽla": 5048,
      "Ġpierwszego": 5049,
      "prawie": 5050,
      "str": 5051,
      "rzeniu": 5052,
      "dzieÅ¼": 5053,
      "Ġit": 5054,
      "mocy": 5055,
      "ĠkwotÄĻ": 5056,
      "Ġtery": 5057,
      "ĠGÃ³": 5058,
      "ĠStani": 5059,
      "Ġzastosowanie": 5060,
      "ĠÅ¼ywo": 5061,
      "turÄĻ": 5062,
      "-B": 5063,
      "Ġskon": 5064,
      "ĠwidaÄĩ": 5065,
      "owanego": 5066,
      "ĠtworzÄħ": 5067,
      "ĠpodjÄĻ": 5068,
      "Ġwideo": 5069,
      "ÅĤnie": 5070,
      "ĠPierw": 5071,
      "dnienie": 5072,
      "Ġfinansowe": 5073,
      "ĠJana": 5074,
      "ĠprzesÅĤa": 5075,
      "Ġkup": 5076,
      "tions": 5077,
      "nom": 5078,
      "Ġgar": 5079,
      "terii": 5080,
      "Ġfinansowych": 5081,
      "ĠOfer": 5082,
      "ÅĤania": 5083,
      "wiej": 5084,
      "Ġpublicznego": 5085,
      "ĠnaleÅ¼Äħ": 5086,
      "ĠGospodar": 5087,
      "Ġostatnie": 5088,
      "Ġwas": 5089,
      "Ġwyszuki": 5090,
      "rowaÄĩ": 5091,
      "cjonu": 5092,
      "ĠmiÅĤo": 5093,
      "ĠEuropy": 5094,
      "ĠpoÅĽrednictwem": 5095,
      "ĠPamiÄĻ": 5096,
      "Ġcentra": 5097,
      "tt": 5098,
      "ĠWin": 5099,
      "pÃ³w": 5100,
      "ĠMinister": 5101,
      "gÅĤÄĻ": 5102,
      "Ġprocent": 5103,
      "ĠEl": 5104,
      "ĠPubli": 5105,
      "Ġprzeczy": 5106,
      "ĠmiÅĤoÅĽci": 5107,
      "ĠprÄĻd": 5108,
      "ĠKry": 5109,
      "arÃ³w": 5110,
      "ĠoÅĽwiet": 5111,
      "ĠmateriaÅĤy": 5112,
      "Ġpublicznej": 5113,
      "tkÄħ": 5114,
      "rejestrowa": 5115,
      "ĠzÄĻ": 5116,
      "ĠopÅĤat": 5117,
      "Ġrolni": 5118,
      "ĠGÃ³r": 5119,
      "ĠplikÃ³w": 5120,
      "ĠdÅĤugi": 5121,
      "strza": 5122,
      "dnym": 5123,
      "jÄħco": 5124,
      "Ġap": 5125,
      "owiec": 5126,
      "Ġkonkursu": 5127,
      "ĠrÃ³Å¼norod": 5128,
      "ĠPaÅĦstwo": 5129,
      "Ġkorzystania": 5130,
      "ĠbezpieczeÅĦstwo": 5131,
      "Ġprzedmiotu": 5132,
      "korzy": 5133,
      "Ġpory": 5134,
      "ĠdostÄĻpu": 5135,
      "biegu": 5136,
      "Ġzrozumie": 5137,
      "ĠkorzystaÄĩ": 5138,
      "ĠczÅĤowiek": 5139,
      "Ġzgody": 5140,
      "PL": 5141,
      "Ġtajem": 5142,
      "Bi": 5143,
      "Ġmen": 5144,
      "Ġzdecydowanie": 5145,
      "Ġkrea": 5146,
      "toria": 5147,
      "czonym": 5148,
      "waÅĤa": 5149,
      "Ġobszarze": 5150,
      "dowego": 5151,
      "tkowe": 5152,
      "Ġziemi": 5153,
      "Ġtrzyma": 5154,
      "Ġela": 5155,
      "cesor": 5156,
      "derni": 5157,
      "kÅĤadzie": 5158,
      "Ġkarty": 5159,
      "ent": 5160,
      "Ġkonto": 5161,
      "Ġoficja": 5162,
      "lot": 5163,
      "Ġwydaj": 5164,
      "Ġterenu": 5165,
      "ĠKatowi": 5166,
      "ĠFunda": 5167,
      "sÄĻ": 5168,
      "ĠKrakÃ³w": 5169,
      "ĠzuÅ¼y": 5170,
      "Ġcookies": 5171,
      "stawienie": 5172,
      "Ġwojs": 5173,
      "ANIE": 5174,
      "Ġole": 5175,
      "ĠwynikÃ³w": 5176,
      "dniego": 5177,
      "ĠjakieÅĽ": 5178,
      "twie": 5179,
      "Ġsklepie": 5180,
      "ĠUrzÄĻdu": 5181,
      "wro": 5182,
      "Ġponownie": 5183,
      "Ġpio": 5184,
      "ĠnadziejÄĻ": 5185,
      "ĠrobÃ³": 5186,
      "ĠOczywiÅĽcie": 5187,
      "PR": 5188,
      "Ġrazu": 5189,
      "Ġolej": 5190,
      "Ġupo": 5191,
      "Ġzakupu": 5192,
      "Wszyst": 5193,
      "Ġseria": 5194,
      "nikami": 5195,
      "Ġprzetwarzania": 5196,
      "Ad": 5197,
      "tarz": 5198,
      "-u": 5199,
      "mowÄĻ": 5200,
      "Ġulu": 5201,
      "ĠmateriaÅĤu": 5202,
      "Ġwytrzyma": 5203,
      "ZA": 5204,
      "Ġgdyby": 5205,
      "fli": 5206,
      "waj": 5207,
      "Ġzbiera": 5208,
      "ĠKi": 5209,
      "Sy": 5210,
      "miana": 5211,
      "Ġmoim": 5212,
      "Ġnikt": 5213,
      "ĠTV": 5214,
      "Ġryzyka": 5215,
      "czem": 5216,
      "es": 5217,
      "ĠTeraz": 5218,
      "graf": 5219,
      "ĠmÅĤodzieÅ¼y": 5220,
      "ĠuÅ¼ytkownika": 5221,
      "ĠstudiÃ³w": 5222,
      "Ġoptyma": 5223,
      "Ġrodzaj": 5224,
      "ĠKrzyszto": 5225,
      "lki": 5226,
      "Ġprote": 5227,
      "kup": 5228,
      "Ġkonstruk": 5229,
      "ĠBry": 5230,
      "ĠLubli": 5231,
      "Ã³ze": 5232,
      "Ġpropo": 5233,
      "sand": 5234,
      "Ġana": 5235,
      "Ġstrona": 5236,
      "Ġwitry": 5237,
      "Ġur": 5238,
      "mato": 5239,
      "Ġinicja": 5240,
      "Ġdow": 5241,
      "?ĊĊ": 5242,
      "mujemy": 5243,
      "Ġwynik": 5244,
      "Ġporta": 5245,
      "ĠDi": 5246,
      "ĠciÅĽnie": 5247,
      "Ġkontynu": 5248,
      "Ġstandard": 5249,
      "ĠspoÅĤecznej": 5250,
      "ĠupÅĤy": 5251,
      "Ġszt": 5252,
      "wodniczÄħcy": 5253,
      "ĠCzÄĻsto": 5254,
      "Ġruch": 5255,
      "niÄĻcie": 5256,
      "hat": 5257,
      "Pre": 5258,
      "Ġwyz": 5259,
      "Ġintegra": 5260,
      "ĠĠĠĠĠĠĠĠĠĠĠĠĠĠĠĠĠĠĠĠĠĠĠĠĠ": 5261,
      "Ġwykonywania": 5262,
      "zny": 5263,
      "skar": 5264,
      "Ġrecen": 5265,
      "Ġdniach": 5266,
      "Å¹rÃ³dÅĤo": 5267,
      "ĠrobÃ³t": 5268,
      "niowe": 5269,
      "tycznÄħ": 5270,
      "dwie": 5271,
      "kowany": 5272,
      "ĠMiÄĻdzy": 5273,
      "Ġopieki": 5274,
      "ĠaktywnoÅĽci": 5275,
      "Ġpani": 5276,
      "czonej": 5277,
      "Ġtle": 5278,
      "ĠBoÅ¼e": 5279,
      "Ġinternetowych": 5280,
      "Ġobok": 5281,
      "rzone": 5282,
      "Ġport": 5283,
      "ĠKultury": 5284,
      "ĠzapewniÄĩ": 5285,
      "ĠzÅĤa": 5286,
      "Ġplatfor": 5287,
      "Ġzagospodar": 5288,
      "ĠÅĽwiadczenia": 5289,
      "ĠduÅ¼ej": 5290,
      "ÅĽciej": 5291,
      "ĠLiczba": 5292,
      "gÃ³ÅĤy": 5293,
      "Ġeksplo": 5294,
      "ĠprÄħ": 5295,
      "nkach": 5296,
      "'s": 5297,
      "ksu": 5298,
      "Ġzachowania": 5299,
      "ree": 5300,
      "Ġkogo": 5301,
      "ĠHu": 5302,
      "Ġrozsze": 5303,
      "Ġelegan": 5304,
      "ĠGoogle": 5305,
      "ĠciepÅĤa": 5306,
      "niesienia": 5307,
      "Ġspokoj": 5308,
      "ngu": 5309,
      "Ġtea": 5310,
      "ĠRP": 5311,
      "wziÄĻ": 5312,
      "Ġudziela": 5313,
      "robi": 5314,
      "Ġjakiego": 5315,
      "Ġpunktu": 5316,
      "Ġrowe": 5317,
      "kÄħd": 5318,
      "Ġubezpieczenia": 5319,
      "ĠNiestety": 5320,
      "Ġopubli": 5321,
      "sual": 5322,
      "bija": 5323,
      "Ġprzeciwko": 5324,
      "kimi": 5325,
      "Mar": 5326,
      "ĠSI": 5327,
      "Ġatmosfe": 5328,
      "ĠPRO": 5329,
      "ĠMoÅ¼esz": 5330,
      "Ġprostytutki": 5331,
      "mac": 5332,
      "Ġzbli": 5333,
      "ĠOl": 5334,
      "vo": 5335,
      "Ġswobo": 5336,
      "ĠSamo": 5337,
      "Ġagen": 5338,
      "czono": 5339,
      "mowych": 5340,
      "Ġpobli": 5341,
      "Ġpis": 5342,
      "Ġzaleca": 5343,
      "Ġdanego": 5344,
      "ĠsprzÄĻt": 5345,
      "Ġzaprezen": 5346,
      "-S": 5347,
      "âĪ": 5348,
      "ĠczÅĤonk": 5349,
      "Ġtransportu": 5350,
      "Ġurucho": 5351,
      "ĠroÅĽlin": 5352,
      "Ġcyfr": 5353,
      "Bo": 5354,
      "Ġwg": 5355,
      "ĠprzemysÅĤ": 5356,
      "ĠsiÅĤ": 5357,
      "Ġpowoduje": 5358,
      "Ni": 5359,
      "ĠsprawdziÄĩ": 5360,
      "scri": 5361,
      "Ġzdecydowa": 5362,
      "ĠkoniecznoÅĽci": 5363,
      "ES": 5364,
      "Ġanalizy": 5365,
      "Ġporusza": 5366,
      "Ġzaufa": 5367,
      "Ġmiasto": 5368,
      "Ġnatychmiast": 5369,
      "Ġnetto": 5370,
      "dagogi": 5371,
      "Ġbiur": 5372,
      "wolu": 5373,
      "rzego": 5374,
      "ĠDziaÅĤa": 5375,
      "Ġvi": 5376,
      "red": 5377,
      "wiÄĻcej": 5378,
      "ligen": 5379,
      "ĠniektÃ³re": 5380,
      "Ġjaka": 5381,
      "Ġstawia": 5382,
      "Ġdrewnia": 5383,
      "nale": 5384,
      "Ġpolskim": 5385,
      "Ġkocha": 5386,
      "Ġemery": 5387,
      "Ġdarmo": 5388,
      "kiewicz": 5389,
      "Ġhu": 5390,
      "Go": 5391,
      "au": 5392,
      "ĠChi": 5393,
      "spoli": 5394,
      "CA": 5395,
      "Ġzasta": 5396,
      "Ġopis": 5397,
      "Ġcerty": 5398,
      "lnymi": 5399,
      "Ġtygodni": 5400,
      "Ġkwoty": 5401,
      "ĠDru": 5402,
      "Ġzali": 5403,
      "Ġscho": 5404,
      "Å¼em": 5405,
      "Äħb": 5406,
      "ĠÅ¼yw": 5407,
      "ĠAndrzej": 5408,
      "zowanie": 5409,
      "Ġobser": 5410,
      "Ġwywo": 5411,
      "Ġdopuszcza": 5412,
      "dle": 5413,
      "Ġner": 5414,
      "Ġsamej": 5415,
      "Ġperso": 5416,
      "ĠnapiÄĻ": 5417,
      "ĠOchro": 5418,
      "Ġrynek": 5419,
      "Ġmusimy": 5420,
      "Ġstrze": 5421,
      "ĊĊĊ": 5422,
      "ĠÂ»": 5423,
      "Ġpierwszych": 5424,
      "gami": 5425,
      "ĠwysÅĤa": 5426,
      "Ġex": 5427,
      "Ġzapla": 5428,
      "Ġpisem": 5429,
      "Ġplanowa": 5430,
      "ĠBer": 5431,
      "niejszy": 5432,
      "),Ċ": 5433,
      "ĠMÅĤo": 5434,
      "obi": 5435,
      "Ġelektro": 5436,
      "ĠKrakowie": 5437,
      "ĠzdjÄĻÄĩ": 5438,
      "ĠrobiÄĩ": 5439,
      "Ġwpisa": 5440,
      "rie": 5441,
      "czoÅĽci": 5442,
      "Ġpokoju": 5443,
      "ĠWyda": 5444,
      "riu": 5445,
      "jÄħÅĤ": 5446,
      "ĠkorzyÅĽci": 5447,
      "ĠzapÅĤa": 5448,
      "Ġkomunikacji": 5449,
      "wÃ³d": 5450,
      "ĠGro": 5451,
      "Ġpobiera": 5452,
      "Ġwiadomo": 5453,
      "Ġaktuali": 5454,
      "mera": 5455,
      "Ca": 5456,
      "ĠgÃ³ry": 5457,
      "Ġrzu": 5458,
      "Ġwiecz": 5459,
      "Ġtable": 5460,
      "Ġ................................................................": 5461,
      "ĠCO": 5462,
      "Ġmagne": 5463,
      "ĠSystem": 5464,
      "Ġdokony": 5465,
      "Ġjakiej": 5466,
      "ĠPolakÃ³w": 5467,
      "Ġzakres": 5468,
      "ps": 5469,
      "kiet": 5470,
      "Ġpoinformowa": 5471,
      "ĠmateriaÅĤ": 5472,
      "Ġdynami": 5473,
      "ĠĠĠĠĠĠĠĠĠĠĠĠĠĠĠĠĠĠĠĠĠĠ": 5474,
      "ĠDodatkowo": 5475,
      "Ġzebra": 5476,
      "loba": 5477,
      "Ġstyl": 5478,
      "ĠÃ": 5479,
      "Ġsamochodu": 5480,
      "ĠTwojej": 5481,
      "Ġsztuki": 5482,
      "EC": 5483,
      "Ġproto": 5484,
      "stycznego": 5485,
      "Ġkrze": 5486,
      "ĠZdr": 5487,
      "Ġpolicja": 5488,
      "\\u": 5489,
      "towaÅĤ": 5490,
      "ĠprzeÅĤo": 5491,
      "ĠPor": 5492,
      "ff": 5493,
      "Ġinstytucji": 5494,
      "ĠoÅĽrod": 5495,
      "Ġzastrze": 5496,
      "Ġzazwyczaj": 5497,
      "ĠmÃ³j": 5498,
      "Ġwykaza": 5499,
      "Ġkore": 5500,
      "ĠEle": 5501,
      "Ġosa": 5502,
      "Ġtygod": 5503,
      "strzo": 5504,
      "ĠÅ¼Ã³ÅĤ": 5505,
      "ĠogÃ³le": 5506,
      "produ": 5507,
      "Ġtransport": 5508,
      "scypli": 5509,
      "jek": 5510,
      "ĠPana": 5511,
      "ĠProgra": 5512,
      "Ġkonstru": 5513,
      "Ġpunkt": 5514,
      "Ġciem": 5515,
      "sÅĤuguje": 5516,
      "Ġopinie": 5517,
      "Ġpoprzedni": 5518,
      "padek": 5519,
      "Ġzacho": 5520,
      "ĠkoÅĦc": 5521,
      "Ġstopni": 5522,
      "szczÄħ": 5523,
      "ĠbÅĤo": 5524,
      "Ġkampa": 5525,
      "jeÅ¼d": 5526,
      "zowania": 5527,
      "Ġopowiada": 5528,
      "Ġmojej": 5529,
      "Ġemi": 5530,
      "Ġzamiast": 5531,
      "ĠpielÄĻgna": 5532,
      "Ġwojny": 5533,
      "Ġtor": 5534,
      "Ġcztery": 5535,
      "ÅĤÄħd": 5536,
      "Ġwery": 5537,
      "ĠpamiÄĻci": 5538,
      "SKI": 5539,
      "gru": 5540,
      "ĠJÃ³ze": 5541,
      "ĠgotÃ³w": 5542,
      "Ġdyrektor": 5543,
      "ĠInterne": 5544,
      "Ġokresu": 5545,
      "):": 5546,
      "---|---|---|---|": 5547,
      "ĠmÄĻÅ¼czyzn": 5548,
      "Ġposie": 5549,
      "Ġtematy": 5550,
      "ĠprzestÄĻp": 5551,
      "tkami": 5552,
      "Aby": 5553,
      "Ġzamieszka": 5554,
      "TU": 5555,
      "Ġemail": 5556,
      "sowej": 5557,
      "Ġwyklu": 5558,
      "------|": 5559,
      "ĠVAT": 5560,
      "mami": 5561,
      "Ġlogi": 5562,
      "metrÃ³w": 5563,
      "ĠpodrÃ³Å¼y": 5564,
      "grafii": 5565,
      "Ġrestaura": 5566,
      "Ġinspi": 5567,
      "ĠEuropie": 5568,
      "Ġprzekro": 5569,
      "Ġpremie": 5570,
      "Ġzapisa": 5571,
      "ĠpozostaÅĤych": 5572,
      "ĠobiektÃ³w": 5573,
      "Ġwarzy": 5574,
      "Ry": 5575,
      "Ġnaczy": 5576,
      "Ġ>": 5577,
      "ĠukoÅĦ": 5578,
      "Ġpolski": 5579,
      "Ġkoncep": 5580,
      "dnoÅĽÄĩ": 5581,
      "cm": 5582,
      "Ar": 5583,
      "wszy": 5584,
      "ĠmaÅĤych": 5585,
      "Bar": 5586,
      "Ġkontek": 5587,
      "ĠpoÅĤ": 5588,
      "ĠciÄħÅ¼y": 5589,
      "Ġprowadzenie": 5590,
      "ĠPraw": 5591,
      "szeniu": 5592,
      "ĠpomysÅĤ": 5593,
      "Ġekra": 5594,
      "Zobacz": 5595,
      "dowej": 5596,
      "Ġnapo": 5597,
      "ĠwiedzÄĻ": 5598,
      "Ġchwil": 5599,
      "pienie": 5600,
      "Ġprzestrzega": 5601,
      "zycji": 5602,
      "gÅĤasza": 5603,
      "Ġkompeten": 5604,
      "Ġproducenta": 5605,
      "Ġstudia": 5606,
      "Ġoparciu": 5607,
      "Ġdarmowe": 5608,
      "rzyÅĤ": 5609,
      "Ġuzyskania": 5610,
      "ĠchwilÄĻ": 5611,
      "Ġuczy": 5612,
      "ĠChry": 5613,
      "ĠodwoÅĤa": 5614,
      "Ġmodelu": 5615,
      "ĠsystemÃ³w": 5616,
      "Ġpowro": 5617,
      "Ġzarejestrowa": 5618,
      "ĠumÃ³w": 5619,
      "Å¼ka": 5620,
      "tarza": 5621,
      "Ġdepozy": 5622,
      "Ġstaty": 5623,
      "Ġsklepu": 5624,
      "owaÅĤo": 5625,
      "Ġozd": 5626,
      "ĠskÅĤadnikÃ³w": 5627,
      "mian": 5628,
      "............": 5629,
      ".la": 5630,
      "ĠNIE": 5631,
      "ĠszczÄĻÅĽcie": 5632,
      "szeÅĦ": 5633,
      "Ġodzy": 5634,
      "IP": 5635,
      "obraz": 5636,
      "fikacja": 5637,
      "Ġstopnia": 5638,
      "ĠĠĠĠĠĠĠĠĠĠĠĠĠĠĠĠĠĠĠĠĠĠĠĠĠĠ": 5639,
      "Ġizo": 5640,
      "wcze": 5641,
      "Ġfrag": 5642,
      "pres": 5643,
      "Ġjakby": 5644,
      "Ġzadba": 5645,
      "lowaÄĩ": 5646,
      "dÅ¼e": 5647,
      "ĠSan": 5648,
      "tykÃ³w": 5649,
      "Ġtest": 5650,
      "Ġwaka": 5651,
      "Ġsytuacja": 5652,
      "Ġrezu": 5653,
      "cale": 5654,
      "Ġodczu": 5655,
      "tive": 5656,
      "Ġude": 5657,
      "Ġelement": 5658,
      "Ġkontaktu": 5659,
      "Ġosobowe": 5660,
      "Ġata": 5661,
      "ÅĦcu": 5662,
      "ĠZwiÄħz": 5663,
      "Produ": 5664,
      "ÅĤami": 5665,
      "Ġtrakt": 5666,
      "Ġpal": 5667,
      "ĠmiesiÄĻ": 5668,
      "Ġtygodniu": 5669,
      "Ġdodatkowych": 5670,
      "Ġtrzeci": 5671,
      "ĠmiÄĻk": 5672,
      "Ġczo": 5673,
      "nau": 5674,
      "towo": 5675,
      "ĠAdministra": 5676,
      "ĠWas": 5677,
      "ĠKla": 5678,
      "ĠwÄħtpliwoÅĽci": 5679,
      "Ġsystemie": 5680,
      "szony": 5681,
      "ĠNastÄĻpnie": 5682,
      "ĠPRZE": 5683,
      "towany": 5684,
      "Ġprzynajmniej": 5685,
      "Ġchcemy": 5686,
      "ĠmiaÅĤo": 5687,
      "ĠpowiÄħza": 5688,
      "ĠsÅĤuÅ¼Äħ": 5689,
      "**Ċ": 5690,
      "sf": 5691,
      "strybu": 5692,
      "Ġwzrostu": 5693,
      "Ġistotne": 5694,
      "Pol": 5695,
      "Ġzdrowie": 5696,
      "Ġrezulta": 5697,
      "Ġref": 5698,
      "macnia": 5699,
      "rki": 5700,
      "ĠPrawo": 5701,
      "ĠdostÄĻpnych": 5702,
      "tymi": 5703,
      "Ġrozli": 5704,
      ".U": 5705,
      "chow": 5706,
      "Ġwchodzi": 5707,
      "ĠzastÄĻp": 5708,
      "dej": 5709,
      "Ġpostanowie": 5710,
      "ĠodbÄĻdzie": 5711,
      "ed": 5712,
      "Ġmodli": 5713,
      "Ġpodstawowych": 5714,
      "tarzy": 5715,
      "zda": 5716,
      "Ġbrutto": 5717,
      "ĠwojewÃ³dztwa": 5718,
      "roi": 5719,
      "OWA": 5720,
      "Ġprzeci": 5721,
      "ĠĠĠĠĠĠĠĠĠĠĠĠĠĠĠĠĠĠĠĠĠĠĠĠĠĠĠĠĠĠ": 5722,
      "ĠOgÃ³l": 5723,
      "ĠstosowaÄĩ": 5724,
      "ĠwiedzieÄĩ": 5725,
      "ĠcaÅĤe": 5726,
      "ĠwysokoÅĽÄĩ": 5727,
      "Ġnauczycieli": 5728,
      "Ġrapor": 5729,
      "ĠnarzÄĻdzia": 5730,
      "ĠduÅ¼ych": 5731,
      "Ġpodobnie": 5732,
      "Ġwilgo": 5733,
      "mii": 5734,
      "tÄħd": 5735,
      "rektora": 5736,
      "Ġmody": 5737,
      "ĠĠĠĠĠĠĠĠĠĠĠĠĠĠĠĠĠĠĠĠĠĠĠĠĠĠĠĠ": 5738,
      "No": 5739,
      "Ġzabaw": 5740,
      "licy": 5741,
      "ĠwykorzystaÄĩ": 5742,
      "Ġchor": 5743,
      "Ġoferta": 5744,
      "pki": 5745,
      "Ġkonieczne": 5746,
      "Ġmiejscach": 5747,
      "mowie": 5748,
      "dnego": 5749,
      "Ġprzer": 5750,
      "Data": 5751,
      "Ġsuper": 5752,
      "Ġniestety": 5753,
      "................................................": 5754,
      "ĠPolskiej": 5755,
      "Ġono": 5756,
      "RU": 5757,
      "Ġgrupa": 5758,
      "Ġprawnych": 5759,
      "ĠXV": 5760,
      ".lastname": 5761,
      "dera": 5762,
      "samowi": 5763,
      "ĠksztaÅĤcenia": 5764,
      "Ġwspomnia": 5765,
      "sowy": 5766,
      "jnych": 5767,
      "mpi": 5768,
      "ĠwÅĤasnej": 5769,
      "szczone": 5770,
      "ĠnajwaÅ¼niejsze": 5771,
      "Ġakty": 5772,
      "ĠopÅĤaty": 5773,
      "zacjÄħ": 5774,
      "Ġlekarza": 5775,
      "Ġaku": 5776,
      "Ġpracownika": 5777,
      "ciÃ³ÅĤ": 5778,
      "Å¼ynie": 5779,
      "ĠprzedsiÄĻwziÄĻ": 5780,
      "Ġdiety": 5781,
      "Ġdzieje": 5782,
      "ĠduÅ¼ym": 5783,
      "Ġdanej": 5784,
      "ĠsÅĤone": 5785,
      "ĠprzedsiÄĻbiorstwa": 5786,
      "Ġopo": 5787,
      "Ġbohater": 5788,
      "poli": 5789,
      "rÃ³deÅĤ": 5790,
      "Ġrozgry": 5791,
      "ĠCha": 5792,
      "Ġus": 5793,
      "JeÅ¼eli": 5794,
      "Ġzaprasza": 5795,
      "Ġgrzy": 5796,
      "ĠkaÅ¼da": 5797,
      "ĠOsta": 5798,
      "La": 5799,
      "ĠSÅĤu": 5800,
      "reszcie": 5801,
      "lew": 5802,
      "Ġsygna": 5803,
      "kcja": 5804,
      "glÄĻdnia": 5805,
      "Ġseks": 5806,
      "ĠWszystko": 5807,
      "Ġkryter": 5808,
      "Ġzdaniem": 5809,
      "\".ĊĊ": 5810,
      "Ġdziennika": 5811,
      "Ġlicen": 5812,
      "ls": 5813,
      "dzimy": 5814,
      "Ġtelefon": 5815,
      "leksand": 5816,
      "Ġkwar": 5817,
      "Ġklima": 5818,
      "Å¼onego": 5819,
      "Ġ?": 5820,
      "Ġzajmuje": 5821,
      "ÅĽre": 5822,
      "owicz": 5823,
      "ĠmogÅĤa": 5824,
      "Ġnasza": 5825,
      "ĠskÃ³rÄĻ": 5826,
      "ĠGu": 5827,
      "Ġdora": 5828,
      "anna": 5829,
      "ĠWs": 5830,
      "toni": 5831,
      "Ġzabieg": 5832,
      "|--------": 5833,
      "sino": 5834,
      "Ġunik": 5835,
      "GA": 5836,
      "ĠwiÄĻksze": 5837,
      "Ġrelacji": 5838,
      "Ġzez": 5839,
      "Ġciekawe": 5840,
      "bela": 5841,
      "zowana": 5842,
      "ĠnarzÄĻdzi": 5843,
      "Ġunie": 5844,
      "Informa": 5845,
      "Ġgraczy": 5846,
      "Ġspodzie": 5847,
      "ĠspoÅĤecznych": 5848,
      "Ġotwo": 5849,
      "Ġautobu": 5850,
      "Ġprzygotowania": 5851,
      "ĠPer": 5852,
      "peu": 5853,
      "Ġperspekty": 5854,
      "ĠĠĠĠĠĠĠĠĠĠĠĠĠĠĠĠĠĠĠĠĠĠĠĠ": 5855,
      "WI": 5856,
      "ĠsprawÄĻ": 5857,
      "Ġinterpre": 5858,
      "Ġwskazuje": 5859,
      "Ġfunda": 5860,
      "ĠIch": 5861,
      "nda": 5862,
      "fii": 5863,
      "Ġwiary": 5864,
      "Ġapara": 5865,
      "ker": 5866,
      "Bu": 5867,
      "Ġszkla": 5868,
      "Cena": 5869,
      "bora": 5870,
      "Ġstabi": 5871,
      "decznie": 5872,
      "Ġprepara": 5873,
      "ĠÅºrÃ³deÅĤ": 5874,
      "dowo": 5875,
      "Ġprawda": 5876,
      "Ġmeczu": 5877,
      "Ġpolityki": 5878,
      "Ġsporo": 5879,
      "Ġkultura": 5880,
      "The": 5881,
      "Ġostro": 5882,
      "Ġproste": 5883,
      "zowie": 5884,
      "towym": 5885,
      "ĠÅĤu": 5886,
      "szczu": 5887,
      "Ġustawie": 5888,
      "Ġstruktu": 5889,
      "ĠmaÅĤe": 5890,
      "tch": 5891,
      "Ġregiona": 5892,
      "Ġnagra": 5893,
      "Ġstanowiska": 5894,
      "ĠmÅĤodych": 5895,
      "ĠzachÄĻca": 5896,
      "Ġposzu": 5897,
      "ĠliczbÄĻ": 5898,
      "Ð»": 5899,
      "hy": 5900,
      "ĠPaweÅĤ": 5901,
      "ĠZamawiajÄħcy": 5902,
      "munika": 5903,
      "cony": 5904,
      "Ġakcep": 5905,
      "ĠWykonawca": 5906,
      "bur": 5907,
      "wcÃ³w": 5908,
      "pen": 5909,
      "chowa": 5910,
      "ĠChrystu": 5911,
      "ĠuÅ¼ytkowania": 5912,
      "Ġwystarcza": 5913,
      "Ju": 5914,
      "ĠAuto": 5915,
      "Ġmodu": 5916,
      "Ġpri": 5917,
      "Ġetapie": 5918,
      "mum": 5919,
      "Ġzaawans": 5920,
      "ĠdodaÄĩ": 5921,
      "leniu": 5922,
      "ĠdostÄĻpny": 5923,
      "ĠsamochodÃ³w": 5924,
      "Ġotwiera": 5925,
      "tes": 5926,
      "tacjÄĻ": 5927,
      "ĠsiÅĤy": 5928,
      "ĠRE": 5929,
      "cymi": 5930,
      "ĠrzeczywistoÅĽci": 5931,
      "kowÄħ": 5932,
      "ĠNor": 5933,
      "komi": 5934,
      "Su": 5935,
      "Ġsex": 5936,
      "ĠTea": 5937,
      "ĠprzeÅ¼y": 5938,
      "ĠprzepÅĤy": 5939,
      "imi": 5940,
      "Ġpracowni": 5941,
      "ĠczÄĻÅĽciej": 5942,
      "ĠKolej": 5943,
      "pina": 5944,
      "ĠSko": 5945,
      "By": 5946,
      "Å¼sa": 5947,
      "}\\)": 5948,
      "nel": 5949,
      "jeÅ¼dÅ¼a": 5950,
      "wiÅĤ": 5951,
      "Ġbr": 5952,
      "Ġnara": 5953,
      "Ġtabli": 5954,
      "ĠWarszawy": 5955,
      "rej": 5956,
      "Ġtemperatury": 5957,
      "Wo": 5958,
      "Ġkilo": 5959,
      "ĠSk": 5960,
      "Ġidenty": 5961,
      "sten": 5962,
      "Ġprzekracza": 5963,
      "Ġjesie": 5964,
      "Ga": 5965,
      "ĠUni": 5966,
      "ĠposiÅĤ": 5967,
      "kujÄħ": 5968,
      "ĠUczest": 5969,
      "ĠdrogÄħ": 5970,
      "Ġoku": 5971,
      "Ġtelefonu": 5972,
      "owanym": 5973,
      "Ġrecep": 5974,
      "Ġgaz": 5975,
      "dÅĤa": 5976,
      "niowych": 5977,
      "ĠwystÄĻpuje": 5978,
      "Ġnaci": 5979,
      "Ġsalo": 5980,
      "Cza": 5981,
      "Ġprzepisami": 5982,
      "Ġnowym": 5983,
      "Ġgospodarki": 5984,
      "lam": 5985,
      "czar": 5986,
      "ĠwyraÅ¼a": 5987,
      "Ġzmieni": 5988,
      "Ġpozba": 5989,
      "zajem": 5990,
      "Ġtwar": 5991,
      "Ġprzewodni": 5992,
      "ĠMieszka": 5993,
      "mes": 5994,
      "Ġserwisu": 5995,
      "Ġkryzy": 5996,
      "ĠTomasz": 5997,
      "ĠbiorÄħ": 5998,
      "myÅĽ": 5999,
      "szt": 6000,
      "Ġzaprojekt": 6001,
      "tuj": 6002,
      "ĠWrocÅĤaw": 6003,
      "mai": 6004,
      "Ġbry": 6005,
      "Ġtworzenia": 6006,
      "ĠCzar": 6007,
      "waÅĤy": 6008,
      "Ġzasob": 6009,
      "ĠdrÃ³g": 6010,
      "Ġszczy": 6011,
      "wami": 6012,
      "ĠwspÃ³lnie": 6013,
      "ĠpeÅĤno": 6014,
      "Ġosobom": 6015,
      "ĠoddziaÅĤy": 6016,
      "Ġmal": 6017,
      "Ġhaz": 6018,
      "-|Ċ": 6019,
      "Ġoli": 6020,
      "Ġwybor": 6021,
      "DA": 6022,
      "Ã¡": 6023,
      "Ġkobieta": 6024,
      "Ġspotyka": 6025,
      "Ġwszelkich": 6026,
      "ÅĽcija": 6027,
      "Ġbieg": 6028,
      "ĠzmieniÄĩ": 6029,
      "Ġ(...": 6030,
      "ĠAnna": 6031,
      "Ġrejestracji": 6032,
      "ĠAp": 6033,
      "waga": 6034,
      "ceÅĦ": 6035,
      "ĠwiÄĻkszÄħ": 6036,
      "Ġpsychi": 6037,
      "Ġpojedyn": 6038,
      "rowo": 6039,
      "cro": 6040,
      "onych": 6041,
      "rzeÅĽcija": 6042,
      "woju": 6043,
      "Ġdwo": 6044,
      "ÅĽwie": 6045,
      "liny": 6046,
      "Ġnaru": 6047,
      "Ġstaro": 6048,
      "Ġprzesta": 6049,
      "Ġterminu": 6050,
      "ĠwielkoÅĽci": 6051,
      "prost": 6052,
      "Ġsce": 6053,
      "ĠRozpo": 6054,
      "IX": 6055,
      "ĠprowadziÄĩ": 6056,
      "ĠNatomiast": 6057,
      "ĠposiadajÄħ": 6058,
      "Ġzabawy": 6059,
      "ĠwyglÄħd": 6060,
      "KaÅ¼": 6061,
      "ĠWsp": 6062,
      "Ġfunkcjonowania": 6063,
      "ĠSkar": 6064,
      "Ġhipo": 6065,
      "Ġwraca": 6066,
      "ĠmÃ³z": 6067,
      "Ġepi": 6068,
      "Ġwymagania": 6069,
      "Ġczasach": 6070,
      "Ġbram": 6071,
      "rol": 6072,
      "sady": 6073,
      "ĠTer": 6074,
      "Ġnowa": 6075,
      "ĠAdam": 6076,
      "Ġpacjenta": 6077,
      "Ġtechniczne": 6078,
      "Ġpiersi": 6079,
      "ĠprzeglÄħdar": 6080,
      "Ġwspomaga": 6081,
      "Ġstanowisko": 6082,
      "ot": 6083,
      "ĠWoj": 6084,
      "ĠbudynkÃ³w": 6085,
      "OG": 6086,
      "ĠPolskiego": 6087,
      "teru": 6088,
      "Ġinnej": 6089,
      "ĠpojazdÃ³w": 6090,
      "kacja": 6091,
      "ĠdorosÅĤych": 6092,
      "chniÄĻ": 6093,
      "ĠEk": 6094,
      "pek": 6095,
      "super": 6096,
      "Ġwyobra": 6097,
      "styczna": 6098,
      "Ġaspe": 6099,
      "nÃ³": 6100,
      "Ġwalki": 6101,
      "Ġzara": 6102,
      "letnie": 6103,
      "RY": 6104,
      "Ġzadanie": 6105,
      "ĠRegi": 6106,
      "Ġsami": 6107,
      "Ġrzad": 6108,
      "ĠpiÄĻÄĩ": 6109,
      "nok": 6110,
      "robo": 6111,
      "termin": 6112,
      "Ã³sÅĤ": 6113,
      "logu": 6114,
      "Ġrozmia": 6115,
      "--|Ċ": 6116,
      "Ġfaktu": 6117,
      "ĠPOL": 6118,
      "Ġcenie": 6119,
      "ĠÅĽwietnie": 6120,
      "mieÅĦ": 6121,
      "Ġdobrej": 6122,
      "ĠJej": 6123,
      "Ġalterna": 6124,
      "ĠtytuÅĤ": 6125,
      "ĠAng": 6126,
      "ĠbÄĻdÄĻ": 6127,
      "Ġprzetar": 6128,
      "Ġprosto": 6129,
      "ĠrozpoczÄħ": 6130,
      "Ġtwoje": 6131,
      "Ġ[...": 6132,
      "leko": 6133,
      "owaÅĤy": 6134,
      "giel": 6135,
      "Ġrozpoczyna": 6136,
      "Ġwytwarza": 6137,
      "ĠPrzez": 6138,
      "teli": 6139,
      "script": 6140,
      "Ġubieg": 6141,
      "lowych": 6142,
      "dnÄħ": 6143,
      "Ġleczenie": 6144,
      "Ġdokumenty": 6145,
      "czonÄħ": 6146,
      "stawienia": 6147,
      "Ġpewne": 6148,
      "ĠPozosta": 6149,
      "ĠstaÅĤo": 6150,
      "Ġobiektu": 6151,
      "Ġpasa": 6152,
      "Ġograniczenia": 6153,
      "Ġkonserwa": 6154,
      "Ġwynagrodzenia": 6155,
      "cznika": 6156,
      "ĠUniwersytetu": 6157,
      "nowe": 6158,
      "Ġwalu": 6159,
      "dÅĤo": 6160,
      "Ġzanieczy": 6161,
      "Ġlekar": 6162,
      "rok": 6163,
      "Ġodniesie": 6164,
      "ĠKonkur": 6165,
      "krÃ³t": 6166,
      "Ġeste": 6167,
      "ĠwiedzÄħ": 6168,
      "Ġmecz": 6169,
      "Ġzostaje": 6170,
      "niejsza": 6171,
      "ĠZna": 6172,
      "ĠprogramÃ³w": 6173,
      "ĠWyso": 6174,
      "lozo": 6175,
      "nujemy": 6176,
      "owÄĻ": 6177,
      "owuje": 6178,
      "ya": 6179,
      "ÅĽciÃ³ÅĤ": 6180,
      "dzaÄĩ": 6181,
      "Jest": 6182,
      "ĠTran": 6183,
      "ĠJuÅ¼": 6184,
      "ciÅĤa": 6185,
      "ĠwstÄĻp": 6186,
      "Ġeli": 6187,
      "Ġprecy": 6188,
      "Ġtel": 6189,
      "ĠpozwalajÄħ": 6190,
      "Ġfrancu": 6191,
      "ĠrzÄħ": 6192,
      "ĠwypÅĤa": 6193,
      "Ġpozostaje": 6194,
      "ĠTowarzy": 6195,
      "Ġakcesor": 6196,
      "nujÄħ": 6197,
      "nnÄħ": 6198,
      "ĠokreÅĽlone": 6199,
      "WiÄĻcej": 6200,
      "Ãª": 6201,
      "ĠnowÄħ": 6202,
      "Ġdoce": 6203,
      "ÅĤgo": 6204,
      "Ġbibliote": 6205,
      "Ġidzie": 6206,
      "grzy": 6207,
      "ĠmogÅĤy": 6208,
      "steÅĽmy": 6209,
      "Ġbudowa": 6210,
      "MS": 6211,
      "nitar": 6212,
      "chno": 6213,
      "ĠpowoÅĤa": 6214,
      "bach": 6215,
      "Ġbal": 6216,
      "Ñĥ": 6217,
      "up": 6218,
      "Ðº": 6219,
      ".\"": 6220,
      "ĠuÅ¼yciu": 6221,
      "ĠTur": 6222,
      "ĠwydatkÃ³w": 6223,
      "ĠwyÅĽwietla": 6224,
      "Ġzako": 6225,
      "ĠspoÅĤeczne": 6226,
      "ĠtowarÃ³w": 6227,
      "ĠwziÄħÄĩ": 6228,
      "Ġzmy": 6229,
      "ĠTru": 6230,
      "zywania": 6231,
      "Ġdrugim": 6232,
      "Ġlisty": 6233,
      "nkÄĻ": 6234,
      "Ġdziew": 6235,
      "ĠSzkoÅĤy": 6236,
      "ĠuwzglÄĻdnia": 6237,
      "Ġdemo": 6238,
      "Ġdobrym": 6239,
      "ĠudostÄĻpnia": 6240,
      "ĠspÅĤa": 6241,
      "dob": 6242,
      "owiska": 6243,
      "sion": 6244,
      "ĠMuzeum": 6245,
      "szona": 6246,
      "ĠwewnÄħtrz": 6247,
      "end": 6248,
      "ĠjÄĻzyku": 6249,
      "ĠobowiÄħzkÃ³w": 6250,
      "sÅĤucha": 6251,
      "popular": 6252,
      "Ġpotrzebne": 6253,
      "rzony": 6254,
      "Ġskutecznie": 6255,
      "Ġmetod": 6256,
      "Ġzgroma": 6257,
      "ĠPK": 6258,
      "ĠuzupeÅĤ": 6259,
      "dnej": 6260,
      "ĠbÃ³l": 6261,
      "Ġszereg": 6262,
      "Ġrady": 6263,
      "tic": 6264,
      "Ġrosyj": 6265,
      "Ġsmart": 6266,
      "ĠogÃ³lno": 6267,
      "Ġqu": 6268,
      "lka": 6269,
      "ĠNowa": 6270,
      "Ġwywia": 6271,
      "fon": 6272,
      "ĠdoszÅĤo": 6273,
      "Ġniesamowi": 6274,
      "ĠpiÅĤ": 6275,
      "Ġogrze": 6276,
      "czko": 6277,
      "ĠFil": 6278,
      "skÄĻ": 6279,
      "Ġwez": 6280,
      "menda": 6281,
      "Ġwymo": 6282,
      "Lo": 6283,
      "Ġtrybie": 6284,
      "Ġtrwania": 6285,
      "________________": 6286,
      "Ġwydatki": 6287,
      "ture": 6288,
      "Ġkoncent": 6289,
      "ĠtysiÄħ": 6290,
      "CZY": 6291,
      "Ġsposobu": 6292,
      "Ġwodo": 6293,
      "luje": 6294,
      "ĠWz": 6295,
      "Ġchory": 6296,
      "ĠrÃ³wnowa": 6297,
      "Tu": 6298,
      "lum": 6299,
      "Ġbadaw": 6300,
      "ĠFacebo": 6301,
      "ĠWojcie": 6302,
      "ĠÅ»e": 6303,
      "Ġeksploa": 6304,
      "ĠwykonaÄĩ": 6305,
      "Ġtekst": 6306,
      "Ġherba": 6307,
      "ĠBur": 6308,
      "Ġroli": 6309,
      "naliza": 6310,
      "ĠzagroÅ¼enia": 6311,
      "-|----------------": 6312,
      "Kiedy": 6313,
      "dziesiÄħ": 6314,
      "ĠRozwoju": 6315,
      "wacji": 6316,
      "figu": 6317,
      "kola": 6318,
      "ĠKrzysztof": 6319,
      "Ġkwestii": 6320,
      "ĠwÅĤosy": 6321,
      "Ġniebie": 6322,
      "Ġogranicza": 6323,
      "grafia": 6324,
      "usa": 6325,
      "sor": 6326,
      "szem": 6327,
      "iÃ³w": 6328,
      "ĠktÃ³rymi": 6329,
      "Ġwcale": 6330,
      "bki": 6331,
      "ĠkrajÃ³w": 6332,
      "Ġustala": 6333,
      "Ġrozmawia": 6334,
      "Ġspowodowa": 6335,
      "ĠMichaÅĤ": 6336,
      "ĠzdjÄĻcie": 6337,
      "ĠZjedno": 6338,
      "Ġupad": 6339,
      "habili": 6340,
      "Ġstosuje": 6341,
      "kÅĤadni": 6342,
      "cjonar": 6343,
      "ĠokolicznoÅĽci": 6344,
      "logicznej": 6345,
      "Ġcharakterze": 6346,
      "spa": 6347,
      "wraca": 6348,
      "Ġboi": 6349,
      "ctwie": 6350,
      "ĠwyÅ¼ej": 6351,
      "ĠÅĤÃ³Å¼": 6352,
      "niesi": 6353,
      "pospoli": 6354,
      "Ġokolicy": 6355,
      "Pi": 6356,
      "ĠwnÄĻtrza": 6357,
      "Ġnieod": 6358,
      "Ã¼": 6359,
      "ĠwywoÅĤa": 6360,
      "Ġgospodarczej": 6361,
      "IC": 6362,
      "ĠczynnikÃ³w": 6363,
      "ĠSze": 6364,
      "OZ": 6365,
      "ĠdÅĤugoÅĽci": 6366,
      "ĠsiÄĻga": 6367,
      "ĠEdu": 6368,
      "cyjnie": 6369,
      "ĠJaro": 6370,
      "ĠporÃ³wnaniu": 6371,
      "sÅĤem": 6372,
      "Ġkierowa": 6373,
      "ĠwyrÃ³Å¼nia": 6374,
      "Ġstoi": 6375,
      "Ġpry": 6376,
      "Ġodz": 6377,
      "ĠwÅĤasnego": 6378,
      "ĠstaÄĩ": 6379,
      "ale": 6380,
      "dgo": 6381,
      "ĠoprÃ³cz": 6382,
      ".e": 6383,
      "..Ċ": 6384,
      "Ġmagi": 6385,
      "Ġwdro": 6386,
      "Ġujaw": 6387,
      "Ġnocy": 6388,
      "Ġorganizmu": 6389,
      "dzonej": 6390,
      "ĠwpÅĤywu": 6391,
      "Ġpartner": 6392,
      "wni": 6393,
      "Ġcztere": 6394,
      "Ġgrupie": 6395,
      "Ġtelefoni": 6396,
      "Ġpodstawowe": 6397,
      "tional": 6398,
      "Ġsubstancji": 6399,
      "Ġopu": 6400,
      "dry": 6401,
      "ĠzajÄĻ": 6402,
      "ĠUÅ¼ytk": 6403,
      "Ġodpowiednich": 6404,
      "her": 6405,
      "Ġuczniowie": 6406,
      "ĠPoza": 6407,
      "Ġfirmie": 6408,
      "ĠpodwyÅ¼": 6409,
      "Ġnap": 6410,
      "ĠchorÃ³b": 6411,
      "ĠDro": 6412,
      "Ġteo": 6413,
      "Ġpoch": 6414,
      "ĠÅĽwiatÅĤa": 6415,
      "ĠKlu": 6416,
      "ĠuÅĽmie": 6417,
      "Ġwolno": 6418,
      "fry": 6419,
      "Ġwidzenia": 6420,
      "ĠpotÄĻ": 6421,
      "raÅ¼": 6422,
      "ĠObecnie": 6423,
      "ĠTwÃ³j": 6424,
      "emon": 6425,
      "Ġist": 6426,
      "ĠcÃ³r": 6427,
      "ĠwnioskÃ³w": 6428,
      "superscript": 6429,
      "textsuperscript": 6430,
      "Ġks": 6431,
      "Ġkompozy": 6432,
      "tywy": 6433,
      "ĠÅģÃ³": 6434,
      "owcÃ³w": 6435,
      "ĠnastÄĻpuje": 6436,
      "Ġkola": 6437,
      "ĠZespo": 6438,
      "ĠBank": 6439,
      "ĠkiedyÅĽ": 6440,
      "Ġspecyfi": 6441,
      "ĠwnÄĻtrz": 6442,
      "Ġwypoczy": 6443,
      "lonej": 6444,
      "cina": 6445,
      "jskich": 6446,
      "Ġpokar": 6447,
      "Ġnieprze": 6448,
      ".),": 6449,
      "ĠmiesiÄħc": 6450,
      "Ġpromocji": 6451,
      "Ġfilmu": 6452,
      "bami": 6453,
      "Ġoczekiwania": 6454,
      "IAÅģ": 6455,
      "tujemy": 6456,
      "dzili": 6457,
      "Ġspoj": 6458,
      "fu": 6459,
      "UB": 6460,
      "ĠAleksand": 6461,
      "UN": 6462,
      "owskiej": 6463,
      "bienia": 6464,
      "Ġwice": 6465,
      "Ġredu": 6466,
      "OÅļCI": 6467,
      "nder": 6468,
      "ĠZamawiajÄħcego": 6469,
      "Ġreal": 6470,
      "bÃ³r": 6471,
      "ĠdecyzjÄĻ": 6472,
      "ĠsÅĤÃ³w": 6473,
      "SKA": 6474,
      "ĠwraÅ¼enie": 6475,
      "zujÄħc": 6476,
      "Osta": 6477,
      "sch": 6478,
      "Ġwpisu": 6479,
      "Ofer": 6480,
      "nawiru": 6481,
      "lnicy": 6482,
      "Ġefekty": 6483,
      "set": 6484,
      "ina": 6485,
      "Ġyou": 6486,
      "ĠwykoÅĦ": 6487,
      "Cz": 6488,
      "walu": 6489,
      "ĠzewnÄħtrz": 6490,
      "Ġcieszy": 6491,
      "Ġrekru": 6492,
      "Ġrysu": 6493,
      "Ġfunkcje": 6494,
      "nowy": 6495,
      "ĠwodÄħ": 6496,
      "wiu": 6497,
      "taÅĤ": 6498,
      "sel": 6499,
      "dnieniem": 6500,
      "Ã³wki": 6501,
      "Ser": 6502,
      "Ġkredytu": 6503,
      "zywaÄĩ": 6504,
      "ĠpÅĤo": 6505,
      "ĠÅ¼Äħ": 6506,
      "Ġedukacji": 6507,
      "ĠogÅĤoszenia": 6508,
      "osob": 6509,
      "ĠDar": 6510,
      "Ġcon": 6511,
      "Å¼sze": 6512,
      "ĠobowiÄħzek": 6513,
      "regu": 6514,
      "ĠpodmiotÃ³w": 6515,
      "zÄħ": 6516,
      "Ġnazwa": 6517,
      "typ": 6518,
      "Ġnazywa": 6519,
      "ĠmiÄĻÅĽni": 6520,
      "Ġwybu": 6521,
      "Ġwysoko": 6522,
      "ĠzgÅĤasza": 6523,
      "unki": 6524,
      "Ġniezwyk": 6525,
      "ert": 6526,
      "ĠOD": 6527,
      "wicza": 6528,
      "ĠmontaÅ¼": 6529,
      "Ġzastosowania": 6530,
      "Ġare": 6531,
      "Ġwarst": 6532,
      "Ġzmiana": 6533,
      "Ġzba": 6534,
      "kl": 6535,
      "Ġodse": 6536,
      "Ġzapraszamy": 6537,
      "Ġwiru": 6538,
      "ĠosiÄħga": 6539,
      "Lu": 6540,
      "Ġoczyszcza": 6541,
      "Ġzaro": 6542,
      "ĠÅĽpie": 6543,
      "ĠuzaleÅ¼": 6544,
      "Ġbak": 6545,
      "ĠChe": 6546,
      "ĠwolnoÅĽci": 6547,
      "Ġrower": 6548,
      "Ġkrajach": 6549,
      "dowane": 6550,
      "Ġtrening": 6551,
      "ĠOrganiza": 6552,
      "ĠpobliÅ¼u": 6553,
      "Ġniezna": 6554,
      "ĠwrÄĻcz": 6555,
      "Ġprzesu": 6556,
      "Ġprojekty": 6557,
      "Ġweek": 6558,
      "liÅĤ": 6559,
      "ĠTakie": 6560,
      "Ġmarketing": 6561,
      "szoÅĽÄĩ": 6562,
      "Ġero": 6563,
      "sowa": 6564,
      "Ġzabudowy": 6565,
      "ĠfunkcjÄĻ": 6566,
      "Ġpolskie": 6567,
      "ĠTi": 6568,
      "ĠzasiÄĻ": 6569,
      "Ġznaczy": 6570,
      "ĠGre": 6571,
      "Ġharmo": 6572,
      "Dzi": 6573,
      "ĠÅºrÃ³dÅĤa": 6574,
      "siÄĻbior": 6575,
      "Ġprocesie": 6576,
      "sowego": 6577,
      "laminu": 6578,
      "Ġsezonie": 6579,
      "Ġrea": 6580,
      "ĠMon": 6581,
      "wencji": 6582,
      "Ġspecjalne": 6583,
      "Ġskali": 6584,
      "his": 6585,
      "Ġ.Ċ": 6586,
      "Ġinteligen": 6587,
      "ĠdÅĤugie": 6588,
      "ĠimiÄĻ": 6589,
      "ujemy": 6590,
      "ction": 6591,
      "Ġzatwier": 6592,
      "mpy": 6593,
      "ĠÅ¼oÅĤnie": 6594,
      "Ġidealnie": 6595,
      "jak": 6596,
      "ĠurzÄħdzenie": 6597,
      "ĠstÃ³": 6598,
      "ĠSpÃ³ÅĤki": 6599,
      "ĠosobÄĻ": 6600,
      "ĠInternet": 6601,
      "WY": 6602,
      "Ġdystrybu": 6603,
      "waniem": 6604,
      "nieÅĦ": 6605,
      "Ġzmniejsza": 6606,
      "Ġwir": 6607,
      "ĠmÃ³wiÅĤ": 6608,
      "Ġwor": 6609,
      "mnieÄĩ": 6610,
      "dzonego": 6611,
      "Ġmoich": 6612,
      "ĠbudowÄĻ": 6613,
      "mych": 6614,
      "Ġwarsza": 6615,
      "czoraj": 6616,
      "Ġgodzinie": 6617,
      "Ġnume": 6618,
      "ĠZA": 6619,
      "Ġpowietrz": 6620,
      "gnia": 6621,
      "fil": 6622,
      "Ġwykorzystania": 6623,
      "Ġdostawy": 6624,
      "UD": 6625,
      "Ġpojazdu": 6626,
      "Szcze": 6627,
      "przeda": 6628,
      "Ġprawem": 6629,
      "ĠliÅĽcie": 6630,
      "ĠprzyjaciÃ³ÅĤ": 6631,
      "ĠCar": 6632,
      "ĠgÅĤoÅĽ": 6633,
      "Ġzdarzenia": 6634,
      "ĠpoÅĤÄħczenie": 6635,
      "metr": 6636,
      "krea": 6637,
      "Ġrozmowy": 6638,
      "fal": 6639,
      "Ġdrugiego": 6640,
      "ĠbÅĤy": 6641,
      "ĠpodÅĤÄħ": 6642,
      "Ġkasyna": 6643,
      "Ġdziedzinie": 6644,
      "ĠNadz": 6645,
      "So": 6646,
      "ĠKre": 6647,
      "ĠniezaleÅ¼": 6648,
      "ĠKsiÄĻ": 6649,
      "Ġkod": 6650,
      "lowej": 6651,
      "ĠMate": 6652,
      "Ġdokumentacji": 6653,
      "Ġpola": 6654,
      "ĠfirmÄĻ": 6655,
      "ĠsamochÃ³d": 6656,
      "Ġpokona": 6657,
      "Ġszac": 6658,
      "ntom": 6659,
      "Ġjo": 6660,
      "starczy": 6661,
      "niwersa": 6662,
      "Å¼onej": 6663,
      "ĠWam": 6664,
      "ĠcenÄĻ": 6665,
      "ÅĤowi": 6666,
      "ĠÅĽwiadczeÅĦ": 6667,
      "ĠProgram": 6668,
      "Ġpartne": 6669,
      "Ġindywidualnych": 6670,
      "Ġsezon": 6671,
      "jsce": 6672,
      "Gdy": 6673,
      "Ġzachwy": 6674,
      "ktÃ³re": 6675,
      "hen": 6676,
      "ĠPiS": 6677,
      "Ġ...Ċ": 6678,
      "Ġwsi": 6679,
      "ĠliczyÄĩ": 6680,
      "Ġobserwa": 6681,
      "ĠMam": 6682,
      "Ġinstruk": 6683,
      "Ġgodzinach": 6684,
      "Ġfirstname": 6685,
      "Ġzaw": 6686,
      "dzaj": 6687,
      "Ġminera": 6688,
      "Ġgimna": 6689,
      "czach": 6690,
      "Ġnagrody": 6691,
      "Ġkultur": 6692,
      "ĠVe": 6693,
      "ĠMary": 6694,
      "Ġdrewna": 6695,
      "ĠPZ": 6696,
      "inte": 6697,
      "Ġzaledwie": 6698,
      "ĠwodÄĻ": 6699,
      "czanie": 6700,
      "ĠbyÅĤoby": 6701,
      "ĠdÅĤo": 6702,
      "Ġniespo": 6703,
      "ĠpostÄĻpowaniu": 6704,
      "Ġgroma": 6705,
      "Ġkomfort": 6706,
      "ĠrozwiÄħ": 6707,
      "Ġlimi": 6708,
      "dor": 6709,
      "Ġhistoria": 6710,
      "Ġopcji": 6711,
      "ĠSZ": 6712,
      "stek": 6713,
      "ĠWspÃ³ÅĤ": 6714,
      "ĠBÃ³g": 6715,
      "Ġdyplo": 6716,
      "pto": 6717,
      "dziaÅĤek": 6718,
      "ĠPoznaÅĦ": 6719,
      "ĠrÄĻce": 6720,
      "Ġpublikacji": 6721,
      "Ġsur": 6722,
      "ĠÅĤatwiej": 6723,
      "ĠĠĠĠĠĠĠĠĠĠĠĠĠĠĠĠĠĠĠĠĠĠĠĠĠĠĠĠĠĠĠĠĠĠĠĠĠ": 6724,
      "ĠbiaÅĤ": 6725,
      "Ġzmianie": 6726,
      "int": 6727,
      "lizm": 6728,
      "zumienia": 6729,
      "lenda": 6730,
      "mara": 6731,
      "ĠSej": 6732,
      "ĠwyjaÅĽnia": 6733,
      "Ġostatnim": 6734,
      "kowanych": 6735,
      "Kolej": 6736,
      "ĠpoznaÄĩ": 6737,
      "Ġprogramie": 6738,
      "ĠSprawdÅº": 6739,
      "shi": 6740,
      "ĠProjekt": 6741,
      "Ġzajmu": 6742,
      "Ġcertyfika": 6743,
      "Ġmiast": 6744,
      "Ġniewie": 6745,
      "Ġaler": 6746,
      "Ġkot": 6747,
      "|------------": 6748,
      "CT": 6749,
      "ÅĤowe": 6750,
      "ĠpomoÅ¼e": 6751,
      "woje": 6752,
      "tacje": 6753,
      "ĠtrudnoÅĽci": 6754,
      "Cho": 6755,
      "Ġsio": 6756,
      "stwem": 6757,
      "UL": 6758,
      "Ġprzeja": 6759,
      "brzy": 6760,
      "ine": 6761,
      "ĠJakie": 6762,
      "miu": 6763,
      "ĠEwa": 6764,
      "Ġsukie": 6765,
      "Ġhor": 6766,
      "piÄĻk": 6767,
      "Ġprzygotowanie": 6768,
      "Ġinformuje": 6769,
      "Ġdodaje": 6770,
      "Ġalkoholu": 6771,
      "Ġpoby": 6772,
      "ĠWielko": 6773,
      "Pe": 6774,
      "ĠJako": 6775,
      "gres": 6776,
      "ĠKur": 6777,
      "ĠchÅĤop": 6778,
      "CIE": 6779,
      "Ġstart": 6780,
      "ĠsÅĤod": 6781,
      "cko": 6782,
      "IK": 6783,
      "].": 6784,
      "Ġmieszkanie": 6785,
      "ĠodrÄĻb": 6786,
      "Ġwzmoc": 6787,
      "Ġkupu": 6788,
      "Ġmoja": 6789,
      "ĠmiesiÄħce": 6790,
      "ĠwÅĤaÅĽciwie": 6791,
      "czasem": 6792,
      "minie": 6793,
      "Ġnawil": 6794,
      "Ġutw": 6795,
      "ĠFunduszu": 6796,
      "ÅĽciem": 6797,
      "ĠporzÄħdku": 6798,
      "ĠokrÄĻ": 6799,
      "Ġleczni": 6800,
      "ĠspotkaÅĦ": 6801,
      "ĠProgramu": 6802,
      "ĠskÅĤadania": 6803,
      "Ġportalu": 6804,
      "Podczas": 6805,
      "Ġwykry": 6806,
      "myka": 6807,
      "Ġinteres": 6808,
      "dziela": 6809,
      "Ġelementem": 6810,
      "rzyja": 6811,
      "ĠBÄĻdzie": 6812,
      "ĠprzedÅĤu": 6813,
      "dziaÅĤÃ³w": 6814,
      "Ġewiden": 6815,
      "hu": 6816,
      "brze": 6817,
      "ĠÅĽlub": 6818,
      "ĠstudentÃ³w": 6819,
      "ĠTwojego": 6820,
      "Ġmomentu": 6821,
      "Ġwoje": 6822,
      "Ġarchite": 6823,
      "ĠzgodÄĻ": 6824,
      "Ġmaszyn": 6825,
      "ling": 6826,
      "Ġprzeprowadza": 6827,
      "cek": 6828,
      "Ġzastanawia": 6829,
      "Ġform": 6830,
      "zon": 6831,
      "Ġzyska": 6832,
      "Ġwersja": 6833,
      "Ġkonstrukcji": 6834,
      "Ġrat": 6835,
      "Ġnaro": 6836,
      "Ġzamawia": 6837,
      "Ġzlo": 6838,
      "ĠTry": 6839,
      "dowi": 6840,
      "ĠÅģuka": 6841,
      "ĠEuropejskiego": 6842,
      "ĠniezaleÅ¼nie": 6843,
      "Ġokie": 6844,
      "Ġczterech": 6845,
      "ĠPaÅĦstw": 6846,
      "Ġmacie": 6847,
      "Ġmojego": 6848,
      "racja": 6849,
      "Ġimprezy": 6850,
      "ĠFinans": 6851,
      "stycznym": 6852,
      "ance": 6853,
      "niÃ³sÅĤ": 6854,
      "Ġet": 6855,
      "Ġpowiatu": 6856,
      "dujÄħ": 6857,
      "cjo": 6858,
      "ĠpoÅĤÄħczenia": 6859,
      "ĠROD": 6860,
      "ĠciaÅĤo": 6861,
      "Ġpisze": 6862,
      "Ġmuzyki": 6863,
      "ĠprzygotowaÄĩ": 6864,
      "Ġseksual": 6865,
      "TE": 6866,
      "Ġuprze": 6867,
      "ĠwysyÅĤa": 6868,
      "czak": 6869,
      "Ġsprawach": 6870,
      "Å¼ÄĻ": 6871,
      "ĠtoÅ¼sa": 6872,
      "ĠwÄĻd": 6873,
      "Ġmetal": 6874,
      "Ġpodsu": 6875,
      "ĠlekÃ³w": 6876,
      "Ġscena": 6877,
      "Se": 6878,
      "teriaÅĤ": 6879,
      "zwo": 6880,
      "sponden": 6881,
      "Ġwierzy": 6882,
      "ĠtrÃ³j": 6883,
      "ĠKodek": 6884,
      "Ġdanym": 6885,
      "ĠchrzeÅĽcija": 6886,
      "ĠWedÅĤug": 6887,
      "Ġprag": 6888,
      "ĠMinistra": 6889,
      "Ġustalenia": 6890,
      "char": 6891,
      "Ġteor": 6892,
      "Ġzatrudnienia": 6893,
      "szczeniu": 6894,
      "ĠTre": 6895,
      "towanych": 6896,
      "ĠodpowiedÅº": 6897,
      "Ġwro": 6898,
      "ĠMaria": 6899,
      "wiam": 6900,
      "obo": 6901,
      "CJI": 6902,
      "Ġpierwo": 6903,
      "ĠÅĽrodowisko": 6904,
      "ĠkaÅ¼dÄħ": 6905,
      "ĠgÄĻ": 6906,
      "ĠDlaczego": 6907,
      "ĠkrÄħ": 6908,
      "zjÄħ": 6909,
      "Ġniniejszej": 6910,
      "IL": 6911,
      "ĠOdpowie": 6912,
      "Ġniedaw": 6913,
      "Ġrodzin": 6914,
      "Ġbiu": 6915,
      "stal": 6916,
      "ĠPC": 6917,
      "RS": 6918,
      "skry": 6919,
      "lti": 6920,
      "ĠzakoÅĦczeniu": 6921,
      "oryte": 6922,
      "kowana": 6923,
      "Ġbrzu": 6924,
      "WO": 6925,
      "Ġduch": 6926,
      "Ġwzmacnia": 6927,
      "Ġkolorze": 6928,
      "dal": 6929,
      "Ġow": 6930,
      "czÄħc": 6931,
      "Ġorganizacja": 6932,
      "ĠSport": 6933,
      "Ġmart": 6934,
      "ĠPrac": 6935,
      "woka": 6936,
      "ĠCena": 6937,
      "tywne": 6938,
      "Ġuka": 6939,
      "owanÄħ": 6940,
      "ĠdobrÄħ": 6941,
      "ĠOP": 6942,
      "ÄĻdzi": 6943,
      "DziÄĻki": 6944,
      "ĠTylko": 6945,
      "ĠPoznaniu": 6946,
      "ĠpiÄħtek": 6947,
      "Ġdziw": 6948,
      "lwen": 6949,
      "ĠpowiÄĻk": 6950,
      "lacje": 6951,
      "Ġsposoby": 6952,
      "soli": 6953,
      "iÄĻkujÄĻ": 6954,
      "Ġnaturalne": 6955,
      "Ġskonta": 6956,
      "ĠsposobÃ³w": 6957,
      "rzeniem": 6958,
      "WE": 6959,
      "ĠPowie": 6960,
      "Ġpracownicy": 6961,
      "Ġforum": 6962,
      "ĠudziaÅĤem": 6963,
      "Ġpunkty": 6964,
      "sÅĤÃ³w": 6965,
      "ĠCzer": 6966,
      "...ĊĊ": 6967,
      "waÅĤo": 6968,
      "ĠskÅĤadniki": 6969,
      "Ġniech": 6970,
      "Â®": 6971,
      "ill": 6972,
      "ĠMan": 6973,
      "Ġochronie": 6974,
      "Ġzamierza": 6975,
      "Ġparking": 6976,
      "Ġsamodzielnie": 6977,
      "dows": 6978,
      "zesa": 6979,
      "ĠMimo": 6980,
      "rka": 6981,
      "Ġkondy": 6982,
      "ĠTwoich": 6983,
      "ĠNazwa": 6984,
      "Ġape": 6985,
      "RZE": 6986,
      "Ġlepsze": 6987,
      "ĠÅģodzi": 6988,
      "Ġodniesieniu": 6989,
      "ĠszansÄĻ": 6990,
      "Äĩmi": 6991,
      "Ġpodstawy": 6992,
      "ĠstworzyÄĩ": 6993,
      "ĠuzupeÅĤnia": 6994,
      "ownictwa": 6995,
      "Ġzai": 6996,
      "boga": 6997,
      "Ġsaty": 6998,
      "cona": 6999,
      "ĠÄĩwiczenia": 7000,
      "ĠdÅĤuÅ¼ej": 7001,
      "Ġopiera": 7002,
      "lono": 7003,
      "ĠWydaw": 7004,
      "ĠRi": 7005,
      "Ġawar": 7006,
      "ÅĤad": 7007,
      "ĠPara": 7008,
      "ĠwÅĤasnym": 7009,
      "ĠmusiaÅĤ": 7010,
      "_{": 7011,
      "ÅĤopo": 7012,
      "zach": 7013,
      "ĠwchodzÄħ": 7014,
      "Ġnajpierw": 7015,
      "ĠwyjÄħtkowo": 7016,
      "ĠproszÄĻ": 7017,
      "ĠduÅ¼a": 7018,
      "ÅĤugo": 7019,
      "korzyst": 7020,
      "ang": 7021,
      "ĠspÃ³": 7022,
      "Ġtekstu": 7023,
      "Ġilu": 7024,
      "Ġprosta": 7025,
      "Ġautomaty": 7026,
      "Ġlekko": 7027,
      "Ġustaw": 7028,
      "---ĊĊ": 7029,
      "ĠrÄħ": 7030,
      "Ġpomia": 7031,
      "ĠczÄĻÅĽciÄħ": 7032,
      "Dy": 7033,
      "Ġkuchen": 7034,
      "Ġzwal": 7035,
      "Ġbezrobo": 7036,
      "Ġdam": 7037,
      "bla": 7038,
      "dzieli": 7039,
      "Ġwizer": 7040,
      "Ġkonferencji": 7041,
      "ĠsobotÄĻ": 7042,
      "ĠKor": 7043,
      "chody": 7044,
      "Ġlist": 7045,
      "Ġwysokie": 7046,
      "ĠwspÃ³lno": 7047,
      "blo": 7048,
      "ĠmnÃ³": 7049,
      "ĠpiÅĤka": 7050,
      "ĠkoÅĦczy": 7051,
      "szeni": 7052,
      "ĠnarzÄĻdzie": 7053,
      "ĠWykonawcy": 7054,
      "ĠzdolnoÅĽci": 7055,
      "ĠsamorzÄħd": 7056,
      "ĠPrezyden": 7057,
      "ĠÅĤÄħcznie": 7058,
      "tent": 7059,
      "Ġstary": 7060,
      "Ġpochodzi": 7061,
      "ĠSam": 7062,
      "wiaÄĩ": 7063,
      "ĠsÄħd": 7064,
      "Ġlokalnych": 7065,
      "ĠMak": 7066,
      "ĠrÃ³wnie": 7067,
      "Ġwoda": 7068,
      "ĠmyÅĽlÄħ": 7069,
      "Ġkupi": 7070,
      "Ġsesji": 7071,
      "ĠwydarzeÅĦ": 7072,
      "Ġtransakcji": 7073,
      "ĠrÃ³Å¼ni": 7074,
      "ĠniedzielÄĻ": 7075,
      "Ġstosowanie": 7076,
      "Ġobjawy": 7077,
      "Ġpraktycznie": 7078,
      "ĠrosnÄħ": 7079,
      "Ġkorzyst": 7080,
      "krÃ³tce": 7081,
      "Ġliczne": 7082,
      "Ġrezy": 7083,
      "ĠWÄĻ": 7084,
      "lop": 7085,
      "otel": 7086,
      "ĠOchrony": 7087,
      "Ġfry": 7088,
      "car": 7089,
      "ĠMamy": 7090,
      "ht": 7091,
      "Ġrywali": 7092,
      "sing": 7093,
      "Ġodpowiedniego": 7094,
      "Ġznie": 7095,
      "ĠUbezpie": 7096,
      "Ñĸ": 7097,
      "Ġ\\(": 7098,
      "tre": 7099,
      "Ġodpowiedniej": 7100,
      "Ġprzyby": 7101,
      "dziÄĻ": 7102,
      "Ġprzeno": 7103,
      "Ġsamych": 7104,
      "tÅĤu": 7105,
      "orty": 7106,
      "Ġobiek": 7107,
      "torek": 7108,
      "ĠStar": 7109,
      "stre": 7110,
      "Ġzakupy": 7111,
      "cieka": 7112,
      "niewaÅ¼": 7113,
      "kowie": 7114,
      "Ġzarzu": 7115,
      "Ġdojrza": 7116,
      "Ġwydania": 7117,
      "ĠzamÃ³wienie": 7118,
      "ĠIS": 7119,
      "ĠdzieciÄĻ": 7120,
      "Ġaktor": 7121,
      "ĠÅĽla": 7122,
      "ÅĤgorza": 7123,
      "Ġkasyno": 7124,
      "Ġznakomi": 7125,
      "Ġczyte": 7126,
      "bka": 7127,
      "Ġcechy": 7128,
      "jny": 7129,
      "Ġkoronawiru": 7130,
      "logicznego": 7131,
      "Ġgr": 7132,
      "Ġsposobem": 7133,
      "cial": 7134,
      "ach": 7135,
      ");": 7136,
      "Ġseku": 7137,
      "ĠpeÅĤne": 7138,
      "Ã³rek": 7139,
      "ĠwyksztaÅĤ": 7140,
      "ĠIP": 7141,
      "ĠwÅĤasnÄħ": 7142,
      "ĠdostÄĻpna": 7143,
      "Ġutru": 7144,
      "ĠskrÃ³": 7145,
      "ĠRÃ³w": 7146,
      "ĠusÅĤy": 7147,
      "ĠhistoriÄĻ": 7148,
      "Ġstacjonar": 7149,
      "ĠÅ¼ywnoÅĽci": 7150,
      "Ġdniem": 7151,
      "sport": 7152,
      "gÅĤoÅĽÄĩ": 7153,
      "ĠrÃ³Å¼nego": 7154,
      "Ġodpo": 7155,
      "ĠwiÄĻkszej": 7156,
      "Ġwenty": 7157,
      "-la": 7158,
      "tnia": 7159,
      "Ġstacji": 7160,
      "iar": 7161,
      "ĠchÄĻtnie": 7162,
      "loÅĽÄĩ": 7163,
      "ĠwskazÃ³w": 7164,
      "dnik": 7165,
      "Ġpewnie": 7166,
      "Ġzasadzie": 7167,
      "Ġpt": 7168,
      "Ġzasko": 7169,
      "mem": 7170,
      "Ġfanta": 7171,
      "kreÅĽ": 7172,
      "niejszym": 7173,
      "Ġdziennie": 7174,
      "Ġudo": 7175,
      "lski": 7176,
      "ĠIns": 7177,
      "Ġzga": 7178,
      "Ġgloba": 7179,
      "Ġjaj": 7180,
      "Ġodczy": 7181,
      "bina": 7182,
      "ĠPosiada": 7183,
      "ĠOpera": 7184,
      "Ġobsz": 7185,
      "Ġbank": 7186,
      "ĠrozporzÄħdzenia": 7187,
      "Ġprawdopodobnie": 7188,
      "ĠosiÄħgniÄĻcia": 7189,
      "ĠmontaÅ¼u": 7190,
      "ĠsÅĤuÅ¼by": 7191,
      "Ġswego": 7192,
      "Ġnazwisko": 7193,
      "Ġformu": 7194,
      "ÅĤymi": 7195,
      "ĠspoÅĤeczeÅĦstwa": 7196,
      "Ġrozry": 7197,
      "ĠPracy": 7198,
      "Ġwymiany": 7199,
      "Ġskomp": 7200,
      "tyk": 7201,
      "lizacja": 7202,
      "ssa": 7203,
      "ĠZnaj": 7204,
      "|--------------------------------": 7205,
      "ĠsÅĤuÅ¼y": 7206,
      "Ġkomisji": 7207,
      "Ġkwota": 7208,
      "Ġfabry": 7209,
      "ANE": 7210,
      "Ġprzyczyny": 7211,
      "ĠbÃ³": 7212,
      "Ġoperacji": 7213,
      "wit": 7214,
      "ĠĠĠĠĠĠĠĠĠĠĠĠĠĠĠĠĠĠĠĠĠĠĠĠĠĠĠ": 7215,
      "ms": 7216,
      "twar": 7217,
      "lena": 7218,
      "Ġzagospodarowania": 7219,
      "mistrz": 7220,
      "ĠWor": 7221,
      "Ġtygodnia": 7222,
      "Ġbur": 7223,
      "Ġinfrastruktury": 7224,
      "ĠnajwaÅ¼niejszych": 7225,
      "tacza": 7226,
      "ĠgÅĤosÃ³w": 7227,
      "Ġsumie": 7228,
      "ĠkontekÅĽcie": 7229,
      "czniki": 7230,
      "owne": 7231,
      "KU": 7232,
      "tkach": 7233,
      "Ġfilozo": 7234,
      "Ġmalu": 7235,
      "Ġdokumentu": 7236,
      "MoÅ¼e": 7237,
      "ĠNawet": 7238,
      "ÅĦcÃ³w": 7239,
      "Ġtymi": 7240,
      "%,": 7241,
      "Ġucznia": 7242,
      "nkowe": 7243,
      "Ġkonsulta": 7244,
      "Ġprowadzone": 7245,
      "ĠkrÃ³tko": 7246,
      "mierz": 7247,
      "gene": 7248,
      "conych": 7249,
      "Ku": 7250,
      "Ġwczes": 7251,
      "Ġaro": 7252,
      "Fa": 7253,
      "ĠmiesiÄħca": 7254,
      "lans": 7255,
      "Ġnieprzy": 7256,
      "ĠmetrÃ³w": 7257,
      "ĠNiemie": 7258,
      "ĠcaÅĤkiem": 7259,
      "ĠogÃ³ÅĤ": 7260,
      "Ġpodobne": 7261,
      "ĠstaÅĤ": 7262,
      ");Ċ": 7263,
      "''": 7264,
      "ÅĽwiadczenie": 7265,
      "ruje": 7266,
      "Ġtabe": 7267,
      "Ġbudowlanych": 7268,
      "Ġadministracji": 7269,
      "ĠdowÃ³d": 7270,
      "dzieÅ¼y": 7271,
      "Ġwspomina": 7272,
      "Ġdesi": 7273,
      "RZ": 7274,
      "Ġmasy": 7275,
      "ĠmiÅĤoÅĽÄĩ": 7276,
      "media": 7277,
      "wan": 7278,
      "dego": 7279,
      "ĠsÅĤuÅ¼b": 7280,
      "ĠWnio": 7281,
      "Ġpierwsza": 7282,
      "die": 7283,
      "ĠnajwiÄĻkszych": 7284,
      "Ġrodzaje": 7285,
      "ĠpoÅĤowie": 7286,
      "ĠpoczÄħtek": 7287,
      "Ġpozyska": 7288,
      "szÅĤa": 7289,
      "Ġstali": 7290,
      "ĠJaku": 7291,
      "ĠwÅĤasny": 7292,
      "ĠLon": 7293,
      "Ġpolu": 7294,
      "Ġstosowane": 7295,
      "ĠoÅĽwia": 7296,
      "Ġder": 7297,
      "Ġwzor": 7298,
      "For": 7299,
      "ĠNowo": 7300,
      "Ġwscho": 7301,
      "ĠjÄĻzyk": 7302,
      "ĠczegoÅĽ": 7303,
      "naÅĽcie": 7304,
      "ĠmaÅĤÅ¼e": 7305,
      "Ġdaty": 7306,
      "Ġ:)Ċ": 7307,
      "ĠÅ¼adnego": 7308,
      "Ġinni": 7309,
      "ĠPawÅĤa": 7310,
      "ĠksiÄħÅ¼ek": 7311,
      "Ġkara": 7312,
      "ruk": 7313,
      "zujemy": 7314,
      "Ġpodoba": 7315,
      "ĠartykuÅĤ": 7316,
      "ĠgrÄĻ": 7317,
      "oku": 7318,
      "Ġnajlepszy": 7319,
      "Ġubra": 7320,
      "Ġhigie": 7321,
      "Ġzmu": 7322,
      "ĠokazjÄĻ": 7323,
      "stycznÄħ": 7324,
      "ponowa": 7325,
      "Ġcyklu": 7326,
      "ĠÅĽcieÅ¼": 7327,
      "ĠGrzego": 7328,
      "stnieje": 7329,
      "Ġprezes": 7330,
      "powszech": 7331,
      "Ġszef": 7332,
      "Ġbrze": 7333,
      "ĠsytuacjÄĻ": 7334,
      "ĠBla": 7335,
      "bienie": 7336,
      "Ġsprawa": 7337,
      "Ġzanim": 7338,
      "ĠKobie": 7339,
      "Ġprzyczyn": 7340,
      "ÅĤÄħcznik": 7341,
      "ĠwyraÅºnie": 7342,
      "Ġprzyspie": 7343,
      "Ġprzygotowy": 7344,
      "Ġobszaru": 7345,
      "Ġrozstrzy": 7346,
      "ĠRosji": 7347,
      "niowej": 7348,
      "ĠSÄħd": 7349,
      "und": 7350,
      "Ġurodzi": 7351,
      "rent": 7352,
      "Ġhipote": 7353,
      "Ġkluczowe": 7354,
      "rÃ³Å¼nic": 7355,
      "szyb": 7356,
      "pry": 7357,
      "wione": 7358,
      "ĠpytaÅĦ": 7359,
      "Ġwybranych": 7360,
      "Ġpapier": 7361,
      "ting": 7362,
      "ĠnajwyÅ¼szej": 7363,
      "Ġzbro": 7364,
      "Ġprzewidzia": 7365,
      "Ġdyscypli": 7366,
      "ĠznÃ³w": 7367,
      "zuka": 7368,
      "dap": 7369,
      "ĠMA": 7370,
      "decy": 7371,
      "Ġznaczenia": 7372,
      "ĠosiÄħgnÄħÄĩ": 7373,
      "logie": 7374,
      "biu": 7375,
      "Ġotrzymuje": 7376,
      "ĠpeÅĤnÄħ": 7377,
      "sfak": 7378,
      "-P": 7379,
      "Ġranki": 7380,
      "rium": 7381,
      "Ġedycji": 7382,
      "jciec": 7383,
      "ĠPamiÄĻtaj": 7384,
      "ĠZÅĤo": 7385,
      "ÅĽrodek": 7386,
      "Ġelektronicznej": 7387,
      "ĠprocesÃ³w": 7388,
      "Ġpiosen": 7389,
      "ĠdÄħ": 7390,
      "Ġremont": 7391,
      "ĠdokonaÄĩ": 7392,
      "ĠwypeÅĤnia": 7393,
      "ĠwystÄħpienia": 7394,
      "Ġniniejszego": 7395,
      "Ġth": 7396,
      "Ġwzajem": 7397,
      "ĠKatarzy": 7398,
      "ĠNowy": 7399,
      "ĠWÅĽrÃ³d": 7400,
      "dliwoÅĽci": 7401,
      "Ġkrok": 7402,
      "ĠZobacz": 7403,
      "Ġodwiedza": 7404,
      "leb": 7405,
      "ĠDzieci": 7406,
      "Ġgor": 7407,
      "pl": 7408,
      "Ġuszkodzenia": 7409,
      "Ġhazard": 7410,
      "ĠpÃ³ÅĤnoc": 7411,
      "mb": 7412,
      "ĠprÄĻdkoÅĽci": 7413,
      "kowska": 7414,
      "Ġzachowanie": 7415,
      "Ġreligi": 7416,
      "kujemy": 7417,
      "ĠgraÄĩ": 7418,
      "Ġklas": 7419,
      "ĠKoÅĽcioÅĤa": 7420,
      "Ġsre": 7421,
      "Ġprzeznaczone": 7422,
      "Ġsan": 7423,
      "Ġ<": 7424,
      "szonych": 7425,
      "Ġturniej": 7426,
      "kan": 7427,
      "Ġmoderni": 7428,
      "rowane": 7429,
      "ĠBogu": 7430,
      "nor": 7431,
      "Ġzabezpieczenia": 7432,
      "Ġdobrego": 7433,
      "ĠÅĽlu": 7434,
      "wamy": 7435,
      "kmach": 7436,
      "Ġsprzyja": 7437,
      "ÅĦstwu": 7438,
      "Wszystkie": 7439,
      "czyÅĤy": 7440,
      "Ġnawie": 7441,
      "Ġspecjalnie": 7442,
      "czami": 7443,
      "rÃ³wnowa": 7444,
      "nina": 7445,
      "ĠmÅĤodzieÅ¼": 7446,
      "Ġdrzew": 7447,
      "tale": 7448,
      "wanej": 7449,
      "Ġ:)": 7450,
      "wien": 7451,
      "ĠAkademi": 7452,
      "Å¼liwoÅĽÄĩ": 7453,
      "Ġthat": 7454,
      "landii": 7455,
      "Zapraszamy": 7456,
      "nkami": 7457,
      "Ġhab": 7458,
      "pospolitej": 7459,
      "\\textsuperscript": 7460,
      "ĠWiÄĻcej": 7461,
      "des": 7462,
      "chan": 7463,
      "Ġpracuje": 7464,
      "ĠwysokÄħ": 7465,
      "Ġmate": 7466,
      "ĠrÄĻka": 7467,
      "Ġ)": 7468,
      "Ġoprogramowania": 7469,
      "ĠSA": 7470,
      "ĠRada": 7471,
      "Ġprosimy": 7472,
      "Ġreklama": 7473,
      "Ġsali": 7474,
      "ĠZdrowia": 7475,
      "Ġnadaje": 7476,
      "spoda": 7477,
      "ĠTrzeba": 7478,
      "Ġwykorzystanie": 7479,
      "ĠPoÅ¼y": 7480,
      "ĠdomÃ³w": 7481,
      "owca": 7482,
      "ĠumowÄĻ": 7483,
      "Ġkory": 7484,
      "Ġkoszy": 7485,
      "ĠrozwiÄħzaniem": 7486,
      "ĠprzestrzeÅĦ": 7487,
      "mÅĤod": 7488,
      "Gra": 7489,
      "niny": 7490,
      "nnoÅĽci": 7491,
      "lwe": 7492,
      "Ġrodzice": 7493,
      "trzeÄĩ": 7494,
      "Ġwese": 7495,
      "Ġetap": 7496,
      "nowaÄĩ": 7497,
      "Ġdobro": 7498,
      "Ġwiemy": 7499,
      "Ġabsolu": 7500,
      "Ġmotyw": 7501,
      "prawidÅĤ": 7502,
      "Ġzwyczaj": 7503,
      "ĠtydzieÅĦ": 7504,
      "ĠKami": 7505,
      "Ġrandki": 7506,
      "Ġodde": 7507,
      "ĠsiedzibÄħ": 7508,
      "Ġpokazuje": 7509,
      "Ġposze": 7510,
      "ciÄħgniÄĻ": 7511,
      "niak": 7512,
      "ĠtÅĤuszcz": 7513,
      "ĠuÅĤatwia": 7514,
      "Ġkoszu": 7515,
      "ĠPS": 7516,
      "ĠdzieÄĩmi": 7517,
      "Ten": 7518,
      "ĠPart": 7519,
      "gli": 7520,
      "Ġmoment": 7521,
      "ĠEko": 7522,
      "Ġdydak": 7523,
      "Ġtrudne": 7524,
      "EO": 7525,
      "ĠDzieÅĦ": 7526,
      "ĠcieszyÄĩ": 7527,
      "Ġbazy": 7528,
      "dzki": 7529,
      "ĠBydgo": 7530,
      "Ġdyspozycji": 7531,
      "ĠmiarÄĻ": 7532,
      "ĠQu": 7533,
      "ranÅ¼a": 7534,
      "ĠzÅĤoÅ¼enia": 7535,
      "Ale": 7536,
      "Ġcodziennie": 7537,
      "cle": 7538,
      "Ġzawarte": 7539,
      "bine": 7540,
      "zumia": 7541,
      "Ġterytoria": 7542,
      "ĠzmianÄĻ": 7543,
      "ĠKto": 7544,
      "Ġulega": 7545,
      "Ġbiznes": 7546,
      "Ġminister": 7547,
      "Ġuniwersa": 7548,
      "ĠZarzÄħd": 7549,
      "Ġkorzystanie": 7550,
      "Ġprogno": 7551,
      "nemu": 7552,
      "Ġkomputera": 7553,
      "nowu": 7554,
      "Ġmodele": 7555,
      "Ġwoli": 7556,
      "ĠstÄĻ": 7557,
      "rur": 7558,
      "Ġmiejscem": 7559,
      "Ġroze": 7560,
      "Ġkru": 7561,
      "ĠtreÅĽÄĩ": 7562,
      "ĠfilmÃ³w": 7563,
      "Å¼nych": 7564,
      "lont": 7565,
      "Ġlega": 7566,
      "Ġdata": 7567,
      "jki": 7568,
      "ĠMiejskiej": 7569,
      "Ġczasami": 7570,
      "Â°C": 7571,
      "ĠÅĤÄħczy": 7572,
      "Ġtrenin": 7573,
      "cuje": 7574,
      "Ġpraktyce": 7575,
      "Ġdopu": 7576,
      "ĠKsiÄħ": 7577,
      "Ġbadanie": 7578,
      "ĠMikoÅĤa": 7579,
      "kiety": 7580,
      "ordyna": 7581,
      "Ġakademi": 7582,
      "Ġstrategii": 7583,
      "ĠPOD": 7584,
      "Ġdekora": 7585,
      "Ġgwarancji": 7586,
      "ĠgÅĤÃ³wnych": 7587,
      "Ġplus": 7588,
      "ĠzwiÄĻkszenie": 7589,
      "ĠOto": 7590,
      "ĠdziesiÄĻ": 7591,
      "ĠprÃ³bu": 7592,
      "ĠMedy": 7593,
      "ĠwÅĤadzy": 7594,
      "ĠMarek": 7595,
      "dniu": 7596,
      "Ġcech": 7597,
      "Ġprzycisk": 7598,
      "Ġbrakuje": 7599,
      "cyjno": 7600,
      "Pierw": 7601,
      "iera": 7602,
      "ĠartykuÅĤu": 7603,
      "ĠdrogÄĻ": 7604,
      "Ġlikwi": 7605,
      "ĠWystarczy": 7606,
      "ĠproducentÃ³w": 7607,
      "ĠbezpoÅĽre": 7608,
      "Ġmld": 7609,
      "ĠpojawiajÄħ": 7610,
      "twy": 7611,
      "ĠOj": 7612,
      "ĠArchi": 7613,
      "Ġwaria": 7614,
      "ĠMiÄĻdzynarod": 7615,
      "zmie": 7616,
      "ĠprzedsiÄĻbiorstw": 7617,
      "ĠczasÃ³w": 7618,
      "ĠpodejÅĽcie": 7619,
      "tyj": 7620,
      "ĠÅ¼yci": 7621,
      "PO": 7622,
      "ĠZacho": 7623,
      "Ġimieniu": 7624,
      "Ġnadmier": 7625,
      "ĠciÄħgle": 7626,
      "ĠszczÄĻÅĽli": 7627,
      "Ġwiesz": 7628,
      "ĠgÅĤÃ³wnym": 7629,
      "iÄĻkszoÅĽÄĩ": 7630,
      "ĠRegiona": 7631,
      "Ġzapach": 7632,
      "Bardzo": 7633,
      "Ġumiesz": 7634,
      "dawcÃ³w": 7635,
      "Ġlekarz": 7636,
      "ĠzamÃ³wieÅĦ": 7637,
      "iÄĻkujemy": 7638,
      "DU": 7639,
      "ĠwymagajÄħ": 7640,
      "ĠmnÃ³stwo": 7641,
      "Ġzysku": 7642,
      "bez": 7643,
      "ÅģA": 7644,
      "Ġhotelu": 7645,
      "Ġodbioru": 7646,
      "Ġszybkie": 7647,
      "Ġtechnik": 7648,
      "ÄĻzy": 7649,
      "ĠpiÄĻkne": 7650,
      "ĠOprÃ³cz": 7651,
      "Ġminimum": 7652,
      "towana": 7653,
      "ĠzaczÄħÄĩ": 7654,
      "Ġczytel": 7655,
      "ĠinformacjÄĻ": 7656,
      "zju": 7657,
      "Ġzaburzenia": 7658,
      "ther": 7659,
      "Ġznane": 7660,
      "ĠPN": 7661,
      "ĠWiele": 7662,
      "ĠBrak": 7663,
      "owskich": 7664,
      "Ġklik": 7665,
      "ĠpÅĤ": 7666,
      "ĠÅĽwiÄħte": 7667,
      "ĠuniknÄħÄĩ": 7668,
      "niÅ¼ej": 7669,
      "Ġobejmu": 7670,
      "ciera": 7671,
      "wiado": 7672,
      "ÅĤuje": 7673,
      "spery": 7674,
      "ÅĦstwem": 7675,
      "---|----------------": 7676,
      "ĠÅĽrodowisk": 7677,
      "demii": 7678,
      "Ġwizu": 7679,
      "ĠokreÅĽliÄĩ": 7680,
      "ĠCzÅĤo": 7681,
      "nnik": 7682,
      "op": 7683,
      "Ġobrazu": 7684,
      "Ġzlokali": 7685,
      "szaÅĤ": 7686,
      "nÄĻÅĤo": 7687,
      "ĠwystÄĻpujÄħ": 7688,
      "ĠAgen": 7689,
      "Ġsprawdzi": 7690,
      "Ġprosty": 7691,
      "ĠKli": 7692,
      "ENT": 7693,
      "SI": 7694,
      "Ġwykonana": 7695,
      "polski": 7696,
      "ĠstaÅĤa": 7697,
      "Ġodrzu": 7698,
      "ĠKazi": 7699,
      "znacza": 7700,
      "our": 7701,
      "miona": 7702,
      "ĠpodwÃ³j": 7703,
      "Ġrehabili": 7704,
      "Ġprzebywa": 7705,
      "loty": 7706,
      "ĠStanisÅĤaw": 7707,
      "ĠPy": 7708,
      "Ġfizycznych": 7709,
      "ntem": 7710,
      "Ġwyco": 7711,
      "Ġekspo": 7712,
      "ĠprzypadkÃ³w": 7713,
      "ĠsÄħsie": 7714,
      "ĠPri": 7715,
      "Ġkawa": 7716,
      "ĠpoÅ¼ar": 7717,
      "logiczny": 7718,
      "lary": 7719,
      "ĠUrzÄħd": 7720,
      "ĠmÃ³wiÄĩ": 7721,
      "ĠwÃ³d": 7722,
      "Ġzapewnienia": 7723,
      "ĠZosta": 7724,
      "Ġkasynie": 7725,
      "Ġorganizm": 7726,
      "daniem": 7727,
      "lle": 7728,
      "Ġuprawia": 7729,
      "ĠwyposaÅ¼enia": 7730,
      "Ġzasadni": 7731,
      "bek": 7732,
      "UT": 7733,
      "Ġdziewczyny": 7734,
      "mierza": 7735,
      "Ġzwrotu": 7736,
      "ĠochronÄĻ": 7737,
      "Ġostatnio": 7738,
      "ĠprzedmiotÃ³w": 7739,
      "Ġszkodli": 7740,
      "strÃ³w": 7741,
      "ĠWojewÃ³dztwa": 7742,
      "larÃ³w": 7743,
      "ĠdaÄĩ": 7744,
      "ĠdziaÅĤki": 7745,
      "cyjnymi": 7746,
      "Ġcom": 7747,
      "ĠmilionÃ³w": 7748,
      "Ġzorganizowa": 7749,
      "ĠEn": 7750,
      "torze": 7751,
      "draÅ¼a": 7752,
      "ĠzobowiÄħzany": 7753,
      "ĠosobÄħ": 7754,
      "nÄĻÅĤy": 7755,
      "Ġlokalu": 7756,
      "VID": 7757,
      "ĠGry": 7758,
      "cielem": 7759,
      "psu": 7760,
      "ĠstaÅĤy": 7761,
      "Ġroczni": 7762,
      "Ġterapii": 7763,
      "ĠInsta": 7764,
      "ĠodlegÅĤoÅĽci": 7765,
      "ĠWrocÅĤawiu": 7766,
      "Jakie": 7767,
      "Ġprotoko": 7768,
      "jÄĻciu": 7769,
      "ieÅĤ": 7770,
      "-C": 7771,
      "ĠBibliote": 7772,
      "ĠzbiÃ³r": 7773,
      "ĠodpowiedniÄħ": 7774,
      "Ġartykule": 7775,
      "Ġbazie": 7776,
      "Ġraba": 7777,
      "ĠFesti": 7778,
      "Sto": 7779,
      "pady": 7780,
      "Ġspek": 7781,
      "ĠAgnie": 7782,
      "ĠzasobÃ³w": 7783,
      "mÃ³wi": 7784,
      "Ġwielkie": 7785,
      "Ð²": 7786,
      "Ġlabora": 7787,
      "Ġ(...)": 7788,
      "lue": 7789,
      "Ġnauczania": 7790,
      "Ġdedy": 7791,
      "Ġdepozytu": 7792,
      "Ġsektora": 7793,
      "Ġnego": 7794,
      "Ġmaszyny": 7795,
      "Ġprawne": 7796,
      "ĠzrÃ³Å¼nic": 7797,
      "Ġpewnym": 7798,
      "wielbia": 7799,
      "Ġdefini": 7800,
      "ĠOÅĽrod": 7801,
      "Ġdorad": 7802,
      "Ġzamieszkania": 7803,
      "Ġulubio": 7804,
      "Ġstrategi": 7805,
      "Ġalu": 7806,
      "ĠpoÅĤudni": 7807,
      "ĠksiÄĻg": 7808,
      "Ġmulti": 7809,
      "Ġozdob": 7810,
      "ĠuÅ¼ywaÄĩ": 7811,
      "tas": 7812,
      "ĠpowinniÅĽmy": 7813,
      "Ġoby": 7814,
      "ĠzaleÅ¼": 7815,
      "tle": 7816,
      "ĠDane": 7817,
      "ÃĵÅģ": 7818,
      "Ġtermo": 7819,
      "Ġumowa": 7820,
      "Ġpta": 7821,
      "Ġsytuacjach": 7822,
      "dwi": 7823,
      "strzyma": 7824,
      "ĠupowaÅ¼": 7825,
      "Ġpolecam": 7826,
      "ĠðŁĻ": 7827,
      "dÅĤuÅ¼": 7828,
      "ĠkÅĤopo": 7829,
      "Ġczuj": 7830,
      "Ġrejestru": 7831,
      "Ġkal": 7832,
      "ĠDZ": 7833,
      "ĠZgodnie": 7834,
      "Ġkwestia": 7835,
      "-a": 7836,
      "Ġspod": 7837,
      "kul": 7838,
      "wskiej": 7839,
      "ĠCzas": 7840,
      "Ġsypia": 7841,
      "ĠterenÃ³w": 7842,
      "Ġfunkcjonu": 7843,
      "liwie": 7844,
      "Ġuchwy": 7845,
      "wanego": 7846,
      "Ġtechnicznych": 7847,
      "ĠÅĽrodowisku": 7848,
      "lom": 7849,
      "ĠocenÄĻ": 7850,
      "ĠpracowaÄĩ": 7851,
      "Ġpliki": 7852,
      "SKIE": 7853,
      "Ġwygod": 7854,
      "ĠKomisja": 7855,
      "Ġwymagane": 7856,
      "ĠobowiÄħzku": 7857,
      "Ġprawdziwe": 7858,
      "CZNE": 7859,
      "Ġmedycy": 7860,
      "ĠlÄĻ": 7861,
      "Ġfarma": 7862,
      "Ġdochodzi": 7863,
      "nionego": 7864,
      "Pla": 7865,
      "ĠUmowy": 7866,
      "ĠcaÅĤoÅĽÄĩ": 7867,
      "ĠUr": 7868,
      "FOR": 7869,
      "ĠmyÅĽl": 7870,
      "Ġgrubo": 7871,
      "Ġregionu": 7872,
      "TM": 7873,
      "koje": 7874,
      "ĠDia": 7875,
      "czech": 7876,
      "Ġmenu": 7877,
      "ĠmieszkaÅĦcy": 7878,
      ".ht": 7879,
      "kaz": 7880,
      "mentami": 7881,
      "zur": 7882,
      "Ġsmu": 7883,
      "Ġdotar": 7884,
      "ĠwÅĤasnoÅĽci": 7885,
      "ĠpierwszÄħ": 7886,
      "Ġsprawi": 7887,
      "taÅ¼": 7888,
      "nowo": 7889,
      "ĠCH": 7890,
      "ĠPÃ³ÅĤ": 7891,
      "chaÄĩ": 7892,
      "Ġtowar": 7893,
      "Å¼yÅĤa": 7894,
      "Ġubo": 7895,
      "Ġkalenda": 7896,
      "ĠukÅĤada": 7897,
      "jsc": 7898,
      "ĠstaÅĤe": 7899,
      "Ġkolek": 7900,
      "Ġitd": 7901,
      "Ġzdarza": 7902,
      "ĠĠĠĠĠĠĠĠĠĠĠĠĠĠĠĠĠĠĠĠĠĠĠĠĠĠĠĠĠ": 7903,
      "ĠdowiedzieÄĩ": 7904,
      "nni": 7905,
      "Ġzaopa": 7906,
      "nkowo": 7907,
      "waÅĦ": 7908,
      "lakty": 7909,
      "Ġunij": 7910,
      "Ġbanku": 7911,
      "ĠToru": 7912,
      "ĠPier": 7913,
      "sna": 7914,
      "ĠTwoim": 7915,
      "zyn": 7916,
      "ĠartykuÅĤy": 7917,
      "ĠZy": 7918,
      "ĠWielkiej": 7919,
      "Ġzabrak": 7920,
      "Spraw": 7921,
      "Ġutrzymania": 7922,
      "Ġkatoli": 7923,
      "Ġupa": 7924,
      "Ġdokument": 7925,
      "sul": 7926,
      "Ġmeble": 7927,
      "ĠlistÄĻ": 7928,
      "Ġprowi": 7929,
      "sjÄħ": 7930,
      "zjum": 7931,
      "Ġsukces": 7932,
      "ĠwyjaÅĽnie": 7933,
      "ĠzÅĤoÅ¼yÄĩ": 7934,
      "Ã¤": 7935,
      "ĠMarcin": 7936,
      "Ġemisji": 7937,
      "ĠzawodnikÃ³w": 7938,
      "JÄĦ": 7939,
      "Ã¶": 7940,
      "Ġfla": 7941,
      "Ġpary": 7942,
      "Ġrodzinie": 7943,
      "wcÄĻ": 7944,
      "ĠnastÄĻpujÄħcych": 7945,
      "ÅĽnikÃ³w": 7946,
      "Ġkwalifika": 7947,
      "ĠpÅĤu": 7948,
      "ĠzaÅĤoÅ¼enia": 7949,
      "Ġdekla": 7950,
      "ĠkoÅĽcie": 7951,
      "ĠsklepÃ³w": 7952,
      "Ġrealizowane": 7953,
      "Ġpoprawia": 7954,
      "niosÅĤa": 7955,
      "Ġzwolnie": 7956,
      "ĠTam": 7957,
      "Ġpowstania": 7958,
      "lacjÄĻ": 7959,
      "Ġkurs": 7960,
      "Ġszla": 7961,
      "Ġkrem": 7962,
      "Ġtren": 7963,
      "Ġasy": 7964,
      "ĠDziÅĽ": 7965,
      "ĠobecnoÅĽci": 7966,
      "ĠmÄĻÅ¼czyzna": 7967,
      "BA": 7968,
      "skimi": 7969,
      "dzajÄħ": 7970,
      "ĠWindows": 7971,
      "ĠotrzymaÄĩ": 7972,
      "ĠZgroma": 7973,
      "Ġprzedszkola": 7974,
      ".W": 7975,
      "Ġkonsul": 7976,
      "ĠartykuÅĤÃ³w": 7977,
      "Ġbezpieczne": 7978,
      "Ġargu": 7979,
      "PA": 7980,
      "ĠÅĽwiatowej": 7981,
      "ĠKali": 7982,
      "Ġfu": 7983,
      "Ġleki": 7984,
      "Zgodnie": 7985,
      "Ġtara": 7986,
      "towÄħ": 7987,
      "ĠuÅ¼ytku": 7988,
      "Ġprojekcie": 7989,
      "Ġpoczucie": 7990,
      "ĠMor": 7991,
      "Ġwnioski": 7992,
      "Ġwykorzystaniem": 7993,
      "skaza": 7994,
      ".-": 7995,
      "-letni": 7996,
      "ĠskÃ³r": 7997,
      "ĠopÃ³Åº": 7998,
      "Ġregularnie": 7999,
      "legÅĤoÅĽÄĩ": 8000,
      "Ġletni": 8001,
      "ĠÃ³w": 8002,
      "Poli": 8003,
      "Ġdofinansowanie": 8004,
      "ĠobrÄĻ": 8005,
      "ĠwÅĤÃ³": 8006,
      "xi": 8007,
      "Ġkamie": 8008,
      "Ġpobytu": 8009,
      "minowa": 8010,
      "polskiego": 8011,
      "ĠwspÃ³lnego": 8012,
      "rzona": 8013,
      "rÄħg": 8014,
      "Ġlokalizacji": 8015,
      "OÅļÄĨ": 8016,
      "ĠwiÄħÅ¼e": 8017,
      "Ġtryb": 8018,
      "Ġnajpopular": 8019,
      "Ġtale": 8020,
      "Ġoskar": 8021,
      "Ġomawia": 8022,
      "Ġobywatel": 8023,
      "ĠFranci": 8024,
      "dziÄĻk": 8025,
      "ĠOli": 8026,
      "Ġkonfli": 8027,
      "ĠReje": 8028,
      "Ġmaj": 8029,
      "ĠokazaÅĤo": 8030,
      "owani": 8031,
      "Ġsuple": 8032,
      "mowane": 8033,
      "ĠÌģ": 8034,
      "szel": 8035,
      "Ġatmosfery": 8036,
      "Ġsocja": 8037,
      "Ġniko": 8038,
      "ĠnajmÅĤod": 8039,
      "ĠHar": 8040,
      "stÄĻpne": 8041,
      "ĠrzeczywiÅĽcie": 8042,
      "Ġszpitala": 8043,
      "ĠZespÃ³ÅĤ": 8044,
      "Ġnatury": 8045,
      "ĠmetodÄħ": 8046,
      "ĠPia": 8047,
      "ĠpasaÅ¼e": 8048,
      "Czas": 8049,
      "Ġubiega": 8050,
      "Ġfrom": 8051,
      "ĠWojciech": 8052,
      "owice": 8053,
      "ĠVI": 8054,
      "ĠÅĽrodku": 8055,
      "Ġfesti": 8056,
      "ĠwyglÄħ": 8057,
      "use": 8058,
      "ĠproÅĽ": 8059,
      "ĠÄĩwiczeÅĦ": 8060,
      "ĠSzkÃ³ÅĤ": 8061,
      "szeniem": 8062,
      "Ġplasti": 8063,
      "ĠHen": 8064,
      "gni": 8065,
      "ĠGrupy": 8066,
      "ĠkÄħpie": 8067,
      "Ġswoimi": 8068,
      "rodÄĻ": 8069,
      "gor": 8070,
      "nieniu": 8071,
      "mysÅĤ": 8072,
      "ĠRzesz": 8073,
      "ĠZapraszamy": 8074,
      "owskie": 8075,
      "\"ĊĊ": 8076,
      "ĠopÅĤaca": 8077,
      "ĠCom": 8078,
      "ĠprzyjÄĻcia": 8079,
      "Ġwykonany": 8080,
      "cili": 8081,
      "ĠwymagaÅĦ": 8082,
      "DY": 8083,
      "ĠsamorzÄħdu": 8084,
      "Ġprecyzyj": 8085,
      "ĠdÅºwiÄĻ": 8086,
      "las": 8087,
      "]ĊĊ": 8088,
      "pio": 8089,
      "niejszÄħ": 8090,
      "--|----------------": 8091,
      "zdra": 8092,
      "Ġmotywa": 8093,
      "Ġogni": 8094,
      "ĠÅģÄħ": 8095,
      "OWIE": 8096,
      "Ġdecyzja": 8097,
      "Ġac": 8098,
      "Ġprezent": 8099,
      "matyczne": 8100,
      "ĠÅĤatwe": 8101,
      "Ġmani": 8102,
      "Ġmebli": 8103,
      "zn": 8104,
      "Ġtemperatura": 8105,
      "ĠzobowiÄħzaÅĦ": 8106,
      "Ġutrzymy": 8107,
      "rasta": 8108,
      "sÃ³b": 8109,
      "ckÄħ": 8110,
      "ĠÅĤÃ³": 8111,
      "fera": 8112,
      "Ġzapowie": 8113,
      "kÅĤo": 8114,
      "ĠTE": 8115,
      "CO": 8116,
      "westy": 8117,
      "Ġhandlu": 8118,
      "tce": 8119,
      "liza": 8120,
      "Ġdotk": 8121,
      "sma": 8122,
      "Å¼nej": 8123,
      "ĠðŁĻĤ": 8124,
      "ĠJestem": 8125,
      "strak": 8126,
      "NIK": 8127,
      "sztÄħ": 8128,
      "ĠsprawÄħ": 8129,
      "Ġfinansowej": 8130,
      "czeÅĦstwo": 8131,
      "ĠwaÅ¼ny": 8132,
      "ĠpozostaÅĤe": 8133,
      "ĠogÃ³lne": 8134,
      "bierze": 8135,
      "Ġautomatycznie": 8136,
      "Ġsystemy": 8137,
      "ĠData": 8138,
      "zujÄħce": 8139,
      "Ġgrun": 8140,
      "seÅĤ": 8141,
      "Ñı": 8142,
      "ĠpÃ³Åºn": 8143,
      "ĠcaÅĤa": 8144,
      "ĠStaro": 8145,
      "Ġklient": 8146,
      "pka": 8147,
      "Ġponosi": 8148,
      "ĠStowarzyszenia": 8149,
      "ĠÅ¼adnej": 8150,
      "Ġciebie": 8151,
      "ĠnaleÅ¼a": 8152,
      "Ġskarb": 8153,
      "ĠpodjÄĻcia": 8154,
      "ĠSztu": 8155,
      "stanowi": 8156,
      "ĠpÅĤyty": 8157,
      "ĠBro": 8158,
      "ĠuÅ¼yte": 8159,
      "gr": 8160,
      "ĠEmi": 8161,
      "sla": 8162,
      "ĠchcÄĻ": 8163,
      "uch": 8164,
      "ĠÅĽnie": 8165,
      "ĠÅºrÃ³dÅĤo": 8166,
      "ĠNiemczech": 8167,
      "Ġdroga": 8168,
      "Ġserwisie": 8169,
      "ĠInformacje": 8170,
      "ĠJezusa": 8171,
      "Ġpowtarza": 8172,
      "ĠchoÄĩby": 8173,
      "Ġnieba": 8174,
      "Ġkim": 8175,
      "ĠMal": 8176,
      "Ġrozwoj": 8177,
      "dowym": 8178,
      "Ġoczywi": 8179,
      "ĠzapewniajÄħ": 8180,
      "Ġkreatyw": 8181,
      "ĠSzkoÅĤa": 8182,
      "ĠtaÅĦ": 8183,
      "Ġstronach": 8184,
      "ĠksztaÅĤt": 8185,
      "Ġsymboli": 8186,
      "Ġchcieli": 8187,
      "znok": 8188,
      "ĠwÃ³z": 8189,
      "Warto": 8190,
      "ĠOF": 8191,
      "Ġkompo": 8192,
      "Ġkomuna": 8193,
      "wagi": 8194,
      "Ġprezydenta": 8195,
      "Ġbukmach": 8196,
      "ĠKlienta": 8197,
      "Ġdotacji": 8198,
      "ding": 8199,
      "Ġwszech": 8200,
      "dziemy": 8201,
      "nionej": 8202,
      "Ġidealne": 8203,
      "Ġzaplanowa": 8204,
      "Ġniczym": 8205,
      "Ġocena": 8206,
      "Ġzasila": 8207,
      "towano": 8208,
      "Ġwprowadzenie": 8209,
      "ĠPowiatu": 8210,
      "dzwo": 8211,
      "techni": 8212,
      "ĠĠĠĠĠĠĠĠĠĠĠĠĠĠĠĠĠĠĠĠĠĠĠĠĠĠĠĠĠĠĠĠĠĠ": 8213,
      "ĠuÅĤo": 8214,
      "uf": 8215,
      "Ġfinansowego": 8216,
      "ĠnieprawidÅĤ": 8217,
      "ĠzachowaÄĩ": 8218,
      "pÅĤyw": 8219,
      "chÅĤo": 8220,
      "ĠdruÅ¼yny": 8221,
      "Ġprzele": 8222,
      "ĠĠĠĠĠĠĠĠĠĠĠĠĠĠĠĠĠĠĠĠĠĠĠĠĠĠĠĠĠĠĠĠĠ": 8223,
      "Ġodbiera": 8224,
      "Ġbiura": 8225,
      "taria": 8226,
      "Ġkierowni": 8227,
      "Ġpomieszczenia": 8228,
      "ĠUchwa": 8229,
      "ĠUrzÄĻ": 8230,
      "ĠdochodÃ³w": 8231,
      "nes": 8232,
      "Ġsekre": 8233,
      "mowÄħ": 8234,
      "Ġpreferen": 8235,
      "%.": 8236,
      "Ġprzechowywania": 8237,
      "Ġsatysfak": 8238,
      "ĠMaÅĤgorza": 8239,
      "ĠtuÅ¼": 8240,
      "Ġodzyska": 8241,
      "Ġskoro": 8242,
      "Ġwirtual": 8243,
      "ĠskÅĤadzie": 8244,
      "czkÄħ": 8245,
      "mentach": 8246,
      "nionym": 8247,
      "ĠspecjalistÃ³w": 8248,
      "ĠprzeksztaÅĤ": 8249,
      "Ġzawodowych": 8250,
      "Ġpracownik": 8251,
      "rost": 8252,
      "alne": 8253,
      "Ġwidzi": 8254,
      "rys": 8255,
      "Å¼onym": 8256,
      "Ġkibi": 8257,
      "Liczba": 8258,
      "ĠDyrektor": 8259,
      "ĠwyraÅº": 8260,
      "Ġodszko": 8261,
      "tyku": 8262,
      "lla": 8263,
      "Ġpsa": 8264,
      "Ġkoja": 8265,
      "ĠKasy": 8266,
      "ĠsÄħdu": 8267,
      "Ġprioryte": 8268,
      "ĠwysiÅĤ": 8269,
      "ĠkoniecznoÅĽÄĩ": 8270,
      "Ġzasadach": 8271,
      "ĠwkÅĤad": 8272,
      "Ġtworzenie": 8273,
      "ĠprzedsiÄĻbiorcÃ³w": 8274,
      "Ġoleju": 8275,
      "sÅĤuga": 8276,
      "Ġlogo": 8277,
      "stola": 8278,
      "dztwo": 8279,
      "ĠnaÅĤo": 8280,
      "/m": 8281,
      "pora": 8282,
      "Ġzwrot": 8283,
      "Ġprocedury": 8284,
      "Ġpopro": 8285,
      "don": 8286,
      "ĠGi": 8287,
      "ĠgÅĤÃ³wnej": 8288,
      "ĠWÃ³j": 8289,
      "szyÅĤ": 8290,
      "ĠodpowiedzialnoÅĽÄĩ": 8291,
      "ĠOS": 8292,
      "Ġwreszcie": 8293,
      "leniem": 8294,
      "Ġtrzecie": 8295,
      "Ġporozumie": 8296,
      "wice": 8297,
      "ĠWspÃ³l": 8298,
      "Ġutrzymanie": 8299,
      "Ġprzeszko": 8300,
      "ĠEner": 8301,
      "lowy": 8302,
      "dyt": 8303,
      "ĠobszarÃ³w": 8304,
      "Informacje": 8305,
      "ÅĦskÄħ": 8306,
      "Ġspace": 8307,
      "ĠKaro": 8308,
      "Ġ(\"": 8309,
      "ĠdrugÄħ": 8310,
      "storia": 8311,
      "ĠWydziaÅĤu": 8312,
      "ĠNajlep": 8313,
      "ĠRzeczy": 8314,
      "Pona": 8315,
      "Ġzaby": 8316,
      "Ġwystawi": 8317,
      "ĠpewnoÅĽÄĩ": 8318,
      "Ġlos": 8319,
      "Ġkompetencji": 8320,
      "ĠDom": 8321,
      "ĠPrzedsiÄĻbior": 8322,
      "Ġpotrzeba": 8323,
      "Ġziem": 8324,
      "ĠuwzglÄĻdnieniem": 8325,
      "ĠAk": 8326,
      "Ġszeroko": 8327,
      "Ġudzielenie": 8328,
      "JE": 8329,
      "ĠWtedy": 8330,
      "ĠmÃ³wiÄħc": 8331,
      "ĠOB": 8332,
      "bignie": 8333,
      "Bez": 8334,
      "!ĊĊ": 8335,
      "ĠTade": 8336,
      "Ġproblemem": 8337,
      "\\)": 8338,
      "ĠotrzymaÅĤ": 8339,
      "###": 8340,
      "ĠÅĤÄħczÄħ": 8341,
      "IM": 8342,
      "Ġsezonu": 8343,
      "Os": 8344,
      "Sza": 8345,
      "ĠprzejÅĽÄĩ": 8346,
      "sznie": 8347,
      "Ponad": 8348,
      "Odpowie": 8349,
      "Ġgranicy": 8350,
      "lonego": 8351,
      "Ġczekola": 8352,
      "Ġol": 8353,
      "ĠPrzygo": 8354,
      "Ġreklamy": 8355,
      "ĠInne": 8356,
      "ĠkÄħtem": 8357,
      "/Ċ": 8358,
      "Ġpil": 8359,
      "Ġsens": 8360,
      "niÄĻte": 8361,
      "Ġchorych": 8362,
      "Â»": 8363,
      "ĠÅĽnia": 8364,
      "tow": 8365,
      "Ġbuty": 8366,
      "Hi": 8367,
      "ĠBel": 8368,
      "https": 8369,
      "szne": 8370,
      "Ġklimaty": 8371,
      "zz": 8372,
      "ĠwaÅ¼na": 8373,
      "ÅĽlÄħ": 8374,
      "czyÅĤo": 8375,
      "ĠsamorzÄħ": 8376,
      "wÅĤaÅĽci": 8377,
      "Ġwiek": 8378,
      "Projekt": 8379,
      "Ġura": 8380,
      "Ġalbu": 8381,
      "ĠnawiÄħ": 8382,
      "ĠGenera": 8383,
      "Ġuj": 8384,
      "Ġmodeli": 8385,
      "tuÅĤ": 8386,
      "ĠDie": 8387,
      "bet": 8388,
      "Ġcukru": 8389,
      "ĠzrozumieÄĩ": 8390,
      "Ġrano": 8391,
      "Ġtajemni": 8392,
      "korzysta": 8393,
      "Ġklub": 8394,
      "Ġmono": 8395,
      "Ġnazwy": 8396,
      "Ġnaukowych": 8397,
      "Ġbiega": 8398,
      "ĠÅĽli": 8399,
      "nnoÅĽÄĩ": 8400,
      "genera": 8401,
      "ĠpostaÄĩ": 8402,
      "ĠefektÃ³w": 8403,
      "??": 8404,
      "ĠÅĽwiatÅĤo": 8405,
      "Ġspor": 8406,
      "rÃ³bu": 8407,
      "ĠobecnoÅĽÄĩ": 8408,
      "Ġleku": 8409,
      "WZ": 8410,
      "Ġodcie": 8411,
      "Ġdefi": 8412,
      "ceny": 8413,
      "Ġpomimo": 8414,
      "ĠEurope": 8415,
      "ĠSpÃ³ÅĤka": 8416,
      "ĠinÅ¼ynie": 8417,
      "wis": 8418,
      "Ġszer": 8419,
      "Ġprokura": 8420,
      "Ġwymienia": 8421,
      "ĠStro": 8422,
      "Ġpost": 8423,
      "Ġdobrych": 8424,
      "wkÄĻ": 8425,
      "Ġokna": 8426,
      "Ġsurow": 8427,
      "Ġukaza": 8428,
      "ĠktÃ³remu": 8429,
      "Dlaczego": 8430,
      "Ġbroni": 8431,
      "ĠZapew": 8432,
      "ĠformÄĻ": 8433,
      "ĠbrÄħ": 8434,
      "Ġpewien": 8435,
      "ĠPRA": 8436,
      "ĠKowa": 8437,
      "ĠzakupÃ³w": 8438,
      "Ġopakowa": 8439,
      "Ġtowaru": 8440,
      "Ġczaso": 8441,
      "ĠwyÅ¼sze": 8442,
      "ĠPowsta": 8443,
      "roczy": 8444,
      "ĠzgÅĤoszenia": 8445,
      "Ġzestawie": 8446,
      "ĠLED": 8447,
      "ĠZu": 8448,
      "ĠprzysÅĤuguje": 8449,
      "Ġstaran": 8450,
      "Ġcharakteru": 8451,
      "sny": 8452,
      "UE": 8453,
      "chroni": 8454,
      "ĠGrupa": 8455,
      "Op": 8456,
      "magania": 8457,
      "ÅĤowych": 8458,
      "ĠByÅĤ": 8459,
      "paÄĩ": 8460,
      "que": 8461,
      "ĠprzyszÅĤoÅĽÄĩ": 8462,
      "Ġskutki": 8463,
      "Ġwykorzystywane": 8464,
      "Ġrol": 8465,
      "ĠskoÅĦ": 8466,
      "ĠnapisaÅĤ": 8467,
      "ĠszczegÃ³ÅĤy": 8468,
      "ĠzwiÄħzek": 8469,
      "rd": 8470,
      "unek": 8471,
      "piec": 8472,
      "mani": 8473,
      "ĠCu": 8474,
      "towaÅĤa": 8475,
      "czytaj": 8476,
      "Ġregulacji": 8477,
      "ĠuÅ¼ycia": 8478,
      "ĠpowtÃ³": 8479,
      "mujÄħc": 8480,
      "Ġkwocie": 8481,
      "Ġekspery": 8482,
      "ĠniezbÄĻdnych": 8483,
      "ĠNew": 8484,
      "ĠwzÃ³r": 8485,
      "chnie": 8486,
      "kija": 8487,
      "UP": 8488,
      "Ġpowiado": 8489,
      "Ġkampanii": 8490,
      "ĠstanowiÄĩ": 8491,
      "ĠwdraÅ¼a": 8492,
      "ĠSK": 8493,
      "ĠChoÄĩ": 8494,
      "ĠKom": 8495,
      "Ġfinansowania": 8496,
      "Ġznowu": 8497,
      "ĠwykÅĤad": 8498,
      "Ġmora": 8499,
      "ĠbieÅ¼Äħco": 8500,
      "WÅĤa": 8501,
      "Ġdruga": 8502,
      "Ġobserw": 8503,
      "ĠNiemcy": 8504,
      "-po": 8505,
      "ĠMagda": 8506,
      "Ġogrod": 8507,
      "Ġsportowych": 8508,
      "Ãł": 8509,
      "tero": 8510,
      "ĠkogoÅĽ": 8511,
      "EZ": 8512,
      "Ġpana": 8513,
      "ĠHer": 8514,
      "Ġodnale": 8515,
      "ĠPlan": 8516,
      "Ġmery": 8517,
      "sper": 8518,
      "ĠpomieszczeÅĦ": 8519,
      "ĠpokÃ³j": 8520,
      "ĠOpo": 8521,
      "ĠsporzÄħ": 8522,
      "ĠprzeszÅĤoÅĽci": 8523,
      ".html": 8524,
      "ĠnazwÄĻ": 8525,
      "daj": 8526,
      "SS": 8527,
      "Ġuchy": 8528,
      "ĠSuper": 8529,
      "Ġzapewni": 8530,
      "Ġpaznok": 8531,
      "ĠpiÄĻciu": 8532,
      "ĠponiÅ¼": 8533,
      "ĠspoÅĤecznego": 8534,
      "ĠistniejÄħ": 8535,
      "Dru": 8536,
      "ĠFirma": 8537,
      "ys": 8538,
      "Ġsche": 8539,
      "cyk": 8540,
      "ĠwyÅĽci": 8541,
      "Ġfaktycznie": 8542,
      "ĠwÄĻgl": 8543,
      "Ne": 8544,
      "Ġdomy": 8545,
      "Ġcelach": 8546,
      "Ġczwartek": 8547,
      "ĠnajwiÄĻcej": 8548,
      "ĠNiemiec": 8549,
      "Ġrachunk": 8550,
      "Ġoddzie": 8551,
      "ĠkolejnoÅĽci": 8552,
      "KT": 8553,
      "Ġinternetowe": 8554,
      "walifikowa": 8555,
      "ĠwspÃ³ÅĤpracÄĻ": 8556,
      "Ġelektrycznej": 8557,
      "sis": 8558,
      "ANI": 8559,
      "ĠkandydatÃ³w": 8560,
      "ĠponiedziaÅĤek": 8561,
      "ĠÅĽciany": 8562,
      "Ġfigu": 8563,
      "ĠdziaÅĤaÄĩ": 8564,
      "Ġodchu": 8565,
      "Ġlikwida": 8566,
      "ĠIT": 8567,
      "rÃ³wna": 8568,
      "iery": 8569,
      "ĠniepeÅĤnosprawnych": 8570,
      "ĠwiadomoÅĽÄĩ": 8571,
      "ĠzewnÄĻtrznych": 8572,
      "Ġbiznesu": 8573,
      "ĠdziaÅĤajÄħ": 8574,
      "Ġauta": 8575,
      "Ġportal": 8576,
      "Ġznany": 8577,
      "Ġzer": 8578,
      "dziesiÄħt": 8579,
      "Ġpedagogi": 8580,
      "ĠwspÃ³ÅĤprac": 8581,
      "vie": 8582,
      "Ġpodaje": 8583,
      "Ġprawnej": 8584,
      "Ġke": 8585,
      "Ġti": 8586,
      "ktora": 8587,
      "ĠJesteÅĽmy": 8588,
      "Ġklubu": 8589,
      "ÅĤowej": 8590,
      "raÅ¼a": 8591,
      "ĠMiasto": 8592,
      "ĠwaÅ¼nych": 8593,
      "ilka": 8594,
      "kony": 8595,
      "ffi": 8596,
      "kieru": 8597,
      "Ġpotrzebuje": 8598,
      "lerii": 8599,
      "ĠÅĽrodka": 8600,
      "Ġspecjalnych": 8601,
      "ĠkoÅĽci": 8602,
      "ĠUkrainy": 8603,
      "aria": 8604,
      "ĠÅĽrednio": 8605,
      "Ġwypa": 8606,
      "Ġakumula": 8607,
      "Ġprogramy": 8608,
      "Ġbierze": 8609,
      "ĠzastÄħpi": 8610,
      "Mu": 8611,
      "Ġocenie": 8612,
      "ĠXIX": 8613,
      "gowe": 8614,
      "Ġopisu": 8615,
      "ĠzmÄĻ": 8616,
      "Ġocho": 8617,
      "ĠJÃ³zef": 8618,
      "cs": 8619,
      "koju": 8620,
      "datk": 8621,
      "Ġoczu": 8622,
      "ĠHD": 8623,
      "ĠBezpie": 8624,
      "Ġsanitar": 8625,
      "ĠrodzajÃ³w": 8626,
      "%Ċ": 8627,
      "szuka": 8628,
      "ĠOkrÄĻ": 8629,
      "ĠYou": 8630,
      "Ġautora": 8631,
      "opie": 8632,
      "Ġjednoli": 8633,
      "ĠBanku": 8634,
      "Ġpoe": 8635,
      "ĠSpoÅĤecznej": 8636,
      "Pan": 8637,
      "ĠProble": 8638,
      "Ġgaze": 8639,
      "faÅĤ": 8640,
      "ĠowocÃ³w": 8641,
      "ujÄħ": 8642,
      "Ġjeli": 8643,
      "Ġeki": 8644,
      "vel": 8645,
      "ĠmediÃ³w": 8646,
      "Ġwyrazi": 8647,
      "dzÄħc": 8648,
      "wÅĤo": 8649,
      "rowania": 8650,
      "integ": 8651,
      "ĠoferujÄħ": 8652,
      "miot": 8653,
      "Ġsklepach": 8654,
      "ĠStre": 8655,
      ":**": 8656,
      "godzi": 8657,
      "ĠNF": 8658,
      "tis": 8659,
      "tui": 8660,
      "ĠwÄĻgla": 8661,
      "kr": 8662,
      "Ġznajdziemy": 8663,
      "Ġrozumieniu": 8664,
      "Ġuczelni": 8665,
      "Ġano": 8666,
      "ĠRODO": 8667,
      "eme": 8668,
      "Ġwybi": 8669,
      "niesienie": 8670,
      "Ġzapotrzeb": 8671,
      "ĠÅĽwiadomoÅĽÄĩ": 8672,
      "ĠZwiÄħzku": 8673,
      "dki": 8674,
      "Ġmusie": 8675,
      "Czytaj": 8676,
      "Ġinterak": 8677,
      "ĠKe": 8678,
      "IG": 8679,
      "%)": 8680,
      "Ġwspom": 8681,
      "ĠwÅĤadz": 8682,
      "Ġsh": 8683,
      "Ġogromne": 8684,
      "ĠMazowie": 8685,
      "illa": 8686,
      "Ġtegoro": 8687,
      "ĠzawierajÄħ": 8688,
      "Ġmerytory": 8689,
      "ĠPomocy": 8690,
      "ĠobsÅĤuga": 8691,
      "lecia": 8692,
      "ntro": 8693,
      "Ġkawy": 8694,
      "niÅ¼": 8695,
      "ming": 8696,
      "ĠKier": 8697,
      "ĠNowe": 8698,
      "lica": 8699,
      "ĠCentra": 8700,
      "byÅĽmy": 8701,
      "kto": 8702,
      "Ġczuje": 8703,
      "bl": 8704,
      "ART": 8705,
      "Ġuwie": 8706,
      "My": 8707,
      "nowania": 8708,
      "Ġodmie": 8709,
      "id": 8710,
      "Ġstruktury": 8711,
      "ĠzawodÃ³w": 8712,
      "ĠwÅĤaÅĽciciel": 8713,
      "ÅĽliÅĤ": 8714,
      "CzÄĻ": 8715,
      "mÃ³wiÄĩ": 8716,
      "Ġzamyka": 8717,
      "Ġwypowiedzi": 8718,
      "ÃŃ": 8719,
      "kg": 8720,
      "ĠKro": 8721,
      "cjom": 8722,
      "Ġpacjent": 8723,
      "Ġww": 8724,
      "Ġabo": 8725,
      "Ġokazuje": 8726,
      "Ġtwarz": 8727,
      "ĠspÃ³j": 8728,
      "ĠÅºle": 8729,
      "ĠleÅĽ": 8730,
      "Ġdyrektora": 8731,
      "Ġnaturalnych": 8732,
      "nkÄħ": 8733,
      "nianie": 8734,
      "ĠCOVID": 8735,
      "niono": 8736,
      "Ġdzieciom": 8737,
      "Ġpochodzenia": 8738,
      "ĠprzeciÄĻ": 8739,
      "Ġteore": 8740,
      "ĠdÅĤugoÅĽÄĩ": 8741,
      "ĠUSD": 8742,
      "Ġzapalenie": 8743,
      "ĠsieÄĩ": 8744,
      "Ġzawodowe": 8745,
      "Ġtechniki": 8746,
      "miÄĩ": 8747,
      "Ġedukacyjnych": 8748,
      "Ġkary": 8749,
      "ĠJoh": 8750,
      "ĠgÅĤad": 8751,
      "ĠzrÃ³wnowa": 8752,
      "Ġbile": 8753,
      "Ġdyre": 8754,
      "Ġalternatyw": 8755,
      "gÃ³r": 8756,
      "ĠPoleca": 8757,
      "dziÅĤy": 8758,
      "Ġstarszych": 8759,
      "Ġgwarantuje": 8760,
      "ujÄħc": 8761,
      "ĠrÄĻki": 8762,
      "ĠwyjÄħtkiem": 8763,
      "ĠIm": 8764,
      "ĠpielÄĻgnacji": 8765,
      "Ġsyn": 8766,
      "df": 8767,
      "Ġwszystkiego": 8768,
      "mowego": 8769,
      "Ġpomiar": 8770,
      "Ġnowoczesne": 8771,
      "ĠZo": 8772,
      "cesz": 8773,
      "Ġnajszyb": 8774,
      "Ġemocji": 8775,
      "nge": 8776,
      "Å¼onÄħ": 8777,
      "Ġstr": 8778,
      "Ġzdra": 8779,
      "ĠFrancji": 8780,
      "Ġwam": 8781,
      "ĠwÅĤadze": 8782,
      "Wykona": 8783,
      "zowanego": 8784,
      "Ġpromieni": 8785,
      "Ġnadzoru": 8786,
      "ĠparÄĻ": 8787,
      "ĠrÄħk": 8788,
      "Ġkonkursie": 8789,
      "ĠGar": 8790,
      "Ġszybciej": 8791,
      "Ġstale": 8792,
      "ĠZjednoczonych": 8793,
      "ĠZarzÄħdza": 8794,
      "ĠwiÄĻkszych": 8795,
      "Ġbudowlane": 8796,
      "ÅĤama": 8797,
      "ĠostroÅ¼": 8798,
      "Ġnauczyciela": 8799,
      "nikach": 8800,
      "ĠludnoÅĽci": 8801,
      "],": 8802,
      "ĠbieÅ¼Äħce": 8803,
      "Ġstopy": 8804,
      "Ġkompa": 8805,
      "Ġwyzwa": 8806,
      "iado": 8807,
      "Ġostatniej": 8808,
      "ĠwiÄĻzie": 8809,
      "Ġwydzie": 8810,
      "ĠzwiÄĻkszyÄĩ": 8811,
      "rowanie": 8812,
      "Strona": 8813,
      "Ġspotkaniu": 8814,
      "Ġzostali": 8815,
      "ĠksiÄħÅ¼ka": 8816,
      "Ġwarunkiem": 8817,
      "Ġpobra": 8818,
      "Ġponadto": 8819,
      "ĠpodrÄĻ": 8820,
      "ĠTele": 8821,
      "ĠrzÄħdu": 8822,
      "dii": 8823,
      "ĠÅĽwiadomoÅĽci": 8824,
      "low": 8825,
      "Ġzamiesz": 8826,
      "akcep": 8827,
      "Ġbonus": 8828,
      "ĠzakÅĤadÃ³w": 8829,
      "Ġdodatek": 8830,
      "riusz": 8831,
      "Autor": 8832,
      "laÄĩ": 8833,
      "Ġochrona": 8834,
      "Gru": 8835,
      "ĠSÄħdu": 8836,
      "sycho": 8837,
      "ĠwiÄĻksza": 8838,
      "Ġniewiele": 8839,
      "ĠszukaÄĩ": 8840,
      "jskÄħ": 8841,
      "ĠwÄħtro": 8842,
      "wery": 8843,
      "Ġserce": 8844,
      "Ġapte": 8845,
      "Ġdyskusji": 8846,
      "Ġprzedmiotem": 8847,
      "Ġkonsekwencji": 8848,
      "biÄĻ": 8849,
      "skach": 8850,
      "-----|": 8851,
      "Ġznanych": 8852,
      "ĠsprzÄħ": 8853,
      "ĠProwa": 8854,
      "Ġemocjona": 8855,
      "Ġdzwo": 8856,
      "tniej": 8857,
      "ĠpowodÃ³w": 8858,
      "Ġzapisy": 8859,
      "ĠpowstaÅĤ": 8860,
      "ĠokazaÄĩ": 8861,
      "linie": 8862,
      "Ġplu": 8863,
      "ĠMari": 8864,
      "ĠAm": 8865,
      "Ġpopu": 8866,
      "ĠFundacji": 8867,
      "Ġwygodne": 8868,
      "ĠzaczÄħÅĤ": 8869,
      "ĠposÅĤu": 8870,
      "Ġprzepis": 8871,
      "ĠpÃ³j": 8872,
      "Ġpokoje": 8873,
      "ĠParla": 8874,
      "Ġzabezpiecza": 8875,
      "ĠOgÃ³lno": 8876,
      "ĠmojÄħ": 8877,
      "ĠPolicji": 8878,
      "ĠLin": 8879,
      "Ġpowietrze": 8880,
      "Ġwykorzystuje": 8881,
      "raktery": 8882,
      "Ġnauczyciel": 8883,
      "Ġwizyty": 8884,
      "test": 8885,
      "ĠczÄĻstot": 8886,
      "Ġabsolwen": 8887,
      "Ġwolont": 8888,
      "Ġowoc": 8889,
      "Ġgazu": 8890,
      "Ġrekrea": 8891,
[...]
