{
  "version": "1.0",
  "truncation": null,
  "padding": null,
  "added_tokens": [
    {
      "id": 3,
      "content": "<unk>",
      "single_word": false,
      "lstrip": false,
      "rstrip": false,
      "normalized": false,
      "special": true
    },
    {
      "id": 50560,
      "content": "<|bos|>",
      "single_word": false,
      "lstrip": false,
      "rstrip": false,
      "normalized": false,
      "special": true
    },
    {
      "id": 50561,
      "content": "<|user_start|>",
      "single_word": false,
      "lstrip": false,
      "rstrip": false,
      "normalized": false,
      "special": true
    },
    {
      "id": 50562,
      "content": "<|user_end|>",
      "single_word": false,
      "lstrip": false,
      "rstrip": false,
      "normalized": false,
      "special": true
    },
    {
      "id": 50563,
      "content": "<|assistant_start|>",
      "single_word": false,
      "lstrip": false,
      "rstrip": false,
      "normalized": false,
      "special": true
    },
    {
      "id": 50564,
      "content": "<|assistant_end|>",
      "single_word": false,
      "lstrip": false,
      "rstrip": false,
      "normalized": false,
      "special": true
    },
    {
      "id": 50565,
      "content": "<|python_start|>",
      "single_word": false,
      "lstrip": false,
      "rstrip": false,
      "normalized": false,
      "special": true
    },
    {
      "id": 50566,
      "content": "<|python_end|>",
      "single_word": false,
      "lstrip": false,
      "rstrip": false,
      "normalized": false,
      "special": true
    },
    {
      "id": 50567,
      "content": "<|output_start|>",
      "single_word": false,
      "lstrip": false,
      "rstrip": false,
      "normalized": false,
      "special": true
    },
    {
      "id": 50568,
      "content": "<|output_end|>",
      "single_word": false,
      "lstrip": false,
      "rstrip": false,
      "normalized": false,
      "special": true
    }
  ],
  "normalizer": {
    "type": "BertNormalizer",
    "clean_text": true,
    "handle_chinese_chars": true,
    "strip_accents": null,
    "lowercase": false
  },
  "pre_tokenizer": {
    "type": "BertPreTokenizer"
  },
  "post_processor": null,
  "decoder": {
    "type": "BPEDecoder",
    "suffix": "</w>"
  },
  "model": {
    "type": "BPE",
    "dropout": null,
    "unk_token": "<unk>",
    "continuing_subword_prefix": null,
    "end_of_word_suffix": "</w>",
    "fuse_unk": false,
    "byte_fallback": false,
    "ignore_merges": false,
    "vocab": {
      "<s>": 0,
      "</s>": 1,
      "<pad>": 2,
      "<unk>": 3,
      "<special0>": 4,
      "<special1>": 5,
      "<special2>": 6,
      "<special3>": 7,
      "<special4>": 8,
      "<special5>": 9,
      "<special6>": 10,
      "<special7>": 11,
      "<special8>": 12,
      "<special9>": 13,
      ",</w>": 14,
      ".</w>": 15,
      "w</w>": 16,
      "i</w>": 17,
      "na</w>": 18,
      "z</w>": 19,
      "się</w>": 20,
      "do</w>": 21,
      "nie</w>": 22,
      "o</w>": 23,
      "jest</w>": 24,
      "to</w>": 25,
      "że</w>": 26,
      "W</w>": 27,
      "-</w>": 28,
      ")</w>": 29,
      "a</w>": 30,
      "(</w>": 31,
      "przez</w>": 32,
      ":</w>": 33,
      "od</w>": 34,
      "oraz</w>": 35,
      "roku</w>": 36,
      "tym</w>": 37,
      "za</w>": 38,
      "jak</w>": 39,
      "dla</w>": 40,
      "po</w>": 41,
      "?</w>": 42,
      "są</w>": 43,
      "tego</w>": 44,
      "co</w>": 45,
      "które</w>": 46,
      "czy</w>": 47,
      "ma</w>": 48,
      "ale</w>": 49,
      "ze</w>": 50,
      "ustawy</w>": 51,
      "tej</w>": 52,
      "r</w>": 53,
      "nie": 54,
      "tak</w>": 55,
      "także</w>": 56,
      "lub</w>": 57,
      "również</w>": 58,
      "r.</w>": 59,
      "będzie</w>": 60,
      "tylko</w>": 61,
      "...</w>": 62,
      "jego</w>": 63,
      "już</w>": 64,
      "może</w>": 65,
      "ich</w>": 66,
      "który</w>": 67,
      "był</w>": 68,
      "jako</w>": 69,
      "być</w>": 70,
      "1</w>": 71,
      "tych</w>": 72,
      "te</w>": 73,
      "ten</w>": 74,
      "bardzo</w>": 75,
      "został</w>": 76,
      "dnia</w>": 77,
      "też</w>": 78,
      "przy</w>": 79,
      "ta</w>": 80,
      "Na</w>": 81,
      "pod</w>": 82,
      "jej</w>": 83,
      "jednak</w>": 84,
      "było</w>": 85,
      "!</w>": 86,
      "za": 87,
      "pracy</w>": 88,
      "2</w>": 89,
      "Nie</w>": 90,
      "nad</w>": 91,
      "lat</w>": 92,
      "I</w>": 93,
      "bo</w>": 94,
      "Po</w>": 95,
      "u</w>": 96,
      "wy": 97,
      "aby</w>": 98,
      "art.</w>": 99,
      "%</w>": 100,
      "u": 101,
      "go</w>": 102,
      "ka</w>": 103,
      "pan</w>": 104,
      "która</w>": 105,
      "by</w>": 106,
      "po": 107,
      "osób</w>": 108,
      "można</w>": 109,
      "Z</w>": 110,
      "jeszcze</w>": 111,
      "ny</w>": 112,
      "których</w>": 113,
      "3</w>": 114,
      "tu</w>": 115,
      "Czy</w>": 116,
      "t</w>": 117,
      "ki</w>": 118,
      "prze": 119,
      "była</w>": 120,
      "przed</w>": 121,
      "A</w>": 122,
      "iż</w>": 123,
      "państwa</w>": 124,
      "na": 125,
      "mi</w>": 126,
      "zł</w>": 127,
      "poseł</w>": 128,
      "pana</w>": 129,
      "gdzie</w>": 130,
      "ne</w>": 131,
      "zakresie</w>": 132,
      "sposób</w>": 133,
      "latach</w>": 134,
      "To</w>": 135,
      "więc</w>": 136,
      "sobie</w>": 137,
      "innych</w>": 138,
      "od": 139,
      "bez</w>": 140,
      "on</w>": 141,
      "były</w>": 142,
      "-": 143,
      "s</w>": 144,
      "z": 145,
      "ą</w>": 146,
      "ty</w>": 147,
      "O": 148,
      "S": 149,
      "została</w>": 150,
      "będą</w>": 151,
      "one</w>": 152,
      "w": 153,
      "Polsce</w>": 154,
      "4</w>": 155,
      "mu</w>": 156,
      "ona</w>": 157,
      "sprawie</w>": 158,
      "we</w>": 159,
      "m</w>": 160,
      "mnie</w>": 161,
      "związku</w>": 162,
      "niż</w>": 163,
      "prawa</w>": 164,
      "gdy</w>": 165,
      "A": 166,
      "Od</w>": 167,
      "ną</w>": 168,
      "należy</w>": 169,
      "którzy</w>": 170,
      "cie</w>": 171,
      "nawet</w>": 172,
      "Polski</w>": 173,
      "miejsce</w>": 174,
      "celu</w>": 175,
      "li</w>": 176,
      "m.in.</w>": 177,
      "o": 178,
      "5</w>": 179,
      "do": 180,
      "którym</w>": 181,
      "czasie</w>": 182,
      "środków</w>": 183,
      "projektu</w>": 184,
      "ją</w>": 185,
      "s": 186,
      "U": 187,
      "my</w>": 188,
      "mają</w>": 189,
      "roz": 190,
      "wszystkich</w>": 191,
      "której</w>": 192,
      "je</w>": 193,
      "owe</w>": 194,
      "nr</w>": 195,
      "n</w>": 196,
      "Z": 197,
      "przy": 198,
      "żeby</w>": 199,
      "ce</w>": 200,
      "Jest</w>": 201,
      "ę</w>": 202,
      "Do</w>": 203,
      "przypadku</w>": 204,
      "a": 205,
      "nich</w>": 206,
      "li": 207,
      "10</w>": 208,
      "mogą</w>": 209,
      "podczas</w>": 210,
      "t": 211,
      "6</w>": 212,
      "pod": 213,
      "i": 214,
      "ów</w>": 215,
      "kiedy</w>": 216,
      "wieku</w>": 217,
      "zostały</w>": 218,
      "d</w>": 219,
      "ni": 220,
      "Warszawa</w>": 221,
      "działania</w>": 222,
      "nych</w>": 223,
      "\"</w>": 224,
      "nia</w>": 225,
      "tam</w>": 226,
      "e": 227,
      "Za": 228,
      "takie</w>": 229,
      "nym</w>": 230,
      "części</w>": 231,
      "k</w>": 232,
      "ra": 233,
      "ust.</w>": 234,
      "ramach</w>": 235,
      "nej</w>": 236,
      "wielu</w>": 237,
      "W": 238,
      "ja</w>": 239,
      "kraju</w>": 240,
      "wiele</w>": 241,
      "l</w>": 242,
      "nego</w>": 243,
      "e</w>": 244,
      "E": 245,
      "re": 246,
      "między</w>": 247,
      "chodzi</w>": 248,
      "uje</w>": 249,
      "d": 250,
      "owych</w>": 251,
      "2012</w>": 252,
      "ku</w>": 253,
      "nim</w>": 254,
      "K": 255,
      "raz</w>": 256,
      "czyli</w>": 257,
      "ci</w>": 258,
      "ni</w>": 259,
      "c": 260,
      "pytanie</w>": 261,
      "tę</w>": 262,
      "strony</w>": 263,
      "posłów</w>": 264,
      "ła</w>": 265,
      "g": 266,
      "ko": 267,
      "ministra</w>": 268,
      "dzieci</w>": 269,
      "owej</w>": 270,
      "sytuacji</w>": 271,
      "wszystkim</w>": 272,
      "y</w>": 273,
      "II</w>": 274,
      "projekt</w>": 275,
      "k": 276,
      "ować</w>": 277,
      "c</w>": 278,
      "jeśli</w>": 279,
      "Po": 280,
      "ma": 281,
      ";</w>": 282,
      "nas</w>": 283,
      "7</w>": 284,
      "p": 285,
      "np.</w>": 286,
      "owy</w>": 287,
      "mi": 288,
      "którego</w>": 289,
      "la": 290,
      "la</w>": 291,
      "ta": 292,
      "m": 293,
      "Wy": 294,
      "ani</w>": 295,
      "ły</w>": 296,
      "pani</w>": 297,
      "osoby</w>": 298,
      "Jak</w>": 299,
      "D": 300,
      "posła</w>": 301,
      "sie</w>": 302,
      "wszystkie</w>": 303,
      "czas</w>": 304,
      "owa</w>": 305,
      "tem</w>": 306,
      "ka": 307,
      "8</w>": 308,
      "20</w>": 309,
      "G": 310,
      "owania</w>": 311,
      "ski</w>": 312,
      "czasu</w>": 313,
      "ł</w>": 314,
      "30</w>": 315,
      "T": 316,
      "możliwości</w>": 317,
      "miał</w>": 318,
      "Unii</w>": 319,
      "zmiany</w>": 320,
      "I": 321,
      "Komisji</w>": 322,
      "pomocy</w>": 323,
      "ała</w>": 324,
      "natomiast</w>": 325,
      "rząd</w>": 326,
      "życia</w>": 327,
      "M": 328,
      "de": 329,
      "niej</w>": 330,
      "dwa</w>": 331,
      "miasta</w>": 332,
      "podstawie</w>": 333,
      "ponad</w>": 334,
      "owanie</w>": 335,
      "minister</w>": 336,
      "udział</w>": 337,
      "owego</w>": 338,
      "ok</w>": 339,
      "da</w>": 340,
      "właśnie</w>": 341,
      "le": 342,
      "czym</w>": 343,
      "pa": 344,
      "ków</w>": 345,
      "kę</w>": 346,
      "y": 347,
      "bardziej</w>": 348,
      "ro": 349,
      "uwagę</w>": 350,
      "więcej</w>": 351,
      "ca</w>": 352,
      "B": 353,
      "owane</w>": 354,
      "ował</w>": 355,
      "jakie</w>": 356,
      "wi": 357,
      "ch": 358,
      "później</w>": 359,
      "stycznia</w>": 360,
      "l": 361,
      "ony</w>": 362,
      "takich</w>": 363,
      "trzeba</w>": 364,
      "sz": 365,
      "działalności</w>": 366,
      "Sejm</w>": 367,
      "informacji</w>": 368,
      "Europejskiej</w>": 369,
      "ć</w>": 370,
      "komisji</w>": 371,
      "mieszkańców</w>": 372,
      "15</w>": 373,
      "ono</w>": 374,
      "mln</w>": 375,
      "dwóch</w>": 376,
      "możliwość</w>": 377,
      "stanie</w>": 378,
      "kilka</w>": 379,
      "zgodnie</w>": 380,
      "wobec</w>": 381,
      "obecnie</w>": 382,
      "rynku</w>": 383,
      "życie</w>": 384,
      "wysokości</w>": 385,
      "2013</w>": 386,
      "bi": 387,
      "wraz</w>": 388,
      "tów</w>": 389,
      "jeżeli</w>": 390,
      "2010</w>": 391,
      "ały</w>": 392,
      "zarówno</w>": 393,
      "znajduje</w>": 394,
      "albo</w>": 395,
      "Ale</w>": 396,
      "mam</w>": 397,
      "12</w>": 398,
      "część</w>": 399,
      "owany</w>": 400,
      "P": 401,
      "kiem</w>": 402,
      "okresie</w>": 403,
      "dniu</w>": 404,
      "rok</w>": 405,
      "em</w>": 406,
      "samym</w>": 407,
      "ludzi</w>": 408,
      "b": 409,
      "swoje</w>": 410,
      "inne</w>": 411,
      "le</w>": 412,
      "2009</w>": 413,
      "ają</w>": 414,
      "owym</w>": 415,
      "prawo</w>": 416,
      "C": 417,
      "terenie</w>": 418,
      "często</w>": 419,
      "9</w>": 420,
      "niego</w>": 421,
      "ane</w>": 422,
      "poprawki</w>": 423,
      "2011</w>": 424,
      "tys.</w>": 425,
      "pi": 426,
      "gminy</w>": 427,
      "grudnia</w>": 428,
      "im</w>": 429,
      "si": 430,
      "nic</w>": 431,
      "działań</w>": 432,
      "tutaj</w>": 433,
      "O</w>": 434,
      "Proszę</w>": 435,
      "przepisów</w>": 436,
      "ową</w>": 437,
      "ska</w>": 438,
      "około</w>": 439,
      "względu</w>": 440,
      "jeden</w>": 441,
      "ką</w>": 442,
      "Pan</w>": 443,
      "g</w>": 444,
      "systemu</w>": 445,
      "Jeśli</w>": 446,
      "realizacji</w>": 447,
      "ują</w>": 448,
      "2008</w>": 449,
      "no</w>": 450,
      "any</w>": 451,
      "sa</w>": 452,
      "nam</w>": 453,
      "Rady</w>": 454,
      "wszystko</w>": 455,
      "kami</w>": 456,
      "chwili</w>": 457,
      "jedynie</w>": 458,
      "4": 459,
      "lata</w>": 460,
      "proszę</w>": 461,
      "ając</w>": 462,
      "rzecz</w>": 463,
      "września</w>": 464,
      "tą</w>": 465,
      "nią</w>": 466,
      "poprzez</w>": 467,
      "ci": 468,
      "spraw</w>": 469,
      "pierwszy</w>": 470,
      "polskich</w>": 471,
      "skiego</w>": 472,
      "dobrze</w>": 473,
      "ponieważ</w>": 474,
      "prac</w>": 475,
      "przede</w>": 476,
      "lipca</w>": 477,
      "powiedzieć</w>": 478,
      "czerwca</w>": 479,
      "dzisiaj</w>": 480,
      "skiej</w>": 481,
      "marca</w>": 482,
      "Tak</w>": 483,
      "temat</w>": 484,
      "którą</w>": 485,
      "of</w>": 486,
      "n": 487,
      "dotyczące</w>": 488,
      "3": 489,
      "Ma": 490,
      "teraz</w>": 491,
      "zaś</w>": 492,
      "mamy</w>": 493,
      "zmian</w>": 494,
      "Na": 495,
      "Za</w>": 496,
      "ło</w>": 497,
      "rządu</w>": 498,
      "maja</w>": 499,
      "jednym</w>": 500,
      "naj": 501,
      "de</w>": 502,
      "temu</w>": 503,
      "zostało</w>": 504,
      "wa</w>": 505,
      "Jeżeli</w>": 506,
      "cja</w>": 507,
      "musi</w>": 508,
      "2007</w>": 509,
      "ując</w>": 510,
      "ty": 511,
      "f": 512,
      "ba": 513,
      "danych</w>": 514,
      "cy</w>": 515,
      "Co</w>": 516,
      "budżetu</w>": 517,
      "zmianie</w>": 518,
      "bowiem</w>": 519,
      "stanu</w>": 520,
      "swoich</w>": 521,
      "ochrony</w>": 522,
      "5": 523,
      "imieniu</w>": 524,
      "11</w>": 525,
      "tzw.</w>": 526,
      "ał</w>": 527,
      "R": 528,
      "dni</w>": 529,
      "nymi</w>": 530,
      "dlatego</w>": 531,
      "j": 532,
      "dy": 533,
      "Nie": 534,
      "kwietnia</w>": 535,
      "to": 536,
      "Prze": 537,
      "te": 538,
      "pracowników</w>": 539,
      "2006</w>": 540,
      "publicznych</w>": 541,
      "N": 542,
      "zdrowia</w>": 543,
      "2014</w>": 544,
      "początku</w>": 545,
      "świata</w>": 546,
      "owi</w>": 547,
      "owana</w>": 548,
      "rozwoju</w>": 549,
      "mo": 550,
      "ku": 551,
      "Sejmu</w>": 552,
      "podatku</w>": 553,
      "typu</w>": 554,
      "nowych</w>": 555,
      "zawsze</w>": 556,
      "ż": 557,
      "siebie</w>": 558,
      "14</w>": 559,
      "aż</w>": 560,
      "taki</w>": 561,
      "następnie</w>": 562,
      "niektórych</w>": 563,
      "października</w>": 564,
      "wojny</w>": 565,
      "lecz</w>": 566,
      "L": 567,
      "środki</w>": 568,
      "ali</w>": 569,
      "różnych</w>": 570,
      "F": 571,
      "dzięki</w>": 572,
      "25</w>": 573,
      "miejscu</w>": 574,
      "ob": 575,
      "kach</w>": 576,
      "czego</w>": 577,
      "16</w>": 578,
      "stanowisko</w>": 579,
      "sierpnia</w>": 580,
      "sam</w>": 581,
      "mieć</w>": 582,
      "in</w>": 583,
      "wtedy</w>": 584,
      "18</w>": 585,
      "miała</w>": 586,
      "Ponadto</w>": 587,
      "cz": 588,
      "the</w>": 589,
      "ność</w>": 590,
      "Polska</w>": 591,
      "j</w>": 592,
      "H": 593,
      "p</w>": 594,
      "głosu</w>": 595,
      "Prawo</w>": 596,
      "listopada</w>": 597,
      "wyniku</w>": 598,
      "związane</w>": 599,
      "2004</w>": 600,
      "ano</w>": 601,
      "wa": 602,
      "sz</w>": 603,
      "grupy</w>": 604,
      "coś</w>": 605,
      "pytania</w>": 606,
      "ustawa</w>": 607,
      "gdyż</w>": 608,
      "rze</w>": 609,
      "in": 610,
      "Polskiej</w>": 611,
      "państwo</w>": 612,
      "dzie</w>": 613,
      "da": 614,
      "domu</w>": 615,
      "wynika</w>": 616,
      "zadań</w>": 617,
      "ało</w>": 618,
      "Re": 619,
      "Ko": 620,
      "panie</w>": 621,
      "2000</w>": 622,
      "se": 623,
      "kilku</w>": 624,
      "an": 625,
      "onych</w>": 626,
      "pomiędzy</w>": 627,
      "13</w>": 628,
      "polskiego</w>": 629,
      "decyzji</w>": 630,
      "owanych</w>": 631,
      "bu": 632,
      "Jego</w>": 633,
      "dy</w>": 634,
      "h": 635,
      "ww.</w>": 636,
      "Był</w>": 637,
      "trzy</w>": 638,
      "nik</w>": 639,
      "ne": 640,
      "wcześniej</w>": 641,
      "rodzaju</w>": 642,
      "ustawie</w>": 643,
      "lo": 644,
      "głównie</w>": 645,
      "17</w>": 646,
      "świadczeń</w>": 647,
      "swoją</w>": 648,
      "cję</w>": 649,
      "programu</w>": 650,
      "umowy</w>": 651,
      "pierwszym</w>": 652,
      "łem</w>": 653,
      "ach</w>": 654,
      "poza</w>": 655,
      "16": 656,
      "ać</w>": 657,
      "wie</w>": 658,
      "kosztów</w>": 659,
      "stanowi</w>": 660,
      "polskiej</w>": 661,
      "czne</w>": 662,
      "nowe</w>": 663,
      "Rzeczypospolitej</w>": 664,
      "działalność</w>": 665,
      "me": 666,
      "nieruchomości</w>": 667,
      "postępowania</w>": 668,
      "50</w>": 669,
      "innymi</w>": 670,
      "drugiej</w>": 671,
      "Według</w>": 672,
      "ow": 673,
      "usług</w>": 674,
      "r": 675,
      "według</w>": 676,
      "trakcie</w>": 677,
      "2005</w>": 678,
      "lutego</w>": 679,
      "wniosek</w>": 680,
      "lu": 681,
      "swojej</w>": 682,
      "sa": 683,
      "6": 684,
      "Mi": 685,
      "Pa": 686,
      "Natomiast</w>": 687,
      "pro": 688,
      "jaki</w>": 689,
      "ga": 690,
      "miejsca</w>": 691,
      "końca</w>": 692,
      "razem</w>": 693,
      "ciągu</w>": 694,
      "organizacji</w>": 695,
      "SA</w>": 696,
      "Ministerstwo</w>": 697,
      "prawie</w>": 698,
      "Kto</w>": 699,
      "najbardziej</w>": 700,
      "b</w>": 701,
      "system</w>": 702,
      "powodu</w>": 703,
      "szczególnie</w>": 704,
      "Li": 705,
      "liśmy</w>": 706,
      "związanych</w>": 707,
      "ła": 708,
      "wśród</w>": 709,
      "su": 710,
      "problem</w>": 711,
      "km</w>": 712,
      "niu</w>": 713,
      "opieki</w>": 714,
      "zostanie</w>": 715,
      "2001</w>": 716,
      "firmy</w>": 717,
      "szkoły</w>": 718,
      "swoim</w>": 719,
      "ko</w>": 720,
      "pierwsze</w>": 721,
      "ile</w>": 722,
      "rozwiązania</w>": 723,
      "7": 724,
      "st": 725,
      "sprawy</w>": 726,
      "jednego</w>": 727,
      "ra</w>": 728,
      "ności</w>": 729,
      "tami</w>": 730,
      "no": 731,
      "Ka": 732,
      "ga</w>": 733,
      "koniec</w>": 734,
      "anie</w>": 735,
      "zatem</w>": 736,
      "pracę</w>": 737,
      "wówczas</w>": 738,
      "dwie</w>": 739,
      "ń</w>": 740,
      "prace</w>": 741,
      "stosunku</w>": 742,
      "bez": 743,
      "24</w>": 744,
      "ru": 745,
      "pierwszej</w>": 746,
      "sk": 747,
      "22</w>": 748,
      "bo": 749,
      "dzi": 750,
      "niem</w>": 751,
      "ch</w>": 752,
      "skie</w>": 753,
      "dotyczy</w>": 754,
      "ami</w>": 755,
      "dzień</w>": 756,
      "21</w>": 757,
      "be": 758,
      "19</w>": 759,
      "dotyczących</w>": 760,
      "kontroli</w>": 761,
      "brak</w>": 762,
      "100</w>": 763,
      "gospodarki</w>": 764,
      "czny</w>": 765,
      "jednej</w>": 766,
      "15": 767,
      "wsi</w>": 768,
      "produkcji</w>": 769,
      "dziś</w>": 770,
      "społecznej</w>": 771,
      "tu": 772,
      "ja": 773,
      "Polskiego</w>": 774,
      "polityki</w>": 775,
      "owano</w>": 776,
      "ar": 777,
      "*</w>": 778,
      "Dlatego</w>": 779,
      "projekcie</w>": 780,
      "ego</w>": 781,
      "9": 782,
      "cki</w>": 783,
      "skich</w>": 784,
      "rodziny</w>": 785,
      "klubu</w>": 786,
      "stronie</w>": 787,
      "przepisy</w>": 788,
      "oczywiście</w>": 789,
      "Należy</w>": 790,
      "stan</w>": 791,
      "Komisja</w>": 792,
      "dopiero</w>": 793,
      "17": 794,
      "ry": 795,
      "bezpieczeństwa</w>": 796,
      "skim</w>": 797,
      "zasady</w>": 798,
      "odpowiedzi</w>": 799,
      "poz.</w>": 800,
      "takiej</w>": 801,
      "czy": 802,
      "wie": 803,
      "uwagi</w>": 804,
      "ckiego</w>": 805,
      "je": 806,
      "Ra": 807,
      "Do": 808,
      "Obecnie</w>": 809,
      "kto</w>": 810,
      "23</w>": 811,
      "RP</w>": 812,
      "Ja</w>": 813,
      "każdy</w>": 814,
      "potem</w>": 815,
      "środowiska</w>": 816,
      "anych</w>": 817,
      "nika</w>": 818,
      "skład</w>": 819,
      "ania</w>": 820,
      "Zgodnie</w>": 821,
      "8": 822,
      "posiada</w>": 823,
      "cały</w>": 824,
      "Od": 825,
      "onego</w>": 826,
      "takiego</w>": 827,
      "Pod": 828,
      "De": 829,
      "ry</w>": 830,
      "2015</w>": 831,
      "Mam</w>": 832,
      "służby</w>": 833,
      "jednostek</w>": 834,
      "rzeczy</w>": 835,
      "Ministrów</w>": 836,
      "2003</w>": 837,
      "coraz</w>": 838,
      "fi": 839,
      "Warszawie</w>": 840,
      "31</w>": 841,
      "Państwa</w>": 842,
      "tytułu</w>": 843,
      "praw</w>": 844,
      "Wi": 845,
      "kwestii</w>": 846,
      "Ba": 847,
      "bądź</w>": 848,
      "ustaw</w>": 849,
      "naprawdę</w>": 850,
      "porządku</w>": 851,
      "prostu</w>": 852,
      "Europy</w>": 853,
      "owali</w>": 854,
      "wyłącznie</w>": 855,
      "zadania</w>": 856,
      "administracji</w>": 857,
      "V": 858,
      "Le": 859,
      "zwłaszcza</w>": 860,
      "jednostki</w>": 861,
      "Przy": 862,
      "sta": 863,
      "or": 864,
      "poszczególnych</w>": 865,
      "Ja": 866,
      "ujące</w>": 867,
      "samorządu</w>": 868,
      "tach</w>": 869,
      "and</w>": 870,
      "św.</w>": 871,
      "Senatu</w>": 872,
      "cze</w>": 873,
      "oną</w>": 874,
      "27</w>": 875,
      "trzech</w>": 876,
      "wy</w>": 877,
      "będziemy</w>": 878,
      "Pi": 879,
      "wiem</w>": 880,
      "chyba</w>": 881,
      "ce": 882,
      "al": 883,
      "sto": 884,
      "ńskiej</w>": 885,
      "byli</w>": 886,
      "onym</w>": 887,
      "cy": 888,
      "v": 889,
      "mniej</w>": 890,
      "mógł</w>": 891,
      "liczby</w>": 892,
      "om</w>": 893,
      "tyle</w>": 894,
      "ńskiego</w>": 895,
      "drogi</w>": 896,
      "owaniu</w>": 897,
      "ruchu</w>": 898,
      "sy</w>": 899,
      "Ro": 900,
      "wartości</w>": 901,
      "mówi</w>": 902,
      "cznego</w>": 903,
      "współpracy</w>": 904,
      "ujących</w>": 905,
      "ujący</w>": 906,
      "taka</w>": 907,
      "naszego</w>": 908,
      "cznym</w>": 909,
      "poziomie</w>": 910,
      "st</w>": 911,
      "powinien</w>": 912,
      "inwestycji</w>": 913,
      "J": 914,
      "punktu</w>": 915,
      "choć</w>": 916,
      "jedną</w>": 917,
      "jednocześnie</w>": 918,
      "di": 919,
      "Podczas</w>": 920,
      "ti": 921,
      "2002</w>": 922,
      "ge": 923,
      "cji</w>": 924,
      "owała</w>": 925,
      "koszty</w>": 926,
      "cza</w>": 927,
      "wniosku</w>": 928,
      "przykład</w>": 929,
      "go": 930,
      "pe": 931,
      "śmierci</w>": 932,
      "cją</w>": 933,
      "okres</w>": 934,
      "przeciw</w>": 935,
      "informacje</w>": 936,
      "wał</w>": 937,
      "nad": 938,
      "ński</w>": 939,
      "miały</w>": 940,
      "naszym</w>": 941,
      "1999</w>": 942,
      "onej</w>": 943,
      "26</w>": 944,
      "świecie</w>": 945,
      "Panie</w>": 946,
      "panów</w>": 947,
      "ży": 948,
      "jestem</w>": 949,
      "gry</w>": 950,
      "III</w>": 951,
      "takim</w>": 952,
      "chce</w>": 953,
      "28</w>": 954,
      "ki": 955,
      "en": 956,
      "mu": 957,
      "nowego</w>": 958,
      "gra": 959,
      "on": 960,
      "fakt</w>": 961,
      "cznych</w>": 962,
      "owie</w>": 963,
      "wszyscy</w>": 964,
      "29</w>": 965,
      "cznej</w>": 966,
      "rękę</w>": 967,
      "40</w>": 968,
      "prawnych</w>": 969,
      "postaci</w>": 970,
      "ałem</w>": 971,
      "pie": 972,
      "zakresu</w>": 973,
      "światowej</w>": 974,
      "kierunku</w>": 975,
      "owo</w>": 976,
      "ające</w>": 977,
      "wać</w>": 978,
      "finansowych</w>": 979,
      "ek</w>": 980,
      "warunków</w>": 981,
      "rem</w>": 982,
      "ających</w>": 983,
      "ej</w>": 984,
      "spółki</w>": 985,
      "ktoś</w>": 986,
      "mimo</w>": 987,
      "ską</w>": 988,
      "historii</w>": 989,
      ".": 990,
      "we": 991,
      "nami</w>": 992,
      "drodze</w>": 993,
      "naszej</w>": 994,
      "nigdy</w>": 995,
      "co": 996,
      "sobą</w>": 997,
      "dużo</w>": 998,
      "pu": 999,
      "czna</w>": 1000,
      "członków</w>": 1001,
      "owanej</w>": 1002,
      "Dla</w>": 1003,
      "oni</w>": 1004,
      "pkt</w>": 1005,
      "du": 1006,
      "x</w>": 1007,
      "tj.</w>": 1008,
      "znacznie</w>": 1009,
      "linii</w>": 1010,
      "Pracy</w>": 1011,
      "powinny</w>": 1012,
      "am</w>": 1013,
      "województwa</w>": 1014,
      "Jednak</w>": 1015,
      "razie</w>": 1016,
      "swojego</w>": 1017,
      "so": 1018,
      "sza</w>": 1019,
      "wydaje</w>": 1020,
      "przecież</w>": 1021,
      "tra": 1022,
      "owanego</w>": 1023,
      "jakim</w>": 1024,
      "publicznej</w>": 1025,
      "swój</w>": 1026,
      "Sa": 1027,
      "cje</w>": 1028,
      "budowy</w>": 1029,
      "cz</w>": 1030,
      "naszych</w>": 1031,
      "zbyt</w>": 1032,
      "czną</w>": 1033,
      "sprzedaży</w>": 1034,
      "miesięcy</w>": 1035,
      "sieci</w>": 1036,
      "większości</w>": 1037,
      "dalej</w>": 1038,
      "Zdrowia</w>": 1039,
      "14": 1040,
      "możliwe</w>": 1041,
      "opinii</w>": 1042,
      "Jednocześnie</w>": 1043,
      "Pani</w>": 1044,
      "0</w>": 1045,
      "ul.</w>": 1046,
      "er": 1047,
      "chciałbym</w>": 1048,
      "ri": 1049,
      "liczba</w>": 1050,
      "The</w>": 1051,
      "sem</w>": 1052,
      "Ministerstwa</w>": 1053,
      "wo": 1054,
      "Mar": 1055,
      "całej</w>": 1056,
      "zespołu</w>": 1057,
      "ze": 1058,
      "1998</w>": 1059,
      "Mo": 1060,
      "an</w>": 1061,
      "pomoc</w>": 1062,
      "razy</w>": 1063,
      "gdyby</w>": 1064,
      "ponownie</w>": 1065,
      "nicy</w>": 1066,
      "x": 1067,
      "wzrost</w>": 1068,
      "ckiej</w>": 1069,
      "dość</w>": 1070,
      "przeciwko</w>": 1071,
      "Sta": 1072,
      "wątpliwości</w>": 1073,
      "ł": 1074,
      "instytucji</w>": 1075,
      "ludzie</w>": 1076,
      "finansów</w>": 1077,
      "wynosi</w>": 1078,
      "ś": 1079,
      "charakter</w>": 1080,
      "rzy</w>": 1081,
      "taką</w>": 1082,
      "rze": 1083,
      "projektów</w>": 1084,
      "zy</w>": 1085,
      "systemie</w>": 1086,
      "2016</w>": 1087,
      "żadnych</w>": 1088,
      "ter</w>": 1089,
      "zdobył</w>": 1090,
      "formie</w>": 1091,
      "Se": 1092,
      "wody</w>": 1093,
      "człowieka</w>": 1094,
      "możemy</w>": 1095,
      "Funduszu</w>": 1096,
      "kowe</w>": 1097,
      "ostatnich</w>": 1098,
      "kar": 1099,
      "rozwiązań</w>": 1100,
      "miejscowości</w>": 1101,
      "Bardzo</w>": 1102,
      "lem</w>": 1103,
      "znajdują</w>": 1104,
      "mar": 1105,
      "warunki</w>": 1106,
      "szkół</w>": 1107,
      "każdym</w>": 1108,
      "ym</w>": 1109,
      "sze</w>": 1110,
      "nowej</w>": 1111,
      "sta</w>": 1112,
      "owymi</w>": 1113,
      "60</w>": 1114,
      "stopniu</w>": 1115,
      "1997</w>": 1116,
      "wanie</w>": 1117,
      "1": 1118,
      "otrzymał</w>": 1119,
      "Ch": 1120,
      "ana</w>": 1121,
      "obywateli</w>": 1122,
      "nowy</w>": 1123,
      "istnieje</w>": 1124,
      "Nr</w>": 1125,
      "stanowiska</w>": 1126,
      "Jakie</w>": 1127,
      "powinna</w>": 1128,
      "gi</w>": 1129,
      "cyjnych</w>": 1130,
      "powinno</w>": 1131,
      "ający</w>": 1132,
      "Ni": 1133,
      "ton</w>": 1134,
      "uję</w>": 1135,
      "tymi</w>": 1136,
      "Al": 1137,
      "rz": 1138,
      "szczególności</w>": 1139,
      "cyjne</w>": 1140,
      "mocy</w>": 1141,
      "funkcjonowania</w>": 1142,
      "cka</w>": 1143,
      "potrzeby</w>": 1144,
      "wymaga</w>": 1145,
      "nadal</w>": 1146,
      "ż</w>": 1147,
      "współ": 1148,
      "13": 1149,
      "S</w>": 1150,
      "zabranie</w>": 1151,
      "sprawa</w>": 1152,
      "większość</w>": 1153,
      "podkreślić</w>": 1154,
      "PKP</w>": 1155,
      "pla": 1156,
      "szy": 1157,
      "prowadzi</w>": 1158,
      "pań</w>": 1159,
      "mowa</w>": 1160,
      "dyskusji</w>": 1161,
      "2": 1162,
      "podnieść</w>": 1163,
      "jakości</w>": 1164,
      "Bu": 1165,
      "sytuacja</w>": 1166,
      "dziecka</w>": 1167,
      "prowadzenia</w>": 1168,
      "szybko</w>": 1169,
      "niki</w>": 1170,
      "Przez</w>": 1171,
      "owanym</w>": 1172,
      "miało</w>": 1173,
      "ad": 1174,
      "ha</w>": 1175,
      "liście</w>": 1176,
      "program</w>": 1177,
      "świadczenia</w>": 1178,
      "terytorialnego</w>": 1179,
      "Dzięki</w>": 1180,
      "zdaniem</w>": 1181,
      "zespół</w>": 1182,
      "całego</w>": 1183,
      "ników</w>": 1184,
      "/</w>": 1185,
      "zdrowotnej</w>": 1186,
      "różne</w>": 1187,
      "mld</w>": 1188,
      "każdego</w>": 1189,
      "gmin</w>": 1190,
      "zasad</w>": 1191,
      "proponuje</w>": 1192,
      "zostać</w>": 1193,
      "Bo": 1194,
      "Be": 1195,
      "Lu": 1196,
      "szy</w>": 1197,
      "dane</w>": 1198,
      "rozpoczął</w>": 1199,
      "klub</w>": 1200,
      "celem</w>": 1201,
      "przyjęciem</w>": 1202,
      "samego</w>": 1203,
      "Jana</w>": 1204,
      "pełni</w>": 1205,
      "U</w>": 1206,
      "pewno</w>": 1207,
      "nię</w>": 1208,
      "kolei</w>": 1209,
      "końcu</w>": 1210,
      "000</w>": 1211,
      "zostaną</w>": 1212,
      "Gdy</w>": 1213,
      "B</w>": 1214,
      "Jako</w>": 1215,
      "12": 1216,
      "pomocą</w>": 1217,
      "rozwój</w>": 1218,
      "polskie</w>": 1219,
      "stwo</w>": 1220,
      "badań</w>": 1221,
      "cha</w>": 1222,
      "Chciałbym</w>": 1223,
      "realizację</w>": 1224,
      "mie</w>": 1225,
      "ha": 1226,
      "cznie</w>": 1227,
      "mie": 1228,
      "Spraw</w>": 1229,
      "La": 1230,
      "lu</w>": 1231,
      "sy": 1232,
      "rozporządzenia</w>": 1233,
      "głos</w>": 1234,
      "su</w>": 1235,
      "wpływ</w>": 1236,
      "gi": 1237,
      "gospodarczej</w>": 1238,
      "energii</w>": 1239,
      "U.</w>": 1240,
      "Ta": 1241,
      "ie</w>": 1242,
      "Dz.</w>": 1243,
      "nienie</w>": 1244,
      "10": 1245,
      "ziemi</w>": 1246,
      "badania</w>": 1247,
      "muszą</w>": 1248,
      "polskim</w>": 1249,
      "trochę</w>": 1250,
      "kultury</w>": 1251,
      "nimi</w>": 1252,
      "zatrudnienia</w>": 1253,
      "powierzchni</w>": 1254,
      "D</w>": 1255,
      "vi": 1256,
      "byłoby</w>": 1257,
      "Ten</w>": 1258,
      "kowy</w>": 1259,
      "akcji</w>": 1260,
      "będę</w>": 1261,
      "mówił</w>": 1262,
      "zm.</w>": 1263,
      "oznacza</w>": 1264,
      "cą</w>": 1265,
      "zechce</w>": 1266,
      "Me": 1267,
      "ustawą</w>": 1268,
      "ńska</w>": 1269,
      "duże</w>": 1270,
      "samo</w>": 1271,
      "zi": 1272,
      "nadzieję</w>": 1273,
      "owi": 1274,
      "un": 1275,
      "fa": 1276,
      "Narodowego</w>": 1277,
      "miasto</w>": 1278,
      "przyjęcie</w>": 1279,
      "Kiedy</w>": 1280,
      "miejsc</w>": 1281,
      "zy": 1282,
      "ca": 1283,
      "stał</w>": 1284,
      "finansowe</w>": 1285,
      "sie": 1286,
      "Pana</w>": 1287,
      "nę</w>": 1288,
      "rolę</w>": 1289,
      "T</w>": 1290,
      "Ar": 1291,
      "An": 1292,
      "niach</w>": 1293,
      "Klubu</w>": 1294,
      "rozwiązanie</w>": 1295,
      "nach</w>": 1296,
      "kobiet</w>": 1297,
      "jedna</w>": 1298,
      "przycisk</w>": 1299,
      "informuję</w>": 1300,
      "pieniądze</w>": 1301,
      "nasze</w>": 1302,
      "cze": 1303,
      "kolejnych</w>": 1304,
      "kra": 1305,
      "łam</w>": 1306,
      "społecznych</w>": 1307,
      "Otóż</w>": 1308,
      "os": 1309,
      "ot": 1310,
      "In": 1311,
      "kwoty</w>": 1312,
      "ży</w>": 1313,
      "przewiduje</w>": 1314,
      "rzeczywiście</w>": 1315,
      "zrobić</w>": 1316,
      "nikt</w>": 1317,
      "najmniej</w>": 1318,
      "czynności</w>": 1319,
      "obowiązek</w>": 1320,
      "wania</w>": 1321,
      "drugie</w>": 1322,
      "przyjął</w>": 1323,
      "momencie</w>": 1324,
      "Przy</w>": 1325,
      "kowa</w>": 1326,
      "drugi</w>": 1327,
      "ńskim</w>": 1328,
      "czą</w>": 1329,
      "ńskich</w>": 1330,
      "mieli</w>": 1331,
      "cie": 1332,
      "daje</w>": 1333,
      "mm</w>": 1334,
      "obu</w>": 1335,
      "ś</w>": 1336,
      "der</w>": 1337,
      "80</w>": 1338,
      "lepiej</w>": 1339,
      "kolejne</w>": 1340,
      "kon": 1341,
      "czasem</w>": 1342,
      "nikiem</w>": 1343,
      "us</w>": 1344,
      "panu</w>": 1345,
      "cyjnej</w>": 1346,
      "meczu</w>": 1347,
      "wprowadzenie</w>": 1348,
      "my": 1349,
      "og": 1350,
      "pośle</w>": 1351,
      "pła": 1352,
      "funkcję</w>": 1353,
      "warto</w>": 1354,
      "Projekt</w>": 1355,
      "oceny</w>": 1356,
      "warunkach</w>": 1357,
      "centrum</w>": 1358,
      "nacisnąć</w>": 1359,
      "nienia</w>": 1360,
      "XX</w>": 1361,
      "zupełnie</w>": 1362,
      "ważne</w>": 1363,
      "Finansów</w>": 1364,
      "decyzję</w>": 1365,
      "dróg</w>": 1366,
      "sprawach</w>": 1367,
      "kategorii</w>": 1368,
      "niestety</w>": 1369,
      "bezpośrednio</w>": 1370,
      "dziennego</w>": 1371,
      "er</w>": 1372,
      "ogóle</w>": 1373,
      "Są</w>": 1374,
      "głosów</w>": 1375,
      "cia</w>": 1376,
      "rami</w>": 1377,
      "kowych</w>": 1378,
      "względem</w>": 1379,
      "państw</w>": 1380,
      "polski</w>": 1381,
      "podmiotów</w>": 1382,
      "czki</w>": 1383,
      "mieście</w>": 1384,
      "Stwierdzam</w>": 1385,
      "stwa</w>": 1386,
      "chcę</w>": 1387,
      "Si": 1388,
      "gu": 1389,
      "Ł": 1390,
      "Y": 1391,
      "jedno</w>": 1392,
      "obszarze</w>": 1393,
      "py</w>": 1394,
      "innego</w>": 1395,
      "pewne</w>": 1396,
      "70</w>": 1397,
      "is</w>": 1398,
      "pierwszego</w>": 1399,
      "jakiś</w>": 1400,
      "ba</w>": 1401,
      "potrzeb</w>": 1402,
      "tek</w>": 1403,
      "ych</w>": 1404,
      "ceny</w>": 1405,
      "Oczywiście</w>": 1406,
      "cm</w>": 1407,
      "ckich</w>": 1408,
      "im.</w>": 1409,
      "sprawę</w>": 1410,
      "mogę</w>": 1411,
      "produktów</w>": 1412,
      "poprawkę</w>": 1413,
      "uprzejmie</w>": 1414,
      "Następnie</w>": 1415,
      "Może</w>": 1416,
      "zawiera</w>": 1417,
      "cyjnego</w>": 1418,
      "firm</w>": 1419,
      "jaką</w>": 1420,
      "braku</w>": 1421,
      "ter": 1422,
      "jakby</w>": 1423,
      "reprezentacji</w>": 1424,
      "owaną</w>": 1425,
      "owaniem</w>": 1426,
      "proces</w>": 1427,
      "krajów</w>": 1428,
      "Bi": 1429,
      "stanowią</w>": 1430,
      "zwrócić</w>": 1431,
      "Klub</w>": 1432,
      "poziom</w>": 1433,
      "cyjny</w>": 1434,
      "at": 1435,
      "Policji</w>": 1436,
      "tytuł</w>": 1437,
      "problemy</w>": 1438,
      "moim</w>": 1439,
      "czenie</w>": 1440,
      "Ha": 1441,
      "pory</w>": 1442,
      "problemów</w>": 1443,
      "całą</w>": 1444,
      "C</w>": 1445,
      "Polaków</w>": 1446,
      "Jan</w>": 1447,
      "ing</w>": 1448,
      "pre": 1449,
      "znaczenie</w>": 1450,
      "rady</w>": 1451,
      "wsparcia</w>": 1452,
      "Ru": 1453,
      "ści</w>": 1454,
      "przed": 1455,
      "wydatków</w>": 1456,
      "poprawek</w>": 1457,
      "narodowej</w>": 1458,
      "pieniędzy</w>": 1459,
      "Skarbu</w>": 1460,
      "par": 1461,
      "R</w>": 1462,
      "usługi</w>": 1463,
      "ustawę</w>": 1464,
      "członkiem</w>": 1465,
      "ur": 1466,
      "kowej</w>": 1467,
      "0": 1468,
      "działa</w>": 1469,
      "Bo</w>": 1470,
      "połowie</w>": 1471,
      "90</w>": 1472,
      "se</w>": 1473,
      "stronę</w>": 1474,
      "f</w>": 1475,
      "si</w>": 1476,
      "jąc</w>": 1477,
      "h</w>": 1478,
      "owały</w>": 1479,
      "ran": 1480,
      "cztery</w>": 1481,
      "pozycji</w>": 1482,
      "łu": 1483,
      "prezesa</w>": 1484,
      "uczniów</w>": 1485,
      "dlaczego</w>": 1486,
      "Te": 1487,
      "żołnierzy</w>": 1488,
      "Pod</w>": 1489,
      "Ca": 1490,
      "lan": 1491,
      "wzrostu</w>": 1492,
      "studia</w>": 1493,
      "finansowania</w>": 1494,
      "..</w>": 1495,
      "Sprawiedliwość</w>": 1496,
      "Już</w>": 1497,
      "rach</w>": 1498,
      "moje</w>": 1499,
      "poziomu</w>": 1500,
      "M</w>": 1501,
      "publicznego</w>": 1502,
      "punktów</w>": 1503,
      "sza": 1504,
      "dz": 1505,
      "ców</w>": 1506,
      "powiatu</w>": 1507,
      "udało</w>": 1508,
      "prezydenta</w>": 1509,
      "sk</w>": 1510,
      "obowiązku</w>": 1511,
      "ckim</w>": 1512,
      "by": 1513,
      "No</w>": 1514,
      "jakieś</w>": 1515,
      "Su": 1516,
      "odniesieniu</w>": 1517,
      "rzy": 1518,
      "Je": 1519,
      "bar": 1520,
      "ący</w>": 1521,
      "kre": 1522,
      "że": 1523,
      "słowa</w>": 1524,
      "innym</w>": 1525,
      "Sprawiedliwości</w>": 1526,
      "osoba</w>": 1527,
      "sów</w>": 1528,
      "określonych</w>": 1529,
      "wali</w>": 1530,
      "bra": 1531,
      "owski</w>": 1532,
      "XIX</w>": 1533,
      "K</w>": 1534,
      "występuje</w>": 1535,
      "kom</w>": 1536,
      "wała</w>": 1537,
      "Wa": 1538,
      "mogli</w>": 1539,
      "wyżej</w>": 1540,
      "nością</w>": 1541,
      "Dlaczego</w>": 1542,
      "Niestety</w>": 1543,
      "żenie</w>": 1544,
      "tysięcy</w>": 1545,
      "um</w>": 1546,
      "nia": 1547,
      "Centrum</w>": 1548,
      "umów</w>": 1549,
      "odpowiedź</w>": 1550,
      "rza</w>": 1551,
      "Pro": 1552,
      "całości</w>": 1553,
      "budynku</w>": 1554,
      "charakterze</w>": 1555,
      "nieco</w>": 1556,
      "okresu</w>": 1557,
      "ste": 1558,
      "wartość</w>": 1559,
      "nauki</w>": 1560,
      "raczej</w>": 1561,
      "Ne": 1562,
      "He": 1563,
      "wprowadzenia</w>": 1564,
      "1996</w>": 1565,
      "problemu</w>": 1566,
      "zmiana</w>": 1567,
      "br.</w>": 1568,
      "każdej</w>": 1569,
      "wypadku</w>": 1570,
      "władzy</w>": 1571,
      "wojnie</w>": 1572,
      "Ta</w>": 1573,
      "mistrzostw</w>": 1574,
      "Myślę</w>": 1575,
      "czka</w>": 1576,
      "200</w>": 1577,
      "ści": 1578,
      "poli": 1579,
      "ące</w>": 1580,
      "fe": 1581,
      "cho": 1582,
      "nowelizacji</w>": 1583,
      "procesu</w>": 1584,
      "samej</w>": 1585,
      "L</w>": 1586,
      "owskiego</w>": 1587,
      "krajach</w>": 1588,
      "tor</w>": 1589,
      "sprawiedliwości</w>": 1590,
      "Minister</w>": 1591,
      "USA</w>": 1592,
      "Europie</w>": 1593,
      "całym</w>": 1594,
      "wykonywania</w>": 1595,
      "sytuację</w>": 1596,
      "cen</w>": 1597,
      "niejsze</w>": 1598,
      "UE</w>": 1599,
      "mniejszości</w>": 1600,
      "dwu": 1601,
      "Ku": 1602,
      "Du": 1603,
      "bie": 1604,
      "mój</w>": 1605,
      "sp": 1606,
      "wal": 1607,
      "budowę</w>": 1608,
      "Narodowej</w>": 1609,
      "powiedział</w>": 1610,
      "łącznie</w>": 1611,
      "udziału</w>": 1612,
      "stra": 1613,
      "towarów</w>": 1614,
      "Gra": 1615,
      "ującego</w>": 1616,
      "Wie": 1617,
      "regulacji</w>": 1618,
      "dzi</w>": 1619,
      "E</w>": 1620,
      "Kar": 1621,
      "druku</w>": 1622,
      "Demokratycznej</w>": 1623,
      "1994</w>": 1624,
      "stało</w>": 1625,
      "dom</w>": 1626,
      "mało</w>": 1627,
      "th": 1628,
      "Francji</w>": 1629,
      "dem</w>": 1630,
      "nu": 1631,
      "kowego</w>": 1632,
      "ckie</w>": 1633,
      "en</w>": 1634,
      "mówić</w>": 1635,
      "du</w>": 1636,
      "cel</w>": 1637,
      "pozwala</w>": 1638,
      "ie": 1639,
      "man": 1640,
      "he": 1641,
      "Parlamentarnego</w>": 1642,
      "organów</w>": 1643,
      "programów</w>": 1644,
      "ska": 1645,
      "anty": 1646,
      "Rozwoju</w>": 1647,
      "sami</w>": 1648,
      "walki</w>": 1649,
      "rodzin</w>": 1650,
      "życiu</w>": 1651,
      "żyć</w>": 1652,
      "ilości</w>": 1653,
      "przedsiębiorstw</w>": 1654,
      "Jej</w>": 1655,
      "Ś": 1656,
      "ę": 1657,
      "ących</w>": 1658,
      "okazji</w>": 1659,
      "projektem</w>": 1660,
      "kwotę</w>": 1661,
      "jesteśmy</w>": 1662,
      "przyszłości</w>": 1663,
      "pracował</w>": 1664,
      "pół": 1665,
      "wniosków</w>": 1666,
      "Naj": 1667,
      "pa</w>": 1668,
      "powoduje</w>": 1669,
      "znaleźć</w>": 1670,
      "man</w>": 1671,
      "wersji</w>": 1672,
      "powyżej</w>": 1673,
      "cę</w>": 1674,
      "X": 1675,
      "ającym</w>": 1676,
      "1945</w>": 1677,
      "transportu</w>": 1678,
      "zajął</w>": 1679,
      "wysokość</w>": 1680,
      "Zjednoczonych</w>": 1681,
      "dziecko</w>": 1682,
      "per": 1683,
      "1991</w>": 1684,
      "So": 1685,
      "sch": 1686,
      "pierwszych</w>": 1687,
      "pra": 1688,
      "ającego</w>": 1689,
      "cza": 1690,
      "stron</w>": 1691,
      "dobre</w>": 1692,
      "ds.</w>": 1693,
      "wiedzy</w>": 1694,
      "ak": 1695,
      "uchwały</w>": 1696,
      "ującym</w>": 1697,
      "P</w>": 1698,
      "rolnictwa</w>": 1699,
      "sama</w>": 1700,
      "funkcji</w>": 1701,
      "Ministra</w>": 1702,
      "swego</w>": 1703,
      "sty": 1704,
      "wiadomo</w>": 1705,
      "określone</w>": 1706,
      "wały</w>": 1707,
      "ut": 1708,
      "obecnej</w>": 1709,
      "tki</w>": 1710,
      "tro": 1711,
      "listy</w>": 1712,
      "cyjnym</w>": 1713,
      "mon": 1714,
      "trudno</w>": 1715,
      "alne</w>": 1716,
      "panią</w>": 1717,
      "inny</w>": 1718,
      "widzenia</w>": 1719,
      "ująca</w>": 1720,
      "Mimo</w>": 1721,
      "prawne</w>": 1722,
      "przypadkach</w>": 1723,
      "war": 1724,
      "V</w>": 1725,
      "ającej</w>": 1726,
      "ck</w>": 1727,
      "Lewicy</w>": 1728,
      "drugim</w>": 1729,
      "sty</w>": 1730,
      "Izby</w>": 1731,
      "pragnę</w>": 1732,
      "dzie": 1733,
      "Został</w>": 1734,
      "stała</w>": 1735,
      "Prawa</w>": 1736,
      "klasy</w>": 1737,
      "głosowania</w>": 1738,
      "kadencji</w>": 1739,
      "formy</w>": 1740,
      "zo": 1741,
      "liczne</w>": 1742,
      "prawem</w>": 1743,
      "kowi</w>": 1744,
      "dzić</w>": 1745,
      "ająca</w>": 1746,
      "długo</w>": 1747,
      "inaczej</w>": 1748,
      "kwestia</w>": 1749,
      "amy</w>": 1750,
      "wnosi</w>": 1751,
      "Ż": 1752,
      "ho": 1753,
      "sprawozdania</w>": 1754,
      "1995</w>": 1755,
      "nowym</w>": 1756,
      "men": 1757,
      "Roz": 1758,
      "przynajmniej</w>": 1759,
      "nica</w>": 1760,
      "prowadzone</w>": 1761,
      "edukacji</w>": 1762,
      "stosowania</w>": 1763,
      "ciała</w>": 1764,
      "Co": 1765,
      "1990</w>": 1766,
      "metrów</w>": 1767,
      "Da": 1768,
      "mogły</w>": 1769,
      "sali</w>": 1770,
      "gro": 1771,
      "Pe": 1772,
      "ministrze</w>": 1773,
      "myśli</w>": 1774,
      "nasz</w>": 1775,
      "35</w>": 1776,
      "cjach</w>": 1777,
      "Senat</w>": 1778,
      "ber": 1779,
      "najczęściej</w>": 1780,
      "trybie</w>": 1781,
      "onymi</w>": 1782,
      "spotkania</w>": 1783,
      "Krakowie</w>": 1784,
      "wynagrodzenia</w>": 1785,
      "cha": 1786,
      "dotychczas</w>": 1787,
      "2017</w>": 1788,
      "dniem</w>": 1789,
      "1992</w>": 1790,
      "zna": 1791,
      "obok</w>": 1792,
      "ia</w>": 1793,
      "społeczeństwa</w>": 1794,
      "przedstawić</w>": 1795,
      "kie": 1796,
      "uzyskał</w>": 1797,
      "przedmiotem</w>": 1798,
      "kolejny</w>": 1799,
      "tor": 1800,
      "władz</w>": 1801,
      "Ge": 1802,
      "dochodów</w>": 1803,
      "Polityki</w>": 1804,
      "uzyskania</w>": 1805,
      "Ze</w>": 1806,
      "zwierząt</w>": 1807,
      "przedsiębiorców</w>": 1808,
      "wykonania</w>": 1809,
      "cznymi</w>": 1810,
      "zakończeniu</w>": 1811,
      "00</w>": 1812,
      "siły</w>": 1813,
      "rek</w>": 1814,
      "hi": 1815,
      "1939</w>": 1816,
      "anego</w>": 1817,
      "podobnie</w>": 1818,
      "ście</w>": 1819,
      "posiedzeniu</w>": 1820,
      "pytań</w>": 1821,
      "N</w>": 1822,
      "euro</w>": 1823,
      "dodatkowe</w>": 1824,
      "Ministerstwie</w>": 1825,
      "treści</w>": 1826,
      "chociaż</w>": 1827,
      "człowiek</w>": 1828,
      "nauczycieli</w>": 1829,
      "Wszystkie</w>": 1830,
      "konieczność</w>": 1831,
      "wyraźnie</w>": 1832,
      "Wysokiej</w>": 1833,
      "sezonie</w>": 1834,
      "kową</w>": 1835,
      "hu": 1836,
      "um": 1837,
      "bym</w>": 1838,
      "tar": 1839,
      "młodzieży</w>": 1840,
      "oczy</w>": 1841,
      "Można</w>": 1842,
      "przedstawicieli</w>": 1843,
      "1993</w>": 1844,
      "ulicy</w>": 1845,
      "cu": 1846,
      "ującej</w>": 1847,
      "całkowicie</w>": 1848,
      "sku</w>": 1849,
      "kowym</w>": 1850,
      "dokładnie</w>": 1851,
      "sądu</w>": 1852,
      "now": 1853,
      "We</w>": 1854,
      "kościoła</w>": 1855,
      "oparciu</w>": 1856,
      "infrastruktury</w>": 1857,
      "szereg</w>": 1858,
      "likwidacji</w>": 1859,
      "długości</w>": 1860,
      "posłowie</w>": 1861,
      "sze": 1862,
      "Sz": 1863,
      "dniach</w>": 1864,
      "drugiego</w>": 1865,
      "ź": 1866,
      "ałam</w>": 1867,
      "zakres</w>": 1868,
      "oferty</w>": 1869,
      "premiera</w>": 1870,
      "Te</w>": 1871,
      "kobiety</w>": 1872,
      "sko": 1873,
      "wane</w>": 1874,
      "obejmuje</w>": 1875,
      "dów</w>": 1876,
      "własnych</w>": 1877,
      "wolności</w>": 1878,
      "mistrzostwach</w>": 1879,
      "cami</w>": 1880,
      "wyboru</w>": 1881,
      "przepisami</w>": 1882,
      "gar": 1883,
      "Związku</w>": 1884,
      "granicy</w>": 1885,
      "rozpatrzenia</w>": 1886,
      "chi": 1887,
      "żenia</w>": 1888,
      "IV</w>": 1889,
      "ministerstwo</w>": 1890,
      "Uniwersytetu</w>": 1891,
      "króla</w>": 1892,
      "mogła</w>": 1893,
      "ńskie</w>": 1894,
      "szcz": 1895,
      "cenie</w>": 1896,
      "niami</w>": 1897,
      "nową</w>": 1898,
      "spo": 1899,
      "sił</w>": 1900,
      "języka</w>": 1901,
      "zadanie</w>": 1902,
      "ster": 1903,
      "prawdopodobnie</w>": 1904,
      "spraw": 1905,
      "w.</w>": 1906,
      "row": 1907,
      "projekty</w>": 1908,
      "czyć</w>": 1909,
      "Fi": 1910,
      "ul": 1911,
      "doszło</w>": 1912,
      "opłat</w>": 1913,
      "zawarte</w>": 1914,
      "niezwykle</w>": 1915,
      "celów</w>": 1916,
      "Ci</w>": 1917,
      "Or": 1918,
      "rodziców</w>": 1919,
      "500</w>": 1920,
      "przedsiębiorstwa</w>": 1921,
      "ającą</w>": 1922,
      "istotne</w>": 1923,
      "Gospodarki</w>": 1924,
      "minut</w>": 1925,
      "niektóre</w>": 1926,
      "mal": 1927,
      "Ry": 1928,
      "odpowiednio</w>": 1929,
      "stać</w>": 1930,
      "Tylko</w>": 1931,
      "właściwie</w>": 1932,
      "terminie</w>": 1933,
      "niepełnosprawnych</w>": 1934,
      "jedno": 1935,
      "Warszawy</w>": 1936,
      "Di": 1937,
      "obrony</w>": 1938,
      "Go": 1939,
      "zawodowych</w>": 1940,
      "władze</w>": 1941,
      "dobra</w>": 1942,
      "wielkości</w>": 1943,
      "nowa</w>": 1944,
      "Pierwsze</w>": 1945,
      "uro": 1946,
      "Teraz</w>": 1947,
      "czek</w>": 1948,
      "kro": 1949,
      "Przed</w>": 1950,
      "ręce</w>": 1951,
      "Bar": 1952,
      "cen": 1953,
      "Izbie</w>": 1954,
      "kla": 1955,
      "grup</w>": 1956,
      "powyższym</w>": 1957,
      "ło": 1958,
      "czterech</w>": 1959,
      "prowadzenie</w>": 1960,
      "rolników</w>": 1961,
      "serii</w>": 1962,
      "podjął</w>": 1963,
      "Akademii</w>": 1964,
      "odpowiedzialności</w>": 1965,
      "liczbę</w>": 1966,
      "zakładów</w>": 1967,
      "por": 1968,
      "1989</w>": 1969,
      "powyższe</w>": 1970,
      "rynek</w>": 1971,
      "turnieju</w>": 1972,
      "nił</w>": 1973,
      "szkole</w>": 1974,
      "odrzucenie</w>": 1975,
      "ora</w>": 1976,
      "stacji</w>": 1977,
      "tka</w>": 1978,
      "grupa</w>": 1979,
      "skali</w>": 1980,
      "Platforma</w>": 1981,
      "urzędu</w>": 1982,
      "Ga": 1983,
      "towe</w>": 1984,
      "zasadzie</w>": 1985,
      "ilość</w>": 1986,
      "G</w>": 1987,
      "osobom</w>": 1988,
      "Rada</w>": 1989,
      "zauważyć</w>": 1990,
      "jazdy</w>": 1991,
      "nowo</w>": 1992,
      "wieś</w>": 1993,
      "partii</w>": 1994,
      "tom</w>": 1995,
      "powiecie</w>": 1996,
      "Pie": 1997,
      "widać</w>": 1998,
      "medal</w>": 1999,
      "samo": 2000,
      "nem</w>": 2001,
      "Ty": 2002,
      "analizy</w>": 2003,
      "prawda</w>": 2004,
      "ukończył</w>": 2005,
      "chwilę</w>": 2006,
      "Tym</w>": 2007,
      "wszy</w>": 2008,
      "sądów</w>": 2009,
      "liczyła</w>": 2010,
      "skład": 2011,
      "wyborach</w>": 2012,
      "miast</w>": 2013,
      "dużej</w>": 2014,
      "ąca</w>": 2015,
      "wystąpił</w>": 2016,
      "ali": 2017,
      "parafii</w>": 2018,
      "przeciw": 2019,
      "funduszu</w>": 2020,
      "podstawowych</w>": 2021,
      "ńską</w>": 2022,
      "blisko</w>": 2023,
      "pochodzi</w>": 2024,
      "etapie</w>": 2025,
      "anej</w>": 2026,
      "py": 2027,
      "Ochrony</w>": 2028,
      "zagranicznych</w>": 2029,
      "Urzędu</w>": 2030,
      "przedmiotowej</w>": 2031,
      "Kodeksu</w>": 2032,
      "zwykle</w>": 2033,
      "X</w>": 2034,
      "ve": 2035,
      "ochronie</w>": 2036,
      "świat</w>": 2037,
      "budżetowej</w>": 2038,
      "lenie</w>": 2039,
      "owa": 2040,
      "dokumentów</w>": 2041,
      "kan": 2042,
      "zamierza</w>": 2043,
      "godzin</w>": 2044,
      "ke</w>": 2045,
      "wnioski</w>": 2046,
      "cach</w>": 2047,
      "ymi</w>": 2048,
      "dziedzinie</w>": 2049,
      "myślę</w>": 2050,
      "prywatyzacji</w>": 2051,
      "decyzje</w>": 2052,
      "cjami</w>": 2053,
      "para": 2054,
      "mężczyzn</w>": 2055,
      "jaka</w>": 2056,
      "czenia</w>": 2057,
      "powstania</w>": 2058,
      "ludności</w>": 2059,
      "nazwę</w>": 2060,
      "wreszcie</w>": 2061,
      "cu</w>": 2062,
      "kowski</w>": 2063,
      "określa</w>": 2064,
      "poprawce</w>": 2065,
      "skarbu</w>": 2066,
      "ącym</w>": 2067,
      "aną</w>": 2068,
      "zwiększenie</w>": 2069,
      "lenia</w>": 2070,
      "nić</w>": 2071,
      "niczego</w>": 2072,
      "dzenie</w>": 2073,
      "reformy</w>": 2074,
      "jący</w>": 2075,
      "spółek</w>": 2076,
      "ostatecznie</w>": 2077,
      "op": 2078,
      "owało</w>": 2079,
      "il": 2080,
      "kli": 2081,
      "firma</w>": 2082,
      "F</w>": 2083,
      "Ju": 2084,
      "wyniki</w>": 2085,
      "45</w>": 2086,
      "cele</w>": 2087,
      "dodatkowo</w>": 2088,
      "To": 2089,
      "stro": 2090,
      "masz</w>": 2091,
      "towej</w>": 2092,
      "obiektów</w>": 2093,
      "stanowisku</w>": 2094,
      "Niemiec</w>": 2095,
      "zależności</w>": 2096,
      "sko</w>": 2097,
      "anym</w>": 2098,
      "5-": 2099,
      "chciał</w>": 2100,
      "rodzinie</w>": 2101,
      "ostatnim</w>": 2102,
      "kształcenia</w>": 2103,
      "mojej</w>": 2104,
      "eg": 2105,
      "opłaty</w>": 2106,
      "nemu</w>": 2107,
      "znaczy</w>": 2108,
      "ń": 2109,
      "zaczął</w>": 2110,
      "son</w>": 2111,
      "finansowej</w>": 2112,
      "stów</w>": 2113,
      "uprawnień</w>": 2114,
      "skoro</w>": 2115,
      "wciąż</w>": 2116,
      "razu</w>": 2117,
      "małych</w>": 2118,
      "staje</w>": 2119,
      "późn.</w>": 2120,
      "roli</w>": 2121,
      "towych</w>": 2122,
      "leg": 2123,
      "pan": 2124,
      "myśl</w>": 2125,
      "dzieje</w>": 2126,
      "Świata</w>": 2127,
      "Wielkiej</w>": 2128,
      "gmina</w>": 2129,
      "zależy</w>": 2130,
      "VAT</w>": 2131,
      "nadzoru</w>": 2132,
      "żadnego</w>": 2133,
      "szą</w>": 2134,
      "dużą</w>": 2135,
      "itp</w>": 2136,
      "Głos</w>": 2137,
      "ii</w>": 2138,
      "kow": 2139,
      "źródeł</w>": 2140,
      "niemal</w>": 2141,
      "Uniwersytecie</w>": 2142,
      "szkolenia</w>": 2143,
      "3-": 2144,
      "pozostałych</w>": 2145,
      "ąc</w>": 2146,
      "dził</w>": 2147,
      "was</w>": 2148,
      "Jeszcze</w>": 2149,
      "zd": 2150,
      "Poza</w>": 2151,
      "sztuki</w>": 2152,
      "ówki</w>": 2153,
      "kościół</w>": 2154,
      "ZSRR</w>": 2155,
      "im": 2156,
      "Bie": 2157,
      "którymi</w>": 2158,
      "ge</w>": 2159,
      "czył</w>": 2160,
      "organy</w>": 2161,
      "powstał</w>": 2162,
      "Trzeba</w>": 2163,
      "termin</w>": 2164,
      "32</w>": 2165,
      "pewnością</w>": 2166,
      "elementów</w>": 2167,
      "zamiast</w>": 2168,
      "dze</w>": 2169,
      "lar": 2170,
      "re</w>": 2171,
      "Kon": 2172,
      "czemu</w>": 2173,
      "zmianę</w>": 2174,
      "Ri": 2175,
      "znowu</w>": 2176,
      "działanie</w>": 2177,
      "kompetencji</w>": 2178,
      "uczelni</w>": 2179,
      "ciu</w>": 2180,
      "nął</w>": 2181,
      "pobliżu</w>": 2182,
      "Obywatelska</w>": 2183,
      "spośród</w>": 2184,
      "chy</w>": 2185,
      "danego</w>": 2186,
      "wokół</w>": 2187,
      "dostęp</w>": 2188,
      "społeczne</w>": 2189,
      "żył</w>": 2190,
      "alny</w>": 2191,
      "Ludowego</w>": 2192,
      "szcze": 2193,
      "obowiązków</w>": 2194,
      "obszar</w>": 2195,
      "ącego</w>": 2196,
      "cyjna</w>": 2197,
      "godz.</w>": 2198,
      "oprócz</w>": 2199,
      "tworzenia</w>": 2200,
      "com</w>": 2201,
      "ke": 2202,
      "gra</w>": 2203,
      "zasadach</w>": 2204,
      "zresztą</w>": 2205,
      "ującą</w>": 2206,
      "prowadzić</w>": 2207,
      "pełnił</w>": 2208,
      "ment</w>": 2209,
      "stopnia</w>": 2210,
      "rzekł</w>": 2211,
      "Pierwszy</w>": 2212,
      "au": 2213,
      "dać</w>": 2214,
      "Rosji</w>": 2215,
      "prawnej</w>": 2216,
      "Warto</w>": 2217,
      "Trybunału</w>": 2218,
      "for": 2219,
      "ver": 2220,
      "terytorium</w>": 2221,
      "powie": 2222,
      "tora</w>": 2223,
      "alnych</w>": 2224,
      "wspólnie</w>": 2225,
      "tan": 2226,
      "materiałów</w>": 2227,
      "dzenia</w>": 2228,
      "urządzeń</w>": 2229,
      "rolnych</w>": 2230,
      "propozycji</w>": 2231,
      "dodatkowych</w>": 2232,
      "Aby</w>": 2233,
      "powstała</w>": 2234,
      "własne</w>": 2235,
      "kur": 2236,
      "wam</w>": 2237,
      "dobry</w>": 2238,
      "zapewnić</w>": 2239,
      "pie</w>": 2240,
      "karierę</w>": 2241,
      "We": 2242,
      "ża</w>": 2243,
      "cyjną</w>": 2244,
      "wojska</w>": 2245,
      "Ustawa</w>": 2246,
      "wsparcie</w>": 2247,
      "składa</w>": 2248,
      "woj.</w>": 2249,
      "ograniczenia</w>": 2250,
      "złotych</w>": 2251,
      "bie</w>": 2252,
      "jące</w>": 2253,
      "same</w>": 2254,
      "gospodarczych</w>": 2255,
      "Ponieważ</w>": 2256,
      "domów</w>": 2257,
      "większe</w>": 2258,
      "tur": 2259,
      "leczenia</w>": 2260,
      "konsekwencji</w>": 2261,
      "gu</w>": 2262,
      "wejścia</w>": 2263,
      "owani</w>": 2264,
      "pojazdów</w>": 2265,
      "ciem</w>": 2266,
      "młodych</w>": 2267,
      "pal": 2268,
      "czasów</w>": 2269,
      "Ki": 2270,
      "żony</w>": 2271,
      "tny</w>": 2272,
      "klubów</w>": 2273,
      "cem</w>": 2274,
      "występują</w>": 2275,
      "tne</w>": 2276,
      "chcą</w>": 2277,
      "kwota</w>": 2278,
      "Była</w>": 2279,
      "zapytać</w>": 2280,
      "prawnego</w>": 2281,
      "całe</w>": 2282,
      "dużych</w>": 2283,
      "funduszy</w>": 2284,
      "zapewnienia</w>": 2285,
      "20": 2286,
      "procedury</w>": 2287,
      "at</w>": 2288,
      "den": 2289,
      "und</w>": 2290,
      "Kra": 2291,
      "własności</w>": 2292,
      "Kultury</w>": 2293,
      "Społecznej</w>": 2294,
      "drużyny</w>": 2295,
      "inicjatywy</w>": 2296,
      "Stronnictwa</w>": 2297,
      "dostępu</w>": 2298,
      "pozostaje</w>": 2299,
      "dę</w>": 2300,
      "ren": 2301,
      "stylu</w>": 2302,
      "Andrzej</w>": 2303,
      "organ</w>": 2304,
      "el": 2305,
      "Mu": 2306,
      "wskazuje</w>": 2307,
      "państwowych</w>": 2308,
      "kwestie</w>": 2309,
      "konieczności</w>": 2310,
      "ol": 2311,
      "stwie</w>": 2312,
      "idzie</w>": 2313,
      "innej</w>": 2314,
      "ubezpieczenia</w>": 2315,
      "2-": 2316,
      "ojca</w>": 2317,
      "góry</w>": 2318,
      "zawodników</w>": 2319,
      "jakich</w>": 2320,
      "sposobu</w>": 2321,
      "wany</w>": 2322,
      "nocy</w>": 2323,
      "praktycznie</w>": 2324,
      "ok": 2325,
      "zapis</w>": 2326,
      "lokalnych</w>": 2327,
      "wręcz</w>": 2328,
      "Ich</w>": 2329,
      "ro</w>": 2330,
      "zostaje</w>": 2331,
      "Dodatkowo</w>": 2332,
      "....</w>": 2333,
      "wielokrotnie</w>": 2334,
      "dużym</w>": 2335,
      "mojego</w>": 2336,
      "choroby</w>": 2337,
      "najlepiej</w>": 2338,
      "300</w>": 2339,
      "wystąpienia</w>": 2340,
      "zajmuje</w>": 2341,
      "mówiąc</w>": 2342,
      "Polskich</w>": 2343,
      "przygotowania</w>": 2344,
      "polega</w>": 2345,
      "stały</w>": 2346,
      "wszelkie</w>": 2347,
      "War": 2348,
      "ącą</w>": 2349,
      "danej</w>": 2350,
      "ostatnie</w>": 2351,
      "zostali</w>": 2352,
      "musiał</w>": 2353,
      "poniżej</w>": 2354,
      "dotacji</w>": 2355,
      "majątku</w>": 2356,
      "Ma</w>": 2357,
      "ple": 2358,
      "tnie</w>": 2359,
      "musimy</w>": 2360,
      "Fa": 2361,
      "uważa</w>": 2362,
      "dach</w>": 2363,
      "fa</w>": 2364,
      "ory</w>": 2365,
      "Bra": 2366,
      "obrotu</w>": 2367,
      "skutki</w>": 2368,
      "gatunków</w>": 2369,
      "niczym</w>": 2370,
      "zadebiutował</w>": 2371,
      "drzwi</w>": 2372,
      "właściwego</w>": 2373,
      "armii</w>": 2374,
      "europejskich</w>": 2375,
      "wydatki</w>": 2376,
      "jących</w>": 2377,
      "zarządzania</w>": 2378,
      "prezes</w>": 2379,
      "swej</w>": 2380,
      "przeszedł</w>": 2381,
      "ą": 2382,
      "6-": 2383,
      "trzy": 2384,
      "ST": 2385,
      "Ży": 2386,
      "robić</w>": 2387,
      "roślin</w>": 2388,
      "ówka</w>": 2389,
      "towany</w>": 2390,
      "broni</w>": 2391,
      "Polskie</w>": 2392,
      "1-": 2393,
      "Ho": 2394,
      "pacjentów</w>": 2395,
      "politycznych</w>": 2396,
      "studiów</w>": 2397,
      "cię</w>": 2398,
      "kg</w>": 2399,
      "uprawnienia</w>": 2400,
      "dni": 2401,
      "zu</w>": 2402,
      "podziału</w>": 2403,
      "biegu</w>": 2404,
      "sektora</w>": 2405,
      "nąć</w>": 2406,
      "Chodzi</w>": 2407,
      "utrzymania</w>": 2408,
      "elementy</w>": 2409,
      "owo-": 2410,
      "przestrzeni</w>": 2411,
      "Mie": 2412,
      "drogą</w>": 2413,
      "podmioty</w>": 2414,
      "pol": 2415,
      "ZUS</w>": 2416,
      "konstytucji</w>": 2417,
      "dra": 2418,
      "pół</w>": 2419,
      "samych</w>": 2420,
      "sąd</w>": 2421,
      "Ber": 2422,
      "premier</w>": 2423,
      "ste</w>": 2424,
      "podjąć</w>": 2425,
      "prowadził</w>": 2426,
      "Każdy</w>": 2427,
      "33</w>": 2428,
      "36</w>": 2429,
      "ser": 2430,
      "skutków</w>": 2431,
      "itd</w>": 2432,
      "win": 2433,
      "godziny</w>": 2434,
      "uzyskać</w>": 2435,
      "zgody</w>": 2436,
      "ość</w>": 2437,
      "mocno</w>": 2438,
      "budżet</w>": 2439,
      "zu": 2440,
      "Muzeum</w>": 2441,
      "niech</w>": 2442,
      "kontekście</w>": 2443,
      "pewien</w>": 2444,
      "ości</w>": 2445,
      "województwie</w>": 2446,
      "niedo": 2447,
      "uj": 2448,
      "żadnej</w>": 2449,
      "igrzyskach</w>": 2450,
      "wypowiedzi</w>": 2451,
      "wer": 2452,
      "sprzedaż</w>": 2453,
      "tować</w>": 2454,
      "ler</w>": 2455,
      "skutek</w>": 2456,
      "Sie": 2457,
      "towi</w>": 2458,
      "pomimo</w>": 2459,
      "or</w>": 2460,
      "leży</w>": 2461,
      "mieszkania</w>": 2462,
      "Kościoła</w>": 2463,
      "ponadto</w>": 2464,
      "społecznego</w>": 2465,
      "czynienia</w>": 2466,
      "Tu": 2467,
      "kom": 2468,
      "kt": 2469,
      "postępowanie</w>": 2470,
      "Vi": 2471,
      "Y</w>": 2472,
      "wewnętrznych</w>": 2473,
      "konkurencji</w>": 2474,
      "bal": 2475,
      "Takie</w>": 2476,
      "zaszczyt</w>": 2477,
      "onu</w>": 2478,
      "cką</w>": 2479,
      "wcale</w>": 2480,
      "Komitetu</w>": 2481,
      "obsługi</w>": 2482,
      "zastosowanie</w>": 2483,
      "uwadze</w>": 2484,
      "podstawy</w>": 2485,
      "Cy": 2486,
      "s.</w>": 2487,
      "No": 2488,
      "racji</w>": 2489,
      "ść</w>": 2490,
      "oświaty</w>": 2491,
      "szczy": 2492,
      "rządowej</w>": 2493,
      "krajowych</w>": 2494,
      "głównym</w>": 2495,
      "ju": 2496,
      "kary</w>": 2497,
      "nione</w>": 2498,
      "75</w>": 2499,
      "udziałem</w>": 2500,
      "zachód</w>": 2501,
      "robi</w>": 2502,
      "nazwy</w>": 2503,
      "pokoju</w>": 2504,
      "producentów</w>": 2505,
      "tow": 2506,
      "leków</w>": 2507,
      "mające</w>": 2508,
      "komisja</w>": 2509,
      "realizowane</w>": 2510,
      "samorządów</w>": 2511,
      "punkt</w>": 2512,
      "niezbędne</w>": 2513,
      "Sto": 2514,
      "Lo": 2515,
      "tru": 2516,
      "planu</w>": 2517,
      "torów</w>": 2518,
      "droga</w>": 2519,
      "praktyce</w>": 2520,
      "rów</w>": 2521,
      "zabierze</w>": 2522,
      "Chcę</w>": 2523,
      "konieczne</w>": 2524,
      "lekarza</w>": 2525,
      "zagrożenia</w>": 2526,
      "Ob": 2527,
      "dar": 2528,
      "sen": 2529,
      "Car": 2530,
      "mów</w>": 2531,
      "Stanisław</w>": 2532,
      "ur.</w>": 2533,
      "Pragnę</w>": 2534,
      "placówki</w>": 2535,
      "dyrektora</w>": 2536,
      "ącej</w>": 2537,
      "odpowiednie</w>": 2538,
      "Polskę</w>": 2539,
      "częścią</w>": 2540,
      "usta": 2541,
      "ck": 2542,
      "4-": 2543,
      "praca</w>": 2544,
      "sia</w>": 2545,
      "stu": 2546,
      "informację</w>": 2547,
      "niku</w>": 2548,
      "zdecydowanie</w>": 2549,
      "chcemy</w>": 2550,
      "regionu</w>": 2551,
      "pierwszą</w>": 2552,
      "pewnie</w>": 2553,
      "małe</w>": 2554,
      "towy</w>": 2555,
      "klientów</w>": 2556,
      "węgla</w>": 2557,
      "samochodów</w>": 2558,
      "zawodowej</w>": 2559,
      "spa": 2560,
      "ocenie</w>": 2561,
      "wielo": 2562,
      "kowania</w>": 2563,
      "danym</w>": 2564,
      "stwierdzić</w>": 2565,
      "lekarzy</w>": 2566,
      "bro": 2567,
      "zaledwie</w>": 2568,
      "niejszych</w>": 2569,
      "wstrzymało</w>": 2570,
      "Kraków</w>": 2571,
      "pow": 2572,
      "Ze": 2573,
      "Cze": 2574,
      "skiem</w>": 2575,
      "Dy": 2576,
      "gen": 2577,
      "przedstawiciele</w>": 2578,
      "mając</w>": 2579,
      "nice</w>": 2580,
      "grupie</w>": 2581,
      "zobowiązań</w>": 2582,
      "ostatni</w>": 2583,
      "klasyfikacji</w>": 2584,
      "Sza": 2585,
      "cała</w>": 2586,
      "głowy</w>": 2587,
      "prezydent</w>": 2588,
      "nów</w>": 2589,
      "czytania</w>": 2590,
      "lo</w>": 2591,
      "Wśród</w>": 2592,
      "Brytanii</w>": 2593,
      "ly</w>": 2594,
      "les</w>": 2595,
      "decyzja</w>": 2596,
      "wykorzystania</w>": 2597,
      "ojciec</w>": 2598,
      "Stanisława</w>": 2599,
      "pewnym</w>": 2600,
      "0,": 2601,
      "PO": 2602,
      "rzeki</w>": 2603,
      "der": 2604,
      "Wydaje</w>": 2605,
      "pierwsza</w>": 2606,
      "ten": 2607,
      "czu": 2608,
      "interpelacji</w>": 2609,
      "Dzisiaj</w>": 2610,
      "umiejętności</w>": 2611,
      "Armii</w>": 2612,
      "niejszy</w>": 2613,
      "Platformy</w>": 2614,
      "koło</w>": 2615,
      "odpadów</w>": 2616,
      "cenia</w>": 2617,
      "kim</w>": 2618,
      "źle</w>": 2619,
      "znane</w>": 2620,
      "dotyczą</w>": 2621,
      "znalazł</w>": 2622,
      "ide": 2623,
      "pozwoli</w>": 2624,
      "listę</w>": 2625,
      ".pl</w>": 2626,
      "inwestycje</w>": 2627,
      "nięcia</w>": 2628,
      "zwiększenia</w>": 2629,
      "chorych</w>": 2630,
      "es</w>": 2631,
      "1944</w>": 2632,
      "wz": 2633,
      "koszt</w>": 2634,
      "olimpijskich</w>": 2635,
      "możesz</w>": 2636,
      "Par": 2637,
      "moja</w>": 2638,
      "von</w>": 2639,
      "len": 2640,
      "plan</w>": 2641,
      "prawnym</w>": 2642,
      "nii</w>": 2643,
      "zabezpieczenia</w>": 2644,
      "el</w>": 2645,
      "drogę</w>": 2646,
      "duży</w>": 2647,
      "urządzenia</w>": 2648,
      "era</w>": 2649,
      "55</w>": 2650,
      "procesie</w>": 2651,
      "prof.</w>": 2652,
      "wiemy</w>": 2653,
      "pozna": 2654,
      "AN": 2655,
      "świetle</w>": 2656,
      "al</w>": 2657,
      "Tam</w>": 2658,
      "gospodarstw</w>": 2659,
      "powiem</w>": 2660,
      "ine</w>": 2661,
      "Her": 2662,
      "stoi</w>": 2663,
      "ks.</w>": 2664,
      "den</w>": 2665,
      "pły": 2666,
      "Oprócz</w>": 2667,
      "forum</w>": 2668,
      "0-": 2669,
      "grudniu</w>": 2670,
      "ve</w>": 2671,
      "najpierw</w>": 2672,
      "jakiej</w>": 2673,
      "wpływu</w>": 2674,
      "żu</w>": 2675,
      "woli</w>": 2676,
      "ban": 2677,
      "bezpieczeństwo</w>": 2678,
      "budynków</w>": 2679,
      "kiedyś</w>": 2680,
      "propozycje</w>": 2681,
      "Sojuszu</w>": 2682,
      "pięć</w>": 2683,
      "terminu</w>": 2684,
      "dał</w>": 2685,
      "żona</w>": 2686,
      "obszarów</w>": 2687,
      "czasach</w>": 2688,
      "podjęcia</w>": 2689,
      "styczniu</w>": 2690,
      "Straży</w>": 2691,
      "me</w>": 2692,
      "fo": 2693,
      "placówek</w>": 2694,
      "jem</w>": 2695,
      "filmu</w>": 2696,
      "publiczne</w>": 2697,
      "nek</w>": 2698,
      "punkty</w>": 2699,
      "tuje</w>": 2700,
      "Poznaniu</w>": 2701,
      "rzę": 2702,
      "Kościół</w>": 2703,
      "odpowiednich</w>": 2704,
      "con": 2705,
      "przepis</w>": 2706,
      "syn</w>": 2707,
      "mil": 2708,
      "m2</w>": 2709,
      "wygląda</w>": 2710,
      "A.</w>": 2711,
      "obowiązujących</w>": 2712,
      "przyjęcia</w>": 2713,
      "wielkie</w>": 2714,
      "wrześniu</w>": 2715,
      "jakość</w>": 2716,
      "podatkowych</w>": 2717,
      "wstrzymał</w>": 2718,
      "Per": 2719,
      "Sądu</w>": 2720,
      "dą</w>": 2721,
      "zakończył</w>": 2722,
      "grał</w>": 2723,
      "gruntów</w>": 2724,
      "struktury</w>": 2725,
      "Państwowej</w>": 2726,
      "ciągle</w>": 2727,
      "odbywa</w>": 2728,
      "jącym</w>": 2729,
      "służb</w>": 2730,
      "Mamy</w>": 2731,
      "żaden</w>": 2732,
      "stąd</w>": 2733,
      "przemysłu</w>": 2734,
      "porównaniu</w>": 2735,
      "skimi</w>": 2736,
      "serca</w>": 2737,
      "spotkań</w>": 2738,
      "34</w>": 2739,
      "technologii</w>": 2740,
      "gospodarczego</w>": 2741,
      "czerwcu</w>": 2742,
      "czyła</w>": 2743,
      "37</w>": 2744,
      "przeznaczone</w>": 2745,
      "kredytów</w>": 2746,
      "kowskiego</w>": 2747,
      "Również</w>": 2748,
      "bor": 2749,
      "om": 2750,
      "Sy": 2751,
      "polska</w>": 2752,
      "mienia</w>": 2753,
      "uży": 2754,
      "8-": 2755,
      "Agencji</w>": 2756,
      "pewnych</w>": 2757,
      "łów</w>": 2758,
      "kować</w>": 2759,
      "powrócił</w>": 2760,
      "tyczne</w>": 2761,
      "druk</w>": 2762,
      "ruch</w>": 2763,
      "jącego</w>": 2764,
      "Pytanie</w>": 2765,
      "che": 2766,
      "400</w>": 2767,
      "wynik</w>": 2768,
      "Krajowej</w>": 2769,
      "odrzuceniem</w>": 2770,
      "znany</w>": 2771,
      "kuje</w>": 2772,
      "Nad": 2773,
      "posiadają</w>": 2774,
      "pę": 2775,
      "mających</w>": 2776,
      "tion</w>": 2777,
      "nki</w>": 2778,
      "składek</w>": 2779,
      "czych</w>": 2780,
      "lski</w>": 2781,
      "Tymczasem</w>": 2782,
      "for</w>": 2783,
      "is": 2784,
      "krwi</w>": 2785,
      "wydania</w>": 2786,
      "J.</w>": 2787,
      "własnej</w>": 2788,
      "zawartych</w>": 2789,
      "Wysoka</w>": 2790,
      "wo</w>": 2791,
      "Niemczech</w>": 2792,
      "zarządu</w>": 2793,
      "owców</w>": 2794,
      "stwem</w>": 2795,
      "Rolnictwa</w>": 2796,
      "wice": 2797,
      "XVIII</w>": 2798,
      "Jestem</w>": 2799,
      "42</w>": 2800,
      "pozycję</w>": 2801,
      "marszałek</w>": 2802,
      "szkołach</w>": 2803,
      "wano</w>": 2804,
      "wskazać</w>": 2805,
      "sprawą</w>": 2806,
      "styczne</w>": 2807,
      "straty</w>": 2808,
      "Nor": 2809,
      "muszę</w>": 2810,
      "38</w>": 2811,
      "stopień</w>": 2812,
      "ti</w>": 2813,
      "sen</w>": 2814,
      "nictwo</w>": 2815,
      "dodać</w>": 2816,
      "poprawy</w>": 2817,
      "maju</w>": 2818,
      "qu": 2819,
      "budynek</w>": 2820,
      "7-": 2821,
      "alnego</w>": 2822,
      "liczyć</w>": 2823,
      "zawodach</w>": 2824,
      "ubezpieczeń</w>": 2825,
      "składzie</w>": 2826,
      "Jednakże</w>": 2827,
      "ład": 2828,
      "Hu": 2829,
      "tle</w>": 2830,
      "bur": 2831,
      "dostępne</w>": 2832,
      "ts</w>": 2833,
      "urzędów</w>": 2834,
      "choćby</w>": 2835,
      "cena</w>": 2836,
      "przedstawia</w>": 2837,
      "spotkanie</w>": 2838,
      "dza</w>": 2839,
      "Izba</w>": 2840,
      "Wal": 2841,
      "Wil": 2842,
      "alnej</w>": 2843,
      "Tra": 2844,
      "występował</w>": 2845,
      "pamiętać</w>": 2846,
      "obraz</w>": 2847,
      "niez": 2848,
      "doświadczenia</w>": 2849,
      "wrażenie</w>": 2850,
      "medycznych</w>": 2851,
      "jednakże</w>": 2852,
      "róż": 2853,
      "zdjęcia</w>": 2854,
      "Celem</w>": 2855,
      "brał</w>": 2856,
      "miejscach</w>": 2857,
      "Har": 2858,
      "utrzymanie</w>": 2859,
      "większą</w>": 2860,
      "następuje</w>": 2861,
      "samorządy</w>": 2862,
      "spi": 2863,
      "polską</w>": 2864,
      "mer": 2865,
      "aj": 2866,
      "resort</w>": 2867,
      "min": 2868,
      "produkty</w>": 2869,
      "Obywatelskiej</w>": 2870,
      "przyczyn</w>": 2871,
      "emi": 2872,
      "RO": 2873,
      "terenu</w>": 2874,
      "języku</w>": 2875,
      "tycznych</w>": 2876,
      "o-": 2877,
      "należą</w>": 2878,
      "zawodów</w>": 2879,
      "65</w>": 2880,
      "rzeczywistości</w>": 2881,
      "wynikających</w>": 2882,
      "imię</w>": 2883,
      "cić</w>": 2884,
      "wybrany</w>": 2885,
      "form</w>": 2886,
      "zale": 2887,
      "wi</w>": 2888,
      "telewizji</w>": 2889,
      "mówię</w>": 2890,
      "Piotr</w>": 2891,
      "towego</w>": 2892,
      "znów</w>": 2893,
      "międzynarodowych</w>": 2894,
      "Instytutu</w>": 2895,
      "film</w>": 2896,
      "właściwy</w>": 2897,
      "układu</w>": 2898,
      "dzą</w>": 2899,
      "głosowaniu</w>": 2900,
      "trwa</w>": 2901,
      "Tu</w>": 2902,
      "licz": 2903,
      "Edukacji</w>": 2904,
      "Łodzi</w>": 2905,
      "siedzibą</w>": 2906,
      "odpowiada</w>": 2907,
      "Józefa</w>": 2908,
      "daleko</w>": 2909,
      "got": 2910,
      "kry": 2911,
      "poinformować</w>": 2912,
      "połowy</w>": 2913,
      "strze": 2914,
      "zaraz</w>": 2915,
      "szych</w>": 2916,
      "kowie</w>": 2917,
      "czał</w>": 2918,
      "jne</w>": 2919,
      "syna</w>": 2920,
      "potrzebne</w>": 2921,
      "potrzeba</w>": 2922,
      "odbył</w>": 2923,
      "Parlamentarny</w>": 2924,
      "wykonanie</w>": 2925,
      "Jan": 2926,
      "sma": 2927,
      "wyda": 2928,
      "zazwyczaj</w>": 2929,
      "sprawozdanie</w>": 2930,
      "sprzętu</w>": 2931,
      "trudności</w>": 2932,
      "fizycznych</w>": 2933,
      "giem</w>": 2934,
      "poza": 2935,
      "zg": 2936,
      "ał": 2937,
      "Wo": 2938,
      "koń": 2939,
      "Pu": 2940,
      "łatwo</w>": 2941,
      "wschód</w>": 2942,
      "Ti": 2943,
      "urząd</w>": 2944,
      "Niemcy</w>": 2945,
      "przepisach</w>": 2946,
      "pamięci</w>": 2947,
      "Banku</w>": 2948,
      "stycznych</w>": 2949,
      "Ci": 2950,
      "Con": 2951,
      "Większość</w>": 2952,
      "handlu</w>": 2953,
      "zagospodarowania</w>": 2954,
      "lę": 2955,
      "lipcu</w>": 2956,
      "pracownicy</w>": 2957,
      "30": 2958,
      "prowadzonych</w>": 2959,
      "marszałka</w>": 2960,
      "województw</w>": 2961,
      "trzecie</w>": 2962,
      "czeniu</w>": 2963,
      "wrócił</w>": 2964,
      "Polską</w>": 2965,
      "śmierć</w>": 2966,
      "owiec</w>": 2967,
      "Początkowo</w>": 2968,
      "ligi</w>": 2969,
      "Kodeks</w>": 2970,
      "gen</w>": 2971,
      "grze": 2972,
      "stą</w>": 2973,
      "wia": 2974,
      "gazu</w>": 2975,
      "korzystania</w>": 2976,
      "mo</w>": 2977,
      "waniu</w>": 2978,
      "funkcje</w>": 2979,
      "zapewnienie</w>": 2980,
      "budżecie</w>": 2981,
      "wysokie</w>": 2982,
      "uczestników</w>": 2983,
      "zie</w>": 2984,
      "mę": 2985,
      "niezależnie</w>": 2986,
      "dotychczasowych</w>": 2987,
      "car": 2988,
      "początkowo</w>": 2989,
      "marcu</w>": 2990,
      "niony</w>": 2991,
      "Pra": 2992,
      "nicze</w>": 2993,
      "dr": 2994,
      "promocji</w>": 2995,
      "Gu": 2996,
      "nięcie</w>": 2997,
      "dru": 2998,
      "mem</w>": 2999,
      "zmienić</w>": 3000,
      "obowiązki</w>": 3001,
      "odrzucił</w>": 3002,
      "wana</w>": 3003,
      "nic": 3004,
      "towa</w>": 3005,
      "NFZ</w>": 3006,
      "mianowicie</w>": 3007,
      "nar": 3008,
      "wami</w>": 3009,
      "każda</w>": 3010,
      "wynikiem</w>": 3011,
      "głównych</w>": 3012,
      "indywidualnych</w>": 3013,
      "48</w>": 3014,
      "programy</w>": 3015,
      "mia": 3016,
      "wprost</w>": 3017,
      "mierze</w>": 3018,
      "dow": 3019,
      "Mor": 3020,
      "try": 3021,
      "opa": 3022,
      "wiąże</w>": 3023,
      "san": 3024,
      "wynagrodzeń</w>": 3025,
      "wybór</w>": 3026,
      "parę</w>": 3027,
      "naukowych</w>": 3028,
      "dotyczącej</w>": 3029,
      "nictwa</w>": 3030,
      "druga</w>": 3031,
      "wzięło</w>": 3032,
      "alna</w>": 3033,
      "wą</w>": 3034,
      "ner</w>": 3035,
      "Nowy</w>": 3036,
      "owaliśmy</w>": 3037,
      "usz</w>": 3038,
      "krzy": 3039,
      "problemem</w>": 3040,
      "czać</w>": 3041,
      "karnego</w>": 3042,
      "Gdyby</w>": 3043,
      "finansowego</w>": 3044,
      "39</w>": 3045,
      "dofinansowanie</w>": 3046,
      "udzielenie</w>": 3047,
      "as</w>": 3048,
      "odnośnie</w>": 3049,
      "kampanii</w>": 3050,
      "propozycję</w>": 3051,
      "onów</w>": 3052,
      "rozporządzenie</w>": 3053,
      "czone</w>": 3054,
      "chociażby</w>": 3055,
      "założenia</w>": 3056,
      "model</w>": 3057,
      "kolejności</w>": 3058,
      "spowoduje</w>": 3059,
      "dalszych</w>": 3060,
      "licznych</w>": 3061,
      "drugą</w>": 3062,
      "objął</w>": 3063,
      "M.</w>": 3064,
      "wynosiła</w>": 3065,
      "ss</w>": 3066,
      "kadry</w>": 3067,
      "konsultacji</w>": 3068,
      "land</w>": 3069,
      "no-": 3070,
      "Sejmie</w>": 3071,
      "elementem</w>": 3072,
      "owanymi</w>": 3073,
      "źródła</w>": 3074,
      "sezonu</w>": 3075,
      "wyższe</w>": 3076,
      "odpowiedzialność</w>": 3077,
      "zapewnia</w>": 3078,
      "kt</w>": 3079,
      "star": 3080,
      "gier</w>": 3081,
      "min</w>": 3082,
      "wienie</w>": 3083,
      "momentu</w>": 3084,
      "granicą</w>": 3085,
      "inni</w>": 3086,
      "Kry": 3087,
      "relacji</w>": 3088,
      "korzyści</w>": 3089,
      "sh": 3090,
      "zna</w>": 3091,
      "Zespół</w>": 3092,
      "Europejskiego</w>": 3093,
      "mod": 3094,
      "niec</w>": 3095,
      "Jerzy</w>": 3096,
      "AR": 3097,
      "Środowiska</w>": 3098,
      "materiału</w>": 3099,
      "dwukrotnie</w>": 3100,
      "gan": 3101,
      "ostatnio</w>": 3102,
      "powyższego</w>": 3103,
      "przepisu</w>": 3104,
      "szeroko</w>": 3105,
      "chów</w>": 3106,
      "szenie</w>": 3107,
      "44</w>": 3108,
      "nazwa</w>": 3109,
      "kor": 3110,
      "pięciu</w>": 3111,
      "24": 3112,
      "wia</w>": 3113,
      "27": 3114,
      "ujemy</w>": 3115,
      "tował</w>": 3116,
      "har": 3117,
      "Jednym</w>": 3118,
      "debaty</w>": 3119,
      "faktycznie</w>": 3120,
      "programie</w>": 3121,
      "osobowych</w>": 3122,
      "postępowaniu</w>": 3123,
      "rozumiem</w>": 3124,
      "dobrym</w>": 3125,
      "toku</w>": 3126,
      "obszaru</w>": 3127,
      "systemów</w>": 3128,
      "cia": 3129,
      "tycznej</w>": 3130,
      "Temat</w>": 3131,
      "Konstytucyjnego</w>": 3132,
      "zachowania</w>": 3133,
      "Towarzystwa</w>": 3134,
      "Mal": 3135,
      "marszałku</w>": 3136,
      "zmieni": 3137,
      "przyjąć</w>": 3138,
      "Ste": 3139,
      "niczych</w>": 3140,
      "mowy</w>": 3141,
      "październiku</w>": 3142,
      "towym</w>": 3143,
      "1988</w>": 3144,
      "środowisko</w>": 3145,
      "zde": 3146,
      "terenów</w>": 3147,
      "emerytury</w>": 3148,
      "funkcjonowanie</w>": 3149,
      "najlepszych</w>": 3150,
      "liz": 3151,
      "Rząd</w>": 3152,
      "sumie</w>": 3153,
      "jnych</w>": 3154,
      "rozmowy</w>": 3155,
      "kształt</w>": 3156,
      "budowa</w>": 3157,
      "zapisów</w>": 3158,
      "odcinku</w>": 3159,
      "50": 3160,
      "tys</w>": 3161,
      "pracuje</w>": 3162,
      "własnego</w>": 3163,
      "mecz</w>": 3164,
      "opinię</w>": 3165,
      "liwy</w>": 3166,
      "wprowadza</w>": 3167,
      "obu": 3168,
      "znaczenia</w>": 3169,
      "finansowanie</w>": 3170,
      "czej</w>": 3171,
      "ograniczenie</w>": 3172,
      "czeniem</w>": 3173,
      "tre": 3174,
      "związany</w>": 3175,
      "Pierwsza</w>": 3176,
      "zakładu</w>": 3177,
      "teren</w>": 3178,
      "kie</w>": 3179,
      "stanowić</w>": 3180,
      "Komisję</w>": 3181,
      "korzystać</w>": 3182,
      "opinie</w>": 3183,
      "miejscowość</w>": 3184,
      "świe": 3185,
      "moich</w>": 3186,
      "kowo</w>": 3187,
      "Przecież</w>": 3188,
      "1.</w>": 3189,
      "modelu</w>": 3190,
      "słów</w>": 3191,
      "ory": 3192,
      "ogólnej</w>": 3193,
      "1,": 3194,
      "1920</w>": 3195,
      "and": 3196,
      "nau": 3197,
      "towania</w>": 3198,
      "owskiej</w>": 3199,
      "Man": 3200,
      "nagle</w>": 3201,
      "łych</w>": 3202,
      "kal": 3203,
      "książki</w>": 3204,
      "alnie</w>": 3205,
      "doskonale</w>": 3206,
      "następujące</w>": 3207,
      "muzyki</w>": 3208,
      "St": 3209,
      "usza</w>": 3210,
      "zamówienia</w>": 3211,
      "pochodzenia</w>": 3212,
      "zie": 3213,
      "czem</w>": 3214,
      "stawki</w>": 3215,
      "Szkoły</w>": 3216,
      "wier": 3217,
      "nu</w>": 3218,
      "lidze</w>": 3219,
      "piśmie</w>": 3220,
      "konstrukcji</w>": 3221,
      "listopadzie</w>": 3222,
      "nikami</w>": 3223,
      "branży</w>": 3224,
      "ek": 3225,
      "Fundusz</w>": 3226,
      "uważam</w>": 3227,
      "zapewne</w>": 3228,
      "Urząd</w>": 3229,
      "niejsza</w>": 3230,
      "kraj</w>": 3231,
      "her": 3232,
      "wyników</w>": 3233,
      "gminie</w>": 3234,
      "czasami</w>": 3235,
      "miarę</w>": 3236,
      "zadaniem</w>": 3237,
      "Publicznych</w>": 3238,
      "onem</w>": 3239,
      "związków</w>": 3240,
      "pad": 3241,
      "wysokiej</w>": 3242,
      "wojsk</w>": 3243,
      "Ce": 3244,
      "organizacje</w>": 3245,
      "wiadomości</w>": 3246,
      "pokry": 3247,
      "Dziś</w>": 3248,
      "jemy</w>": 3249,
      "Kor": 3250,
      "stru": 3251,
      "stosowane</w>": 3252,
      "Sch": 3253,
      "43</w>": 3254,
      "pracownika</w>": 3255,
      "wało</w>": 3256,
      "jąca</w>": 3257,
      "Mając</w>": 3258,
      "Prezydium</w>": 3259,
      "stosuje</w>": 3260,
      "instytucje</w>": 3261,
      "niczej</w>": 3262,
      "przygotowanie</w>": 3263,
      "rodzaj</w>": 3264,
      "mówimy</w>": 3265,
      "szansę</w>": 3266,
      "29": 3267,
      "czar": 3268,
      "umożliwia</w>": 3269,
      "wają</w>": 3270,
      "rocznie</w>": 3271,
      "budzi</w>": 3272,
      "ó": 3273,
      "wielką</w>": 3274,
      "rodzinnych</w>": 3275,
      "zer": 3276,
      "jskiej</w>": 3277,
      "jskiego</w>": 3278,
      "planuje</w>": 3279,
      "duża</w>": 3280,
      "zapisy</w>": 3281,
      "wykonane</w>": 3282,
      "studentów</w>": 3283,
      "be</w>": 3284,
      "interesów</w>": 3285,
      "między": 3286,
      "Państwo</w>": 3287,
      "Józef</w>": 3288,
      "lin": 3289,
      "plan": 3290,
      "milionów</w>": 3291,
      "am": 3292,
      "wojewódzkich</w>": 3293,
      "wielki</w>": 3294,
      "kowanie</w>": 3295,
      "budżetowych</w>": 3296,
      "lach</w>": 3297,
      "46</w>": 3298,
      "cił</w>": 3299,
      "wnioskiem</w>": 3300,
      "NI": 3301,
      "funkcjonariuszy</w>": 3302,
      "Miasta</w>": 3303,
      "dami</w>": 3304,
      "głównego</w>": 3305,
      "tr": 3306,
      "osobę</w>": 3307,
      "swych</w>": 3308,
      "51</w>": 3309,
      "dochody</w>": 3310,
      "status</w>": 3311,
      "Pol": 3312,
      "opodatkowania</w>": 3313,
      "podobne</w>": 3314,
      "wprowadzić</w>": 3315,
      "krę": 3316,
      "os</w>": 3317,
      "łoby</w>": 3318,
      "Pla": 3319,
      "polu</w>": 3320,
      "naszą</w>": 3321,
      "Pawła</w>": 3322,
      "Odnosząc</w>": 3323,
      "zapa": 3324,
      "wach</w>": 3325,
      "zakupu</w>": 3326,
      "Przystępujemy</w>": 3327,
      "podstawowej</w>": 3328,
      "czele</w>": 3329,
      "rządowym</w>": 3330,
      "zaczyna</w>": 3331,
      "Partii</w>": 3332,
      "pewnego</w>": 3333,
      "jad": 3334,
      "postać</w>": 3335,
      "Program</w>": 3336,
      "rozpoczęła</w>": 3337,
      "jącej</w>": 3338,
      "o.o.</w>": 3339,
      "tyczny</w>": 3340,
      "język</w>": 3341,
      "far": 3342,
      "150</w>": 3343,
      "kształ": 3344,
      "alnym</w>": 3345,
      "wkrótce</w>": 3346,
      "odległości</w>": 3347,
      "Kontroli</w>": 3348,
      "częściowo</w>": 3349,
      "wyjaśnienia</w>": 3350,
      "Administracji</w>": 3351,
      "obszary</w>": 3352,
      "nka</w>": 3353,
      "Wtedy</w>": 3354,
      "mną</w>": 3355,
      "54</w>": 3356,
      "56</w>": 3357,
      "wchodzi</w>": 3358,
      "dyrektor</w>": 3359,
      "spotkaniu</w>": 3360,
      "Pomimo</w>": 3361,
      "pojawia</w>": 3362,
      "nęła</w>": 3363,
      "strona</w>": 3364,
      "41</w>": 3365,
      "Stąd</w>": 3366,
      "głowę</w>": 3367,
      "mieszkań</w>": 3368,
      "chu</w>": 3369,
      "połączenia</w>": 3370,
      "bru": 3371,
      "1982</w>": 3372,
      "rozpozna": 3373,
      "zacji</w>": 3374,
      "zakup</w>": 3375,
      "miałem</w>": 3376,
      "gospodarczą</w>": 3377,
      "wnioskodawcy</w>": 3378,
      "28": 3379,
      "wyrobów</w>": 3380,
      "kwietniu</w>": 3381,
      "Wiele</w>": 3382,
      "sierpniu</w>": 3383,
      "For": 3384,
      "th</w>": 3385,
      "granicach</w>": 3386,
      "specjalnych</w>": 3387,
      "1972</w>": 3388,
      "różnego</w>": 3389,
      "mogło</w>": 3390,
      "poszczególne</w>": 3391,
      "aniu</w>": 3392,
      "biorąc</w>": 3393,
      "Kur": 3394,
      "1980</w>": 3395,
      "parlamentu</w>": 3396,
      "My</w>": 3397,
      "zmarł</w>": 3398,
      "organu</w>": 3399,
      "Wobec</w>": 3400,
      "towane</w>": 3401,
      "Polacy</w>": 3402,
      "pracach</w>": 3403,
      "łą": 3404,
      "okolicy</w>": 3405,
      "Gi": 3406,
      "elektro": 3407,
      "dyspozycji</w>": 3408,
      "wymiaru</w>": 3409,
      "dro": 3410,
      "prawny</w>": 3411,
      "praw": 3412,
      "lutym</w>": 3413,
      "wydanie</w>": 3414,
      "wolno</w>": 3415,
      "spe": 3416,
      "SLD</w>": 3417,
      "porozumienia</w>": 3418,
      "utrzymaniem</w>": 3419,
      "ir</w>": 3420,
      "społeczności</w>": 3421,
      "zdrowotnych</w>": 3422,
      "wanych</w>": 3423,
      "rezerwy</w>": 3424,
      "czony</w>": 3425,
      "kredytu</w>": 3426,
      "52</w>": 3427,
      "czyk</w>": 3428,
      "Wrocław</w>": 3429,
      "XVI</w>": 3430,
      "let": 3431,
      "powodów</w>": 3432,
      "ością</w>": 3433,
      "przypomnieć</w>": 3434,
      "1918</w>": 3435,
      "sach</w>": 3436,
      "wszelkich</w>": 3437,
      "dobrej</w>": 3438,
      "tnym</w>": 3439,
      "sku": 3440,
      "Marek</w>": 3441,
      "sko-": 3442,
      "Podobnie</w>": 3443,
      "tryb</w>": 3444,
      "ochronę</w>": 3445,
      "nieniu</w>": 3446,
      "rządowego</w>": 3447,
      "szczęście</w>": 3448,
      "żą</w>": 3449,
      "pracować</w>": 3450,
      "odbyła</w>": 3451,
      "niz": 3452,
      "największych</w>": 3453,
      "własną</w>": 3454,
      "król</w>": 3455,
      "rom</w>": 3456,
      "własnym</w>": 3457,
      "Rad": 3458,
      "lić</w>": 3459,
      "zapewni": 3460,
      "Niech</w>": 3461,
      "di</w>": 3462,
      "album</w>": 3463,
      "towanych</w>": 3464,
      "nazwą</w>": 3465,
      "odpowiedzieć</w>": 3466,
      "dob": 3467,
      "Wszystko</w>": 3468,
      "cywilnego</w>": 3469,
      "aktywności</w>": 3470,
      "mieszkańcy</w>": 3471,
      "aktualnie</w>": 3472,
      "zajęcia</w>": 3473,
      "widzę</w>": 3474,
      "zabytków</w>": 3475,
      "okazało</w>": 3476,
      "tury</w>": 3477,
      "politykę</w>": 3478,
      "ciebie</w>": 3479,
      "podstaw</w>": 3480,
      "zawodu</w>": 3481,
      "przypadków</w>": 3482,
      "określenia</w>": 3483,
      "Dzi": 3484,
      "towana</w>": 3485,
      "25": 3486,
      "dolarów</w>": 3487,
      "et": 3488,
      "służyć</w>": 3489,
      "lin</w>": 3490,
      "Nowym</w>": 3491,
      "samorządowych</w>": 3492,
      "produktu</w>": 3493,
      "mp": 3494,
      "cel": 3495,
      "półroczu</w>": 3496,
      "2.</w>": 3497,
      "element</w>": 3498,
      "Zarządu</w>": 3499,
      "oli": 3500,
      "wymienionych</w>": 3501,
      "sukces</w>": 3502,
      "najlepsze</w>": 3503,
      "stan": 3504,
      "kariery</w>": 3505,
      "tory</w>": 3506,
      "Bóg</w>": 3507,
      "większej</w>": 3508,
      "49</w>": 3509,
      "Boga</w>": 3510,
      "Leży</w>": 3511,
      "dłużej</w>": 3512,
      "zakład": 3513,
      "Pan": 3514,
      "metody</w>": 3515,
      "wziął</w>": 3516,
      "oddziałów</w>": 3517,
      "nieniem</w>": 3518,
      "rza": 3519,
      "rę": 3520,
      "osob": 3521,
      "bezrobotnych</w>": 3522,
      "bry": 3523,
      "kupić</w>": 3524,
      "ustalenia</w>": 3525,
      "przeprowadzenia</w>": 3526,
      "łe</w>": 3527,
      "miesiące</w>": 3528,
      "żoną</w>": 3529,
      "Pre": 3530,
      "dają</w>": 3531,
      "47</w>": 3532,
      "Czy": 3533,
      "wojskowych</w>": 3534,
      "wem</w>": 3535,
      "oddziały</w>": 3536,
      "zakłada</w>": 3537,
      "1.": 3538,
      "banków</w>": 3539,
      "szego</w>": 3540,
      "resortu</w>": 3541,
      "Nazwa</w>": 3542,
      "tna</w>": 3543,
      "okręgu</w>": 3544,
      "współpracę</w>": 3545,
      "tacji</w>": 3546,
      "zajęć</w>": 3547,
      "64</w>": 3548,
      "pełne</w>": 3549,
      "politycznej</w>": 3550,
      "Wydziału</w>": 3551,
      "ur</w>": 3552,
      "cj": 3553,
      "Wewnętrznych</w>": 3554,
      "wyzna": 3555,
      "Ke": 3556,
      "klubie</w>": 3557,
      "ję</w>": 3558,
      "Ubezpieczeń</w>": 3559,
      "powszechnie</w>": 3560,
      "1985</w>": 3561,
      "Wrocławiu</w>": 3562,
      "tworzenie</w>": 3563,
      "wskazują</w>": 3564,
      "mog": 3565,
      "układ</w>": 3566,
      "Często</w>": 3567,
      "doprowadzić</w>": 3568,
      "Społecznych</w>": 3569,
      "lami</w>": 3570,
      "Stanów</w>": 3571,
      "wiedzą</w>": 3572,
      "podlega</w>": 3573,
      "jedynym</w>": 3574,
      "zawodowego</w>": 3575,
      "dnie</w>": 3576,
      "Rok</w>": 3577,
      "iny</w>": 3578,
      "mikro": 3579,
      "powinniśmy</w>": 3580,
      "uzna": 3581,
      "zm</w>": 3582,
      "Sąd</w>": 3583,
      "zagrożenie</w>": 3584,
      "grupę</w>": 3585,
      "księcia</w>": 3586,
      "biura</w>": 3587,
      "wersja</w>": 3588,
      "Narodowy</w>": 3589,
      "istnienia</w>": 3590,
      "zespołów</w>": 3591,
      "czona</w>": 3592,
      "gor": 3593,
      "gre": 3594,
      "wynikające</w>": 3595,
      "Hi": 3596,
      "alną</w>": 3597,
      "rad": 3598,
      "En": 3599,
      "Później</w>": 3600,
      "Bank</w>": 3601,
      "mor": 3602,
      "liwie</w>": 3603,
      "tworzy</w>": 3604,
      "Część</w>": 3605,
      "ście": 3606,
      "chwilą</w>": 3607,
      "ministerstwa</w>": 3608,
      "tacja</w>": 3609,
      "tną</w>": 3610,
      "szan": 3611,
      "inter": 3612,
      "wód</w>": 3613,
      "v</w>": 3614,
      "okoliczności</w>": 3615,
      "istnieją</w>": 3616,
      "sprzęt</w>": 3617,
      "zaznaczyć</w>": 3618,
      "Gór": 3619,
      "faktu</w>": 3620,
      "On</w>": 3621,
      "operacji</w>": 3622,
      "uznać</w>": 3623,
      "ucz": 3624,
      "systemem</w>": 3625,
      "podatek</w>": 3626,
      "oś": 3627,
      "główny</w>": 3628,
      "niom</w>": 3629,
      "Andrzeja</w>": 3630,
      "1984</w>": 3631,
      "oświadczeń</w>": 3632,
      "wielkim</w>": 3633,
      "skąd</w>": 3634,
      "nieu": 3635,
      "Ła": 3636,
      "Poli": 3637,
      "filmy</w>": 3638,
      "letni</w>": 3639,
      "południe</w>": 3640,
      "dziła</w>": 3641,
      "wspólnego</w>": 3642,
      "wprowadz": 3643,
      "ującymi</w>": 3644,
      "sł": 3645,
      "gl": 3646,
      "zda": 3647,
      "ministrem</w>": 3648,
      "podstawowe</w>": 3649,
      "tnych</w>": 3650,
      "My": 3651,
      "Tur": 3652,
      "kości</w>": 3653,
      "tnej</w>": 3654,
      "przedstawienia</w>": 3655,
      "rod": 3656,
      "Dziękuję</w>": 3657,
      "prezen": 3658,
      "dzeniem</w>": 3659,
      "Jerzego</w>": 3660,
      "cenę</w>": 3661,
      "oddziału</w>": 3662,
      "twarzy</w>": 3663,
      "pola</w>": 3664,
      "restrukturyzacji</w>": 3665,
      "ster</w>": 3666,
      "obiektu</w>": 3667,
      "większych</w>": 3668,
      "najważniejszych</w>": 3669,
      "polityka</w>": 3670,
      "płatności</w>": 3671,
      "mówią</w>": 3672,
      "pozostałe</w>": 3673,
      "Sze": 3674,
      "technicznych</w>": 3675,
      "torem</w>": 3676,
      "Obrony</w>": 3677,
      "53</w>": 3678,
      "czania</w>": 3679,
      "świet": 3680,
      "sportowych</w>": 3681,
      "próby</w>": 3682,
      "1986</w>": 3683,
      "ks</w>": 3684,
      "Unia</w>": 3685,
      "El": 3686,
      "mniejsze</w>": 3687,
      "wan": 3688,
      "związek</w>": 3689,
      "podjęcie</w>": 3690,
      "Związek</w>": 3691,
      "one": 3692,
      "ar</w>": 3693,
      "użytkowników</w>": 3694,
      "gł": 3695,
      "otrzymała</w>": 3696,
      "organizacyjnych</w>": 3697,
      "linie</w>": 3698,
      "właścicieli</w>": 3699,
      "dwoma</w>": 3700,
      "ala</w>": 3701,
      "pora": 3702,
      "zwrotu</w>": 3703,
      "propozycja</w>": 3704,
      "18": 3705,
      "miłości</w>": 3706,
      "państwowej</w>": 3707,
      "pozytywnie</w>": 3708,
      "tereny</w>": 3709,
      "AL": 3710,
      "świadomość</w>": 3711,
      "spółka</w>": 3712,
      "zaczęła</w>": 3713,
      "stycznej</w>": 3714,
      "Gar": 3715,
      "nionych</w>": 3716,
      "rol": 3717,
      "zmienia</w>": 3718,
      "Europejską</w>": 3719,
      "bierze</w>": 3720,
      "żeniem</w>": 3721,
      "płat": 3722,
      "panowie</w>": 3723,
      "jesteś</w>": 3724,
      "stałe</w>": 3725,
      "konkursu</w>": 3726,
      "składki</w>": 3727,
      "Radę</w>": 3728,
      "rzenie</w>": 3729,
      "57</w>": 3730,
      "ER": 3731,
      "częściej</w>": 3732,
      "1000</w>": 3733,
      "kwestię</w>": 3734,
      "marki</w>": 3735,
      "podróży</w>": 3736,
      "żeniu</w>": 3737,
      "stawi": 3738,
      "skupi": 3739,
      "gą</w>": 3740,
      "rejonie</w>": 3741,
      "terapii</w>": 3742,
      "Wydawnictwo</w>": 3743,
      "banku</w>": 3744,
      "skutecznie</w>": 3745,
      "ani": 3746,
      "niowych</w>": 3747,
      "ć": 3748,
      "gwaran": 3749,
      "głosować</w>": 3750,
      "1987</w>": 3751,
      "rozwiązaniem</w>": 3752,
      "powietrza</w>": 3753,
      "99</w>": 3754,
      "czer": 3755,
      "dotąd</w>": 3756,
      "karierze</w>": 3757,
      "pośrednictwem</w>": 3758,
      "Anglii</w>": 3759,
      "szenia</w>": 3760,
      "pu</w>": 3761,
      "waniem</w>": 3762,
      "gospodarce</w>": 3763,
      "średniej</w>": 3764,
      "zmniejszenie</w>": 3765,
      "terenach</w>": 3766,
      "jącą</w>": 3767,
      "krajowej</w>": 3768,
      "pobytu</w>": 3769,
      "kowany</w>": 3770,
      "Potem</w>": 3771,
      "mia</w>": 3772,
      "1981</w>": 3773,
      "Dzie": 3774,
      "Miasto</w>": 3775,
      "Wol": 3776,
      "Wieś</w>": 3777,
      "Gro": 3778,
      "bezrobocia</w>": 3779,
      "strefy</w>": 3780,
      "będących</w>": 3781,
      "pli": 3782,
      "kup": 3783,
      "przeznaczonych</w>": 3784,
      "fer": 3785,
      "Sprawozdanie</w>": 3786,
      "członkowie</w>": 3787,
      "wojskowej</w>": 3788,
      "niowe</w>": 3789,
      "dalsze</w>": 3790,
      "prośbą</w>": 3791,
      "nagrody</w>": 3792,
      "58</w>": 3793,
      "rozegrał</w>": 3794,
      "obecnym</w>": 3795,
      "bli": 3796,
      "nauczania</w>": 3797,
      "wiedzieć</w>": 3798,
      "1940</w>": 3799,
      "1983</w>": 3800,
      "die</w>": 3801,
      "obszarach</w>": 3802,
      "łami</w>": 3803,
      "słu": 3804,
      "Bro": 3805,
      "wał": 3806,
      "daw": 3807,
      "umowę</w>": 3808,
      "chcesz</w>": 3809,
      "Bor": 3810,
      "matki</w>": 3811,
      "nasza</w>": 3812,
      "PO</w>": 3813,
      "pomysł</w>": 3814,
      "skorzystać</w>": 3815,
      "przedsięwzięcia</w>": 3816,
      "długi</w>": 3817,
      "mieszkanie</w>": 3818,
      "towanie</w>": 3819,
      "poprawka</w>": 3820,
      "podejmuje</w>": 3821,
      "polsko-": 3822,
      "kapitału</w>": 3823,
      "wydał</w>": 3824,
      "zobowiązania</w>": 3825,
      "walce</w>": 3826,
      "uzasadnienia</w>": 3827,
      "rzenia</w>": 3828,
      "subwencji</w>": 3829,
      "wyborów</w>": 3830,
      "natury</w>": 3831,
      "natychmiast</w>": 3832,
      "planie</w>": 3833,
      "punktem</w>": 3834,
      "Paweł</w>": 3835,
      "podstawę</w>": 3836,
      "lił</w>": 3837,
      "spadek</w>": 3838,
      "uch": 3839,
      "ważny</w>": 3840,
      "By": 3841,
      "właściwości</w>": 3842,
      "byłby</w>": 3843,
      "szkoła</w>": 3844,
      "lek</w>": 3845,
      "zasobów</w>": 3846,
      "określenie</w>": 3847,
      "ofert</w>": 3848,
      "internetowej</w>": 3849,
      "uni": 3850,
      "zarazem</w>": 3851,
      "Została</w>": 3852,
      "Mat": 3853,
      "ost": 3854,
      "pło": 3855,
      "rządów</w>": 3856,
      "przedstawione</w>": 3857,
      "planów</w>": 3858,
      "Nawet</w>": 3859,
      "jskich</w>": 3860,
      "Tego</w>": 3861,
      "numer</w>": 3862,
      "stają</w>": 3863,
      "kowane</w>": 3864,
      "e-": 3865,
      "dokumenty</w>": 3866,
      "loka": 3867,
      "kształcie</w>": 3868,
      "wzdłuż</w>": 3869,
      "1941</w>": 3870,
      "dosyć</w>": 3871,
      "któremu</w>": 3872,
      "pojazdu</w>": 3873,
      "Brak</w>": 3874,
      "zacja</w>": 3875,
      "określony</w>": 3876,
      "kryterium</w>": 3877,
      "posiedzenia</w>": 3878,
      "wprowadzono</w>": 3879,
      "szko": 3880,
      "północ</w>": 3881,
      "powstanie</w>": 3882,
      "polityczne</w>": 3883,
      "tycznego</w>": 3884,
      "zatrudnionych</w>": 3885,
      "pię": 3886,
      "kol": 3887,
      "dalszym</w>": 3888,
      "ącymi</w>": 3889,
      "karty</w>": 3890,
      "czyło</w>": 3891,
      "osiągnięcia</w>": 3892,
      "95</w>": 3893,
      "San": 3894,
      "informacja</w>": 3895,
      "gimnazjum</w>": 3896,
      "Ile</w>": 3897,
      "stosunkowo</w>": 3898,
      "VI</w>": 3899,
      "S.A.</w>": 3900,
      "niemieckiej</w>": 3901,
      "pracodawcy</w>": 3902,
      "zanim</w>": 3903,
      "dziel": 3904,
      "pełną</w>": 3905,
      "Mon": 3906,
      "Było</w>": 3907,
      "podatków</w>": 3908,
      "9-": 3909,
      "wziąć</w>": 3910,
      "Krzysztof</w>": 3911,
      "owie": 3912,
      "służbę</w>": 3913,
      "ana": 3914,
      "bla": 3915,
      "1,5</w>": 3916,
      "3.</w>": 3917,
      "członek</w>": 3918,
      "sh</w>": 3919,
      "międzynarodowej</w>": 3920,
      "wiel": 3921,
      "szej</w>": 3922,
      "porząd": 3923,
      "wychowania</w>": 3924,
      "pracodawców</w>": 3925,
      "wina</w>": 3926,
      "kolejowej</w>": 3927,
      "niowy</w>": 3928,
      "media</w>": 3929,
      "ły": 3930,
      "kwalifikacji</w>": 3931,
      "wol": 3932,
      "Dopiero</w>": 3933,
      "unijnych</w>": 3934,
      "Ziemi</w>": 3935,
      "Cie": 3936,
      "los": 3937,
      "cywilnej</w>": 3938,
      "niona</w>": 3939,
      "Londynu</w>": 3940,
      "paliwa</w>": 3941,
      "łą</w>": 3942,
      "czanie</w>": 3943,
      "plany</w>": 3944,
      "Więc</w>": 3945,
      "Poznań</w>": 3946,
      "dobrą</w>": 3947,
      "Wydziale</w>": 3948,
      "H</w>": 3949,
      "przedstawi": 3950,
      "sędziów</w>": 3951,
      "ofer": 3952,
      "łeś</w>": 3953,
      "swą</w>": 3954,
      "orze": 3955,
      "Fe": 3956,
      "dokumentacji</w>": 3957,
      "zakończenie</w>": 3958,
      "not": 3959,
      "poz": 3960,
      "obra": 3961,
      "ogłoszenia</w>": 3962,
      "AT": 3963,
      "dzeniu</w>": 3964,
      "zja</w>": 3965,
      "żywności</w>": 3966,
      "wyjątkiem</w>": 3967,
      "list</w>": 3968,
      "stworzenie</w>": 3969,
      "Zatem</w>": 3970,
      "kryty": 3971,
      "lona</w>": 3972,
      "rodzina</w>": 3973,
      "wiek</w>": 3974,
      "zakłady</w>": 3975,
      "doświadczenie</w>": 3976,
      "kandydatów</w>": 3977,
      "nadzór</w>": 3978,
      "lokalu</w>": 3979,
      "wygrał</w>": 3980,
      "lepsze</w>": 3981,
      "1943</w>": 3982,
      "niemieckich</w>": 3983,
      "1919</w>": 3984,
      "poniosła</w>": 3985,
      "eli": 3986,
      "budownictwa</w>": 3987,
      "styczny</w>": 3988,
      "1946</w>": 3989,
      "rejestru</w>": 3990,
      "najważniejsze</w>": 3991,
      "niania</w>": 3992,
      "pas": 3993,
      "kontrakt</w>": 3994,
      "ada</w>": 3995,
      "udzielania</w>": 3996,
      "Wolności</w>": 3997,
      "kryteriów</w>": 3998,
      "stw</w>": 3999,
      "sportu</w>": 4000,
      "NIK</w>": 4001,
      "00": 4002,
      "85</w>": 4003,
      "it</w>": 4004,
      "sti": 4005,
      "szki</w>": 4006,
      "wyższych</w>": 4007,
      "Tar": 4008,
      "pomóc</w>": 4009,
      "żyła</w>": 4010,
      "blo": 4011,
      "ostatniej</w>": 4012,
      "regulaminu</w>": 4013,
      "trój": 4014,
      "tową</w>": 4015,
      "ministrowi</w>": 4016,
      "funkcjonuje</w>": 4017,
      "Wszyscy</w>": 4018,
      "efekt</w>": 4019,
      "orów</w>": 4020,
      "mistrza</w>": 4021,
      "Com": 4022,
      "niowej</w>": 4023,
      "ogromne</w>": 4024,
      "Ser": 4025,
      "wystarczy</w>": 4026,
      "rodzice</w>": 4027,
      "Hiszpanii</w>": 4028,
      "stycznego</w>": 4029,
      "wiedzę</w>": 4030,
      "przyrody</w>": 4031,
      "pon": 4032,
      "lot": 4033,
      "czkę</w>": 4034,
      "Pucharu</w>": 4035,
      "Londynie</w>": 4036,
      "System</w>": 4037,
      "niewiele</w>": 4038,
      "użytku</w>": 4039,
      "ciało</w>": 4040,
      "agencji</w>": 4041,
      "wski</w>": 4042,
      "zabi": 4043,
      "krajowego</w>": 4044,
      "Firma</w>": 4045,
      "Instytut</w>": 4046,
      "procedur</w>": 4047,
      "prowadzą</w>": 4048,
      "niejszym</w>": 4049,
      "przyczyną</w>": 4050,
      "CH": 4051,
      "fal": 4052,
      "nikach</w>": 4053,
      "oł": 4054,
      "gospodarcze</w>": 4055,
      "usz": 4056,
      "1948</w>": 4057,
      "bin": 4058,
      "należałoby</w>": 4059,
      "anki</w>": 4060,
      "OR": 4061,
      "planowane</w>": 4062,
      "twarz</w>": 4063,
      "Maria</w>": 4064,
      "ds</w>": 4065,
      "AC": 4066,
      "powiatów</w>": 4067,
      "świadczenie</w>": 4068,
      "kilkanaście</w>": 4069,
      "materiały</w>": 4070,
      "moc": 4071,
      "bazie</w>": 4072,
      "Stanach</w>": 4073,
      "szkołę</w>": 4074,
      "warunkiem</w>": 4075,
      "Trybunał</w>": 4076,
      "jski</w>": 4077,
      "spółdzielni</w>": 4078,
      "ud": 4079,
      "kobieta</w>": 4080,
      "południowej</w>": 4081,
      "tygodni</w>": 4082,
      "ya</w>": 4083,
      "służył</w>": 4084,
      "płyty</w>": 4085,
      "zakładach</w>": 4086,
      "gru": 4087,
      "ściśle</w>": 4088,
      "Piotra</w>": 4089,
      "gości</w>": 4090,
      "Izbę</w>": 4091,
      "S.</w>": 4092,
      "ważna</w>": 4093,
      "sil": 4094,
      "wymiany</w>": 4095,
      "2,": 4096,
      "matka</w>": 4097,
      "ist": 4098,
      "zada": 4099,
      "1973</w>": 4100,
      "trzeci</w>": 4101,
      "ciąży</w>": 4102,
      "powołany</w>": 4103,
      "chem</w>": 4104,
      "szukać</w>": 4105,
      "Oznacza</w>": 4106,
      "PR": 4107,
      "samą</w>": 4108,
      "wschodniej</w>": 4109,
      "Ros": 4110,
      "szym</w>": 4111,
      "powstały</w>": 4112,
      "gry": 4113,
      "leniu</w>": 4114,
      "artykułów</w>": 4115,
      "Jeden</w>": 4116,
      "rzędu</w>": 4117,
      "zdanie</w>": 4118,
      "stanowisk</w>": 4119,
      "chorób</w>": 4120,
      "gospodarstwa</w>": 4121,
      "łby</w>": 4122,
      "rację</w>": 4123,
      "ron</w>": 4124,
      "odbyło</w>": 4125,
      "obie</w>": 4126,
      "wek</w>": 4127,
      "pom": 4128,
      "NA</w>": 4129,
      "zwolnienia</w>": 4130,
      "kiewicz</w>": 4131,
      "kował</w>": 4132,
      "1976</w>": 4133,
      "służbie</w>": 4134,
      "skóry</w>": 4135,
      "oszczędności</w>": 4136,
      "północnej</w>": 4137,
      "moc</w>": 4138,
      "trwania</w>": 4139,
      "poch": 4140,
      "eni</w>": 4141,
      "zastosowania</w>": 4142,
      "trwają</w>": 4143,
      "Bydgoszczy</w>": 4144,
      "so</w>": 4145,
      "mówiłem</w>": 4146,
      "oferuje</w>": 4147,
      "zobaczyć</w>": 4148,
      "budowlanych</w>": 4149,
      "kosz": 4150,
      "ing": 4151,
      "stosowanie</w>": 4152,
      "przychodów</w>": 4153,
      "tuż</w>": 4154,
      "prywatnych</w>": 4155,
      "misji</w>": 4156,
      "jny</w>": 4157,
      "Praw</w>": 4158,
      "cony</w>": 4159,
      "rzecz": 4160,
      "wymagania</w>": 4161,
      "czyły</w>": 4162,
      "przewodniczący</w>": 4163,
      "bad": 4164,
      "fu": 4165,
      "komi": 4166,
      "realizacja</w>": 4167,
      "aktów</w>": 4168,
      "byłaby</w>": 4169,
      "dokonać</w>": 4170,
      "szek</w>": 4171,
      "akurat</w>": 4172,
      "regionalnych</w>": 4173,
      "środkami</w>": 4174,
      "prowadzona</w>": 4175,
      "zachowanie</w>": 4176,
      "auto": 4177,
      "'</w>": 4178,
      "widzi</w>": 4179,
      "jakoś</w>": 4180,
      "kryteria</w>": 4181,
      "pe</w>": 4182,
      "kontrolę</w>": 4183,
      "men</w>": 4184,
      "niezbędnych</w>": 4185,
      "obecny</w>": 4186,
      "XVII</w>": 4187,
      "komunikacji</w>": 4188,
      "posłowi</w>": 4189,
      "zawodowe</w>": 4190,
      "przedsiębiorcy</w>": 4191,
      "łączy</w>": 4192,
      "Cho": 4193,
      "dział</w>": 4194,
      "nastąpiło</w>": 4195,
      "regionie</w>": 4196,
      "inwestycyjnych</w>": 4197,
      "czu</w>": 4198,
      "miastach</w>": 4199,
      "ag": 4200,
      "serce</w>": 4201,
      "zajęła</w>": 4202,
      "wki</w>": 4203,
      "własność</w>": 4204,
      "miejscem</w>": 4205,
      "owicz</w>": 4206,
      "władzę</w>": 4207,
      "zachodniej</w>": 4208,
      "dzili</w>": 4209,
      "p.</w>": 4210,
      "powinni</w>": 4211,
      "instalacji</w>": 4212,
      "Sh": 4213,
      "zdobyła</w>": 4214,
      "niewątpliwie</w>": 4215,
      "tera</w>": 4216,
      "skar": 4217,
      "projekt": 4218,
      "kolejowych</w>": 4219,
      "et</w>": 4220,
      "inna</w>": 4221,
      "rano</w>": 4222,
      "stali</w>": 4223,
      "1975</w>": 4224,
      "podejmowane</w>": 4225,
      "efekty</w>": 4226,
      "użytkowania</w>": 4227,
      "należności</w>": 4228,
      "konferencji</w>": 4229,
      "mógłby</w>": 4230,
      "leczenie</w>": 4231,
      "1970</w>": 4232,
      "naukę</w>": 4233,
      "Cza": 4234,
      "zdoby": 4235,
      "krótko</w>": 4236,
      "śpie": 4237,
      "stycznym</w>": 4238,
      "przeszłości</w>": 4239,
      "poprawę</w>": 4240,
      "modernizacji</w>": 4241,
      "zawi": 4242,
      "va</w>": 4243,
      "s-": 4244,
      "wro": 4245,
      "ust": 4246,
      "Wraz</w>": 4247,
      "23": 4248,
      "sprawozdaniu</w>": 4249,
      "miłość</w>": 4250,
      "ważnych</w>": 4251,
      "przewodniczącego</w>": 4252,
      "4.</w>": 4253,
      "obrad</w>": 4254,
      "członkowskich</w>": 4255,
      "przypad": 4256,
      "szpitala</w>": 4257,
      "mieszkaniowych</w>": 4258,
      "brakuje</w>": 4259,
      "bazy</w>": 4260,
      "poważne</w>": 4261,
      "uda</w>": 4262,
      "anka</w>": 4263,
      "Au": 4264,
      "38": 4265,
      "kiej</w>": 4266,
      "prawdą</w>": 4267,
      "społecznym</w>": 4268,
      "ryzyko</w>": 4269,
      "Bez</w>": 4270,
      "lod": 4271,
      "wienia</w>": 4272,
      "regulacje</w>": 4273,
      "drużyna</w>": 4274,
      "pis": 4275,
      "wykorzystanie</w>": 4276,
      "rokiem</w>": 4277,
      "wypad": 4278,
      "obrębie</w>": 4279,
      "państwu</w>": 4280,
      "proponują</w>": 4281,
      "gdzieś</w>": 4282,
      "ex": 4283,
      "emu</w>": 4284,
      "kontakt</w>": 4285,
      "Gminy</w>": 4286,
      "dr</w>": 4287,
      "uwzględnieniem</w>": 4288,
      "dobrego</w>": 4289,
      "Infrastruktury</w>": 4290,
      "głównej</w>": 4291,
      "cyklu</w>": 4292,
      "zwie": 4293,
      "AS": 4294,
      "czność</w>": 4295,
      "świ": 4296,
      "pen": 4297,
      "62</w>": 4298,
      "ałoby</w>": 4299,
      "rzadko</w>": 4300,
      "szefa</w>": 4301,
      "Th": 4302,
      "wszedł</w>": 4303,
      "efekcie</w>": 4304,
      "formę</w>": 4305,
      "trudne</w>": 4306,
      "wczoraj</w>": 4307,
      "państwie</w>": 4308,
      "1942</w>": 4309,
      "pacjenta</w>": 4310,
      "posłanek</w>": 4311,
      "miesiąc</w>": 4312,
      "ryzyka</w>": 4313,
      "mini": 4314,
      "zgodę</w>": 4315,
      "Europejska</w>": 4316,
      "spad": 4317,
      "jesz</w>": 4318,
      "zajmował</w>": 4319,
      "związana</w>": 4320,
      "podleg": 4321,
      "tes</w>": 4322,
      "szczegółowych</w>": 4323,
      "1974</w>": 4324,
      "handlowych</w>": 4325,
      "trafił</w>": 4326,
      "zjawiska</w>": 4327,
      "ner": 4328,
      "serialu</w>": 4329,
      "doktora</w>": 4330,
      "koncepcji</w>": 4331,
      "wewnątrz</w>": 4332,
      "Stra": 4333,
      "72</w>": 4334,
      "Sam</w>": 4335,
      "przeniósł</w>": 4336,
      "68</w>": 4337,
      "zgodne</w>": 4338,
      "dyskusję</w>": 4339,
      "odbędzie</w>": 4340,
      "nauk</w>": 4341,
      "miesz": 4342,
      "interpelację</w>": 4343,
      "nięty</w>": 4344,
      "wid": 4345,
      "imprezy</w>": 4346,
      "samochodu</w>": 4347,
      "gatunku</w>": 4348,
      "są": 4349,
      "kul": 4350,
      "oto</w>": 4351,
      "ośrodków</w>": 4352,
      "dotyczącego</w>": 4353,
      "J</w>": 4354,
      "zainteresowanie</w>": 4355,
      "elektrycznej</w>": 4356,
      "PiS</w>": 4357,
      "cyjnymi</w>": 4358,
      "zdolności</w>": 4359,
      "gromady</w>": 4360,
      "osobiście</w>": 4361,
      "sar": 4362,
      "sja</w>": 4363,
      "1978</w>": 4364,
      "akt</w>": 4365,
      "przyczyny</w>": 4366,
      "większa</w>": 4367,
      "dalszej</w>": 4368,
      "gór": 4369,
      "Adam</w>": 4370,
      "pole": 4371,
      "swe</w>": 4372,
      "żone</w>": 4373,
      "66</w>": 4374,
      "umowa</w>": 4375,
      "parku</w>": 4376,
      "Nad</w>": 4377,
      "dzieła</w>": 4378,
      "wymagań</w>": 4379,
      "Ostatecznie</w>": 4380,
      "założeń</w>": 4381,
      "wiejskich</w>": 4382,
      "ającymi</w>": 4383,
      "stu</w>": 4384,
      "odbyły</w>": 4385,
      "University</w>": 4386,
      "sprawia</w>": 4387,
      "początek</w>": 4388,
      "rozpoczęto</w>": 4389,
      "rzą": 4390,
      "ab": 4391,
      "istniejących</w>": 4392,
      "sześć</w>": 4393,
      "odnieść</w>": 4394,
      "przestępstwa</w>": 4395,
      "wanego</w>": 4396,
      "dzony</w>": 4397,
      "własny</w>": 4398,
      "Bur": 4399,
      "sądzę</w>": 4400,
      "odkry": 4401,
      "uczestniczył</w>": 4402,
      "służy</w>": 4403,
      "osiąg": 4404,
      "niejszą</w>": 4405,
      "przyzna": 4406,
      "dochodowym</w>": 4407,
      "ver</w>": 4408,
      "wil": 4409,
      "czyni</w>": 4410,
      "szu</w>": 4411,
      "Azji</w>": 4412,
      "1979</w>": 4413,
      "dział": 4414,
      "tel": 4415,
      "synem</w>": 4416,
      "podstawą</w>": 4417,
      "wor": 4418,
      "czno-": 4419,
      "Ligi</w>": 4420,
      "okolicach</w>": 4421,
      "każde</w>": 4422,
      "tri": 4423,
      "firmę</w>": 4424,
      "całkiem</w>": 4425,
      "historię</w>": 4426,
      "Ameryki</w>": 4427,
      "zainteresowania</w>": 4428,
      "moją</w>": 4429,
      "mą</w>": 4430,
      "mecze</w>": 4431,
      "it": 4432,
      "wstąpił</w>": 4433,
      "poprzednich</w>": 4434,
      "zamku</w>": 4435,
      "dziećmi</w>": 4436,
      "położone</w>": 4437,
      "bę</w>": 4438,
      "rad</w>": 4439,
      "dzielnicy</w>": 4440,
      "właściwe</w>": 4441,
      "zapisu</w>": 4442,
      "Marii</w>": 4443,
      "brać</w>": 4444,
      "online</w>": 4445,
      "wymagają</w>": 4446,
      "środowisku</w>": 4447,
      "ów": 4448,
      "jednoznacznie</w>": 4449,
      "substancji</w>": 4450,
      "nieprawidłowości</w>": 4451,
      "łaby</w>": 4452,
      "tworzą</w>": 4453,
      "łego</w>": 4454,
      "pewną</w>": 4455,
      "tradycji</w>": 4456,
      "dotyczący</w>": 4457,
      "mer</w>": 4458,
      "Matki</w>": 4459,
      "potrzebę</w>": 4460,
      "noś": 4461,
      "wyraż": 4462,
      "1968</w>": 4463,
      "liwe</w>": 4464,
      "fazie</w>": 4465,
      "FC</w>": 4466,
      "uzupełni": 4467,
      "komen": 4468,
      "Tadeusz</w>": 4469,
      "zji</w>": 4470,
      "bio": 4471,
      "gami</w>": 4472,
      "brzmieniu</w>": 4473,
      "lej": 4474,
      "wskutek</w>": 4475,
      "36": 4476,
      "las</w>": 4477,
      "trybu</w>": 4478,
      "Głównym</w>": 4479,
      "Komisje</w>": 4480,
      "podział</w>": 4481,
      "59</w>": 4482,
      "uli": 4483,
      "swym</w>": 4484,
      "żar": 4485,
      "sporo</w>": 4486,
      "mały</w>": 4487,
      "Ty</w>": 4488,
      "wielkiego</w>": 4489,
      "wym</w>": 4490,
      "dź</w>": 4491,
      "budowie</w>": 4492,
      "gów</w>": 4493,
      "oczekiwania</w>": 4494,
      "ówek</w>": 4495,
      "strategii</w>": 4496,
      "mę</w>": 4497,
      "1921</w>": 4498,
      "Nowa</w>": 4499,
      "Znajduje</w>": 4500,
      "sło": 4501,
      "chy": 4502,
      "przyjęty</w>": 4503,
      "położona</w>": 4504,
      "przypadki</w>": 4505,
      "działać</w>": 4506,
      "1956</w>": 4507,
      "inną</w>": 4508,
      "powiedziałem</w>": 4509,
      "charakteru</w>": 4510,
      "ler": 4511,
      "ssi": 4512,
      "Zmarł</w>": 4513,
      "koła</w>": 4514,
      "obie": 4515,
      "poparcie</w>": 4516,
      "ewentualnie</w>": 4517,
      "istotnych</w>": 4518,
      "rozbi": 4519,
      "tygodniu</w>": 4520,
      "40": 4521,
      "standardów</w>": 4522,
      "1938</w>": 4523,
      "potrafi</w>": 4524,
      "północy</w>": 4525,
      "drzew</w>": 4526,
      "wskiego</w>": 4527,
      "Ol": 4528,
      "objętych</w>": 4529,
      "zawartego</w>": 4530,
      "będąc</w>": 4531,
      "kościele</w>": 4532,
      "mienie</w>": 4533,
      "grze</w>": 4534,
      "tyka</w>": 4535,
      "zakończenia</w>": 4536,
      "narodowego</w>": 4537,
      "26": 4538,
      "Michał</w>": 4539,
      "6,": 4540,
      "tłu": 4541,
      "gatunki</w>": 4542,
      "znalazły</w>": 4543,
      "gie": 4544,
      "ven": 4545,
      "Anna</w>": 4546,
      "W.</w>": 4547,
      "kole": 4548,
      "67</w>": 4549,
      "mieści</w>": 4550,
      "are": 4551,
      "ofiar</w>": 4552,
      "staro": 4553,
      "zni": 4554,
      "domowych</w>": 4555,
      "byłem</w>": 4556,
      "ady</w>": 4557,
      "dotyczącą</w>": 4558,
      "IN": 4559,
      "spełni": 4560,
      "600</w>": 4561,
      "pem</w>": 4562,
      "Dwa</w>": 4563,
      "Bal": 4564,
      "strasz": 4565,
      "pojawił</w>": 4566,
      "głosowało</w>": 4567,
      "podatników</w>": 4568,
      "wyścigu</w>": 4569,
      "ber</w>": 4570,
      "5.</w>": 4571,
      "czegoś</w>": 4572,
      "mian": 4573,
      "61</w>": 4574,
      "filmów</w>": 4575,
      "specjalnie</w>": 4576,
      "praktyki</w>": 4577,
      "określić</w>": 4578,
      "pojawiły</w>": 4579,
      "tekst</w>": 4580,
      "wiec</w>": 4581,
      "świadczy</w>": 4582,
      "ad</w>": 4583,
      "ologii</w>": 4584,
      "ger</w>": 4585,
      "drogowego</w>": 4586,
      "złożenia</w>": 4587,
      "jnego</w>": 4588,
      "Lecz</w>": 4589,
      "głosy</w>": 4590,
      "Ukrainy</w>": 4591,
      "owskim</w>": 4592,
      "Republiki</w>": 4593,
      "niowego</w>": 4594,
      "ele": 4595,
      "utworzenia</w>": 4596,
      "wielkich</w>": 4597,
      "narodowych</w>": 4598,
      "istotny</w>": 4599,
      "ode": 4600,
      "reguły</w>": 4601,
      "Krajowego</w>": 4602,
      "nicę</w>": 4603,
      "prawną</w>": 4604,
      "lokali</w>": 4605,
      "anymi</w>": 4606,
      "zatrudni": 4607,
      "Puchar</w>": 4608,
      "zle": 4609,
      "sto</w>": 4610,
      "największym</w>": 4611,
      "diecezji</w>": 4612,
      "błąd</w>": 4613,
      "przebiegu</w>": 4614,
      "znaczeniu</w>": 4615,
      "liczy</w>": 4616,
      "73</w>": 4617,
      "ct</w>": 4618,
      "1928</w>": 4619,
      "przysługuje</w>": 4620,
      "Chi": 4621,
      "stolicy</w>": 4622,
      "wka</w>": 4623,
      "zasadę</w>": 4624,
      "jakimś</w>": 4625,
      "sona</w>": 4626,
      "jakiegoś</w>": 4627,
      "Tutaj</w>": 4628,
      "Paryżu</w>": 4629,
      "barwach</w>": 4630,
      "Win": 4631,
      "éj</w>": 4632,
      "kich</w>": 4633,
      "63</w>": 4634,
      "sowe</w>": 4635,
      "Południowej</w>": 4636,
      "filmie</w>": 4637,
      "śle": 4638,
      "wpływem</w>": 4639,
      "odpowiedniej</w>": 4640,
      "dany</w>": 4641,
      "7,": 4642,
      "brązowy</w>": 4643,
      "ekonomicznych</w>": 4644,
      "OW": 4645,
      "74</w>": 4646,
      "oto": 4647,
      "dofinansowania</w>": 4648,
      "kolejnym</w>": 4649,
      "tak": 4650,
      "Były</w>": 4651,
      "chro": 4652,
      "Urodził</w>": 4653,
      "zwal": 4654,
      "owałem</w>": 4655,
      "Zdaniem</w>": 4656,
      "ej": 4657,
      "powieści</w>": 4658,
      "drogach</w>": 4659,
      "wodę</w>": 4660,
      "dan": 4661,
      "Sportu</w>": 4662,
      "mistrzostwo</w>": 4663,
      "jedyny</w>": 4664,
      "obi": 4665,
      "lia</w>": 4666,
      "kontrol": 4667,
      "zę</w>": 4668,
      "ludziom</w>": 4669,
      "pełnej</w>": 4670,
      "równie</w>": 4671,
      "działalnością</w>": 4672,
      "kolejnej</w>": 4673,
      "uzyskanie</w>": 4674,
      "znana</w>": 4675,
      "gen.</w>": 4676,
      "LE": 4677,
      "podmiot</w>": 4678,
      "dochodzi</w>": 4679,
      "granicę</w>": 4680,
      "77</w>": 4681,
      "wydarzeń</w>": 4682,
      "ńca</w>": 4683,
      "lina</w>": 4684,
      "ważnym</w>": 4685,
      "wybuchu</w>": 4686,
      "Han": 4687,
      "igrzysk</w>": 4688,
      "przesu": 4689,
      "wyróż": 4690,
      "ron": 4691,
      "samochód</w>": 4692,
      "76</w>": 4693,
      "przeznaczona</w>": 4694,
      "administracyjnych</w>": 4695,
      "jutro</w>": 4696,
      "treść</w>": 4697,
      "lekarz</w>": 4698,
      "cone</w>": 4699,
      "Mistrzostw</w>": 4700,
      "śmie": 4701,
      "podatkowego</w>": 4702,
      "zastęp": 4703,
      "cer": 4704,
      "książek</w>": 4705,
      "przeprowadzenie</w>": 4706,
      "ru</w>": 4707,
      "stosunków</w>": 4708,
      "nauczyciela</w>": 4709,
      "połączenie</w>": 4710,
      "przyjęte</w>": 4711,
      "Niemniej</w>": 4712,
      "wystąpieniu</w>": 4713,
      "śli": 4714,
      "hal": 4715,
      "przedstawił</w>": 4716,
      "rowa</w>": 4717,
      "aw": 4718,
      "właściwym</w>": 4719,
      "skach</w>": 4720,
      "1960</w>": 4721,
      "konkretnych</w>": 4722,
      "zdania</w>": 4723,
      "Tro": 4724,
      "robót</w>": 4725,
      "prowadzących</w>": 4726,
      "owska</w>": 4727,
      "takimi</w>": 4728,
      "Dobrze</w>": 4729,
      "Jaki</w>": 4730,
      "lskiego</w>": 4731,
      "wykorzystać</w>": 4732,
      "liczbie</w>": 4733,
      "będziesz</w>": 4734,
      "realizowanych</w>": 4735,
      "zdaje</w>": 4736,
      "ciąg": 4737,
      "zdjęć</w>": 4738,
      "specjalne</w>": 4739,
      "Konstytucji</w>": 4740,
      "mach</w>": 4741,
      "rundzie</w>": 4742,
      "wielkość</w>": 4743,
      "kończy</w>": 4744,
      "dowe</w>": 4745,
      "prowincji</w>": 4746,
      "uwag</w>": 4747,
      "5,": 4748,
      "tez</w>": 4749,
      "świątyni</w>": 4750,
      "Inspekcji</w>": 4751,
      "skami</w>": 4752,
      "czytaniu</w>": 4753,
      "mówiła</w>": 4754,
      "Krakowa</w>": 4755,
      "najbliższym</w>": 4756,
      "reg": 4757,
      "minimum</w>": 4758,
      "procesów</w>": 4759,
      "AD": 4760,
      "światła</w>": 4761,
      "dokumentu</w>": 4762,
      "wystąpienie</w>": 4763,
      "szkolenie</w>": 4764,
      "policji</w>": 4765,
      "właścicielem</w>": 4766,
      "nicza</w>": 4767,
      "istocie</w>": 4768,
      "kowana</w>": 4769,
      "paliw</w>": 4770,
      "ac": 4771,
      "czni</w>": 4772,
      "miesiącach</w>": 4773,
      "CZ": 4774,
      "uchy": 4775,
      "Star": 4776,
      "rozwi": 4777,
      "objęte</w>": 4778,
      "przeprowadz": 4779,
      "największe</w>": 4780,
      "najwięcej</w>": 4781,
      "ekspertów</w>": 4782,
      "Marka</w>": 4783,
      "pojawiają</w>": 4784,
      "nowelizacja</w>": 4785,
      "ori": 4786,
      "dawna</w>": 4787,
      "znaczne</w>": 4788,
      "78</w>": 4789,
      "rozstrzyg": 4790,
      "negocjacji</w>": 4791,
      "drewna</w>": 4792,
      "Taka</w>": 4793,
      "internetowych</w>": 4794,
      "71</w>": 4795,
      "jakąś</w>": 4796,
      "przedstawienie</w>": 4797,
      "majątek</w>": 4798,
      "New</w>": 4799,
      "ię</w>": 4800,
      "czeka</w>": 4801,
      "200": 4802,
      "rzem</w>": 4803,
      "Biura</w>": 4804,
      "nakład": 4805,
      "kiego</w>": 4806,
      "1954</w>": 4807,
      "komisje</w>": 4808,
      "przeprowadził</w>": 4809,
      "owice</w>": 4810,
      "jnej</w>": 4811,
      "najlepszy</w>": 4812,
      "Jo": 4813,
      "przyszłość</w>": 4814,
      "sytuacjach</w>": 4815,
      "logii</w>": 4816,
      "czności</w>": 4817,
      "wni": 4818,
      "los</w>": 4819,
      "wyroku</w>": 4820,
      "juz</w>": 4821,
      "120</w>": 4822,
      "Aleksandra</w>": 4823,
      "ley</w>": 4824,
      "mediów</w>": 4825,
      "urodził</w>": 4826,
      "poselskiego</w>": 4827,
      "dzę</w>": 4828,
      "1977</w>": 4829,
      "znanych</w>": 4830,
      "sła": 4831,
      "sensie</w>": 4832,
      "długość</w>": 4833,
      "północny</w>": 4834,
      "stka</w>": 4835,
      "generalnego</w>": 4836,
      "Sal": 4837,
      "obecnych</w>": 4838,
      "Problem</w>": 4839,
      "zwracam</w>": 4840,
      "stosować</w>": 4841,
      "złoty</w>": 4842,
      "nięte</w>": 4843,
      "Grupa</w>": 4844,
      "bami</w>": 4845,
      "rzył</w>": 4846,
      "znalazła</w>": 4847,
      "lę</w>": 4848,
      "aj</w>": 4849,
      "wymieni": 4850,
      "podpisał</w>": 4851,
      "fra": 4852,
      "tura</w>": 4853,
      "klasie</w>": 4854,
      "ks": 4855,
      "Ex": 4856,
      "sztuk</w>": 4857,
      "1947</w>": 4858,
      "orzeczenia</w>": 4859,
      "oddział</w>": 4860,
      "per</w>": 4861,
      "podjęte</w>": 4862,
      "pewnej</w>": 4863,
      "tele": 4864,
      "tzn.</w>": 4865,
      "va": 4866,
      "weszła</w>": 4867,
      "ataku</w>": 4868,
      "gach</w>": 4869,
      "kraje</w>": 4870,
      "meczach</w>": 4871,
      "800</w>": 4872,
      "Wsi</w>": 4873,
      "zmu</w>": 4874,
      "niła</w>": 4875,
      "lad": 4876,
      "lot</w>": 4877,
      "ciężko</w>": 4878,
      "niczy</w>": 4879,
      "ade": 4880,
      "Łu": 4881,
      "obowiązujące</w>": 4882,
      "Tomasz</w>": 4883,
      "Witam</w>": 4884,
      "ura": 4885,
      "przedstawiciela</w>": 4886,
      "pułku</w>": 4887,
      "Gru": 4888,
      "produkt</w>": 4889,
      "kcji</w>": 4890,
      "stale</w>": 4891,
      "wybrać</w>": 4892,
      "budowlane</w>": 4893,
      "emeryturę</w>": 4894,
      "trasy</w>": 4895,
      "właściciela</w>": 4896,
      "prawi": 4897,
      "Ciebie</w>": 4898,
      "obecnego</w>": 4899,
      "zadać</w>": 4900,
      "nastąpi</w>": 4901,
      "związki</w>": 4902,
      "dokument</w>": 4903,
      "przekonaniu</w>": 4904,
      "wydarzenia</w>": 4905,
      "jna</w>": 4906,
      "ary</w>": 4907,
      "stworzyć</w>": 4908,
      "czynników</w>": 4909,
      "organizację</w>": 4910,
      "zespole</w>": 4911,
      "odpowiedniego</w>": 4912,
      "żyli</w>": 4913,
      "ozna": 4914,
      "jskim</w>": 4915,
      "powrocie</w>": 4916,
      "osobą</w>": 4917,
      "Przepisy</w>": 4918,
      "banki</w>": 4919,
      "logi": 4920,
      "noc</w>": 4921,
      "sferze</w>": 4922,
      "podróż": 4923,
      "dzeń</w>": 4924,
      "postanowił</w>": 4925,
      "KO": 4926,
      "zdrowie</w>": 4927,
      "tnego</w>": 4928,
      "środowisk</w>": 4929,
      "eksploatacji</w>": 4930,
      "start": 4931,
      "Park</w>": 4932,
      "sześciu</w>": 4933,
      "wanej</w>": 4934,
      "Zna": 4935,
      "czytanie</w>": 4936,
      "okazuje</w>": 4937,
      "zagadnienia</w>": 4938,
      "środku</w>": 4939,
      "podlegają</w>": 4940,
      "bud": 4941,
      "rąk</w>": 4942,
      "mię": 4943,
      "RA": 4944,
      "ostatniego</w>": 4945,
      "Euro</w>": 4946,
      "wydany</w>": 4947,
      "obecności</w>": 4948,
      "ubiegłym</w>": 4949,
      "1969</w>": 4950,
      "stronach</w>": 4951,
      "MA": 4952,
      "emisji</w>": 4953,
      "godzi": 4954,
      "ny": 4955,
      "gh": 4956,
      "wszystkiego</w>": 4957,
      "OS": 4958,
      "robi": 4959,
      "Nowej</w>": 4960,
      "1964</w>": 4961,
      "niemieckiego</w>": 4962,
      "ono": 4963,
      "96</w>": 4964,
      "jecie</w>": 4965,
      "log": 4966,
      "główne</w>": 4967,
      "Wojska</w>": 4968,
      "bywa</w>": 4969,
      "zagrał</w>": 4970,
      "fil": 4971,
      "Niektóre</w>": 4972,
      "opozycji</w>": 4973,
      "stwierdził</w>": 4974,
      "nag": 4975,
      "wysokim</w>": 4976,
      "obowiązuje</w>": 4977,
      "konserwa": 4978,
      "S-": 4979,
      "fla": 4980,
      "radi": 4981,
      "wę": 4982,
      "Fran": 4983,
      "uwzględni": 4984,
      "ina</w>": 4985,
      "oświadczenia</w>": 4986,
      "tań": 4987,
      "zawodnikiem</w>": 4988,
      "urzędy</w>": 4989,
      "równocześnie</w>": 4990,
      "8,": 4991,
      "dal": 4992,
      "oba</w>": 4993,
      "społeczeństwo</w>": 4994,
      "Inter": 4995,
      "profesora</w>": 4996,
      "scy</w>": 4997,
      "K.</w>": 4998,
      "sal": 4999,
      "Nauk</w>": 5000,
      "gę": 5001,
      "żadnym</w>": 5002,
      "ziemię</w>": 5003,
      "względów</w>": 5004,
      "Biorąc</w>": 5005,
      "niby</w>": 5006,
      "musieli</w>": 5007,
      "darmo</w>": 5008,
      "postępowań</w>": 5009,
      "LI": 5010,
      "gę</w>": 5011,
      "PI": 5012,
      "lą": 5013,
      "edycji</w>": 5014,
      "sezon</w>": 5015,
      "ostrze": 5016,
      "kowa": 5017,
      "Kli": 5018,
      "uczy": 5019,
      "lista</w>": 5020,
      "zwrócił</w>": 5021,
      "finale</w>": 5022,
      "pole</w>": 5023,
      "Włoch</w>": 5024,
      "ustawi": 5025,
      "Kazimierza</w>": 5026,
      "powszechnego</w>": 5027,
      "kana": 5028,
      "Być</w>": 5029,
      "termi": 5030,
      "dziedzi": 5031,
      "mała</w>": 5032,
      "Bel": 5033,
      "łach</w>": 5034,
      "odda": 5035,
      "niczą</w>": 5036,
      "Taki</w>": 5037,
      "następnym</w>": 5038,
      "klienta</w>": 5039,
      "ona": 5040,
      "sklep</w>": 5041,
      "pokazuje</w>": 5042,
      "10-": 5043,
      "Ver": 5044,
      "obro": 5045,
      "miesiąca</w>": 5046,
      "żadne</w>": 5047,
      "god": 5048,
      "podstawowym</w>": 5049,
      "nazwie</w>": 5050,
      "wielkiej</w>": 5051,
      "60": 5052,
      "ski": 5053,
      "ju</w>": 5054,
      "ukończeniu</w>": 5055,
      "zaprze": 5056,
      "San</w>": 5057,
      "Rol": 5058,
      "1952</w>": 5059,
      "świad": 5060,
      "rzecznika</w>": 5061,
      "Kom": 5062,
      "kle": 5063,
      "wod": 5064,
      "konwencji</w>": 5065,
      "głową</w>": 5066,
      "sowych</w>": 5067,
      "P.</w>": 5068,
      "Gdańsku</w>": 5069,
      "chętnie</w>": 5070,
      "lne</w>": 5071,
      "mąż</w>": 5072,
      "ü": 5073,
      "sposobem</w>": 5074,
      "zewnątrz</w>": 5075,
      "forma</w>": 5076,
      "sji</w>": 5077,
      "Japonii</w>": 5078,
      "ata</w>": 5079,
      "wyjechał</w>": 5080,
      "Uważam</w>": 5081,
      "wnioskodawców</w>": 5082,
      "Sojusz</w>": 5083,
      "szu": 5084,
      "rozporządzeniu</w>": 5085,
      "dysponuje</w>": 5086,
      "Wysoką</w>": 5087,
      "dziękuję</w>": 5088,
      "wprowadzone</w>": 5089,
      "Tri": 5090,
      "kilkunastu</w>": 5091,
      "czę</w>": 5092,
      "dokonania</w>": 5093,
      "opracowania</w>": 5094,
      "stanął</w>": 5095,
      "utworów</w>": 5096,
      "mana</w>": 5097,
      "nnych</w>": 5098,
      "rzu": 5099,
      "muzeum</w>": 5100,
      "alkoholu</w>": 5101,
      "mier": 5102,
      "sieć</w>": 5103,
      "Wkrótce</w>": 5104,
      "Now": 5105,
      "art": 5106,
      "wykonywanie</w>": 5107,
      "Mc": 5108,
      "dobrych</w>": 5109,
      "kryzysu</w>": 5110,
      "inwestorów</w>": 5111,
      "książę</w>": 5112,
      "pozwalają</w>": 5113,
      "mieliśmy</w>": 5114,
      "juniorów</w>": 5115,
      "wydane</w>": 5116,
      "ukry": 5117,
      "średnich</w>": 5118,
      "niekiedy</w>": 5119,
      "3,": 5120,
      "zatrudnienie</w>": 5121,
      "ważną</w>": 5122,
      "rada</w>": 5123,
      "ciła</w>": 5124,
      "1950</w>": 5125,
      "pokój</w>": 5126,
      "kompetencje</w>": 5127,
      "godzinie</w>": 5128,
      "stworzenia</w>": 5129,
      "wyjaśnić</w>": 5130,
      "1971</w>": 5131,
      "fy</w>": 5132,
      "finansowane</w>": 5133,
      "metod</w>": 5134,
      "1934</w>": 5135,
      "87</w>": 5136,
      "długie</w>": 5137,
      "przejść</w>": 5138,
      "spokojnie</w>": 5139,
      "wzor": 5140,
      "prób": 5141,
      "skalę</w>": 5142,
      "szanse</w>": 5143,
      "Dar": 5144,
      "domy</w>": 5145,
      "dostępnych</w>": 5146,
      "kół</w>": 5147,
      "ari": 5148,
      "Choć</w>": 5149,
      "posiadania</w>": 5150,
      "zw": 5151,
      "najbliższych</w>": 5152,
      "druki</w>": 5153,
      "zapła": 5154,
      "Agencja</w>": 5155,
      "ałby</w>": 5156,
      "dawno</w>": 5157,
      "styczna</w>": 5158,
      "dalszego</w>": 5159,
      "jakiego</w>": 5160,
      "ak</w>": 5161,
      "mierz": 5162,
      "drużynie</w>": 5163,
      "techniczne</w>": 5164,
      "Zarząd</w>": 5165,
      "zainteresowanych</w>": 5166,
      "list": 5167,
      "posłom</w>": 5168,
      "walk</w>": 5169,
      "większy</w>": 5170,
      "rozgrywek</w>": 5171,
      "Kazimierz</w>": 5172,
      "sądowych</w>": 5173,
      "wykorzystywane</w>": 5174,
      "leniem</w>": 5175,
      "powołania</w>": 5176,
      "trzeciego</w>": 5177,
      "pochodzą</w>": 5178,
      "następnych</w>": 5179,
      "nęły</w>": 5180,
      "specjalistów</w>": 5181,
      "Grand</w>": 5182,
      "złożył</w>": 5183,
      "m.</w>": 5184,
      "pisze</w>": 5185,
      "zakład</w>": 5186,
      "powi": 5187,
      "wstępie</w>": 5188,
      "męża</w>": 5189,
      "ang.</w>": 5190,
      "kara": 5191,
      "kuchni</w>": 5192,
      "zwycięstwo</w>": 5193,
      "gad": 5194,
      "nień</w>": 5195,
      "produk": 5196,
      "bieżącym</w>": 5197,
      "bów</w>": 5198,
      "podejmowania</w>": 5199,
      "dzone</w>": 5200,
      "nogi</w>": 5201,
      "ewidencji</w>": 5202,
      "prac": 5203,
      "obo": 5204,
      "publikacji</w>": 5205,
      "dostrze": 5206,
      "Szy": 5207,
      "sprawdz": 5208,
      "prowadzonej</w>": 5209,
      "ted</w>": 5210,
      "sądy</w>": 5211,
      "79</w>": 5212,
      "wpływa</w>": 5213,
      "dia": 5214,
      "4,": 5215,
      "lew": 5216,
      "wnoszą</w>": 5217,
      "Nowe</w>": 5218,
      "szczegółowe</w>": 5219,
      "Por": 5220,
      "mistrzem</w>": 5221,
      "skrzy": 5222,
      "najlepszym</w>": 5223,
      "dowódcy</w>": 5224,
      "proce": 5225,
      "szka</w>": 5226,
      "maj": 5227,
      "potrzebna</w>": 5228,
      "aniem</w>": 5229,
      "pracow": 5230,
      "koalicji</w>": 5231,
      "podkomisji</w>": 5232,
      "referendum</w>": 5233,
      "zasada</w>": 5234,
      "instrumentów</w>": 5235,
      "ogra": 5236,
      "dzieckiem</w>": 5237,
      "materiał</w>": 5238,
      "zach": 5239,
      "nięta</w>": 5240,
      "łącz": 5241,
      "określonej</w>": 5242,
      "zło": 5243,
      "rozmów</w>": 5244,
      "oficjalnie</w>": 5245,
      "brze": 5246,
      "ciekawe</w>": 5247,
      "rodzajów</w>": 5248,
      "uznał</w>": 5249,
      "Ban": 5250,
      "Australii</w>": 5251,
      "mat</w>": 5252,
      "dosta": 5253,
      "usu": 5254,
      "stron": 5255,
      "pełni": 5256,
      "piersi</w>": 5257,
      "aliśmy</w>": 5258,
      "narodu</w>": 5259,
      "rozgrywkach</w>": 5260,
      "gospodar": 5261,
      "kowi": 5262,
      "rów": 5263,
      "krzyż": 5264,
      "Henryk</w>": 5265,
      "1937</w>": 5266,
      "83</w>": 5267,
      "nicz": 5268,
      "obrazu</w>": 5269,
      "powstało</w>": 5270,
      "Grupy</w>": 5271,
      "mami</w>": 5272,
      "Świętego</w>": 5273,
      "1967</w>": 5274,
      "odnosi</w>": 5275,
      "Min": 5276,
      "biskupa</w>": 5277,
      "rośnie</w>": 5278,
      "sprawozdawca</w>": 5279,
      "dziło</w>": 5280,
      "niać</w>": 5281,
      "Gre": 5282,
      "str": 5283,
      "zasiłku</w>": 5284,
      "PA": 5285,
      "jeziora</w>": 5286,
      "cał": 5287,
      "rzu</w>": 5288,
      "Północnej</w>": 5289,
      "1936</w>": 5290,
      "nę": 5291,
      "grać</w>": 5292,
      "Film</w>": 5293,
      "zamieszkania</w>": 5294,
      "bank</w>": 5295,
      "właściwych</w>": 5296,
      "ä": 5297,
      "lam</w>": 5298,
      "myśl": 5299,
      "silnie</w>": 5300,
      "ble</w>": 5301,
      "bi</w>": 5302,
      "Druga</w>": 5303,
      "bach</w>": 5304,
      "ża": 5305,
      "pi</w>": 5306,
      "zarząd</w>": 5307,
      "efektywności</w>": 5308,
      "pojęcia</w>": 5309,
      "zespoły</w>": 5310,
      "powtarz": 5311,
      "dzieli</w>": 5312,
      "Q": 5313,
      "byś</w>": 5314,
      "39": 5315,
      "stawek</w>": 5316,
      "spła": 5317,
      "1966</w>": 5318,
      "położony</w>": 5319,
      "śni": 5320,
      "koch": 5321,
      "okrę": 5322,
      "pełnym</w>": 5323,
      "smu": 5324,
      "ubezpieczenie</w>": 5325,
      "69</w>": 5326,
      "interpretacji</w>": 5327,
      "wali": 5328,
      "John</w>": 5329,
      "MO": 5330,
      "finansowym</w>": 5331,
      "wysoki</w>": 5332,
      "dotycząca</w>": 5333,
      "poprze": 5334,
      "88</w>": 5335,
      "pocz": 5336,
      "rą": 5337,
      "ró": 5338,
      "t-": 5339,
      "tyczna</w>": 5340,
      "82</w>": 5341,
      "średnio</w>": 5342,
      "Kolejne</w>": 5343,
      "dowych</w>": 5344,
      "dostar": 5345,
      "zmianą</w>": 5346,
      "głosował</w>": 5347,
      "miejskich</w>": 5348,
      "Ukończył</w>": 5349,
      "krótkim</w>": 5350,
      "meczów</w>": 5351,
      "zgodności</w>": 5352,
      "oddziaływania</w>": 5353,
      "ia": 5354,
      "kru": 5355,
      "pozostał</w>": 5356,
      "Zagranicznych</w>": 5357,
      "każdą</w>": 5358,
      "81</w>": 5359,
      "chow": 5360,
      "drzewa</w>": 5361,
      "ly": 5362,
      "chcieli</w>": 5363,
      "oni": 5364,
      "Czas</w>": 5365,
      "gwarancji</w>": 5366,
      "większym</w>": 5367,
      "wymienione</w>": 5368,
      "głowie</w>": 5369,
      "gruncie</w>": 5370,
      "bek</w>": 5371,
      "przewo": 5372,
      "legislacyjnych</w>": 5373,
      "ms</w>": 5374,
      "World</w>": 5375,
      "skiemu</w>": 5376,
      "żyje</w>": 5377,
      "grę</w>": 5378,
      "with</w>": 5379,
      "oj": 5380,
      "chod": 5381,
      "mandat</w>": 5382,
      "Rze": 5383,
      "walkę</w>": 5384,
      "okna</w>": 5385,
      "ucie": 5386,
      "użyciu</w>": 5387,
      "szedł</w>": 5388,
      "głosowanie</w>": 5389,
      "zbliż": 5390,
      "produkcję</w>": 5391,
      "wymogów</w>": 5392,
      "powyższych</w>": 5393,
      "konkretne</w>": 5394,
      "1949</w>": 5395,
      "obserw": 5396,
      "trafi": 5397,
      "uzyskała</w>": 5398,
      "Zakład</w>": 5399,
      "przekazanie</w>": 5400,
      "bitwie</w>": 5401,
      "powoli</w>": 5402,
      "osiągnąć</w>": 5403,
      "ustalono</w>": 5404,
      "Pow": 5405,
      "Szkoła</w>": 5406,
      "szyb": 5407,
      "PSL</w>": 5408,
      "sprowa": 5409,
      "XV</w>": 5410,
      "medi": 5411,
      "MI": 5412,
      "osobie</w>": 5413,
      "piechoty</w>": 5414,
      "będące</w>": 5415,
      "mina": 5416,
      "przełomie</w>": 5417,
      "konsekwencje</w>": 5418,
      "pt.</w>": 5419,
      "Austrii</w>": 5420,
      "ganie</w>": 5421,
      "interwencji</w>": 5422,
      "żyły</w>": 5423,
      "pów</w>": 5424,
      "hol": 5425,
      "lacja</w>": 5426,
      "łość</w>": 5427,
      "trans": 5428,
      "wystawi": 5429,
      "Pozostałe</w>": 5430,
      "š": 5431,
      "brzegu</w>": 5432,
      "nagrodę</w>": 5433,
      "pl": 5434,
      "Służby</w>": 5435,
      "lera</w>": 5436,
      "spod</w>": 5437,
      "nosi</w>": 5438,
      "działają</w>": 5439,
      "tycznym</w>": 5440,
      "przekazania</w>": 5441,
      "nieza": 5442,
      "zamówień</w>": 5443,
      "kierowców</w>": 5444,
      "ota</w>": 5445,
      "wojennych</w>": 5446,
      "łow": 5447,
      "Szkole</w>": 5448,
      "podmiotu</w>": 5449,
      "mię</w>": 5450,
      "iść</w>": 5451,
      "kogoś</w>": 5452,
      "cóż</w>": 5453,
      "BI": 5454,
      "port</w>": 5455,
      "Bezpieczeństwa</w>": 5456,
      "Wiem</w>": 5457,
      "osi</w>": 5458,
      "zespołem</w>": 5459,
      "poe": 5460,
      "sowym</w>": 5461,
      "podium</w>": 5462,
      "wchodzą</w>": 5463,
      "fik": 5464,
      "sowy</w>": 5465,
      "środka</w>": 5466,
      "firmie</w>": 5467,
      "rejestracji</w>": 5468,
      "stara</w>": 5469,
      "decyduje</w>": 5470,
      "szkody</w>": 5471,
      "uzasadnieniu</w>": 5472,
      "poprzedniej</w>": 5473,
      "powiatowych</w>": 5474,
      "Stos": 5475,
      "łka</w>": 5476,
      "członka</w>": 5477,
      "wą": 5478,
      "tekstu</w>": 5479,
      "Olimpijskich</w>": 5480,
      "wynagrodzenie</w>": 5481,
      "pisma</w>": 5482,
      "sowego</w>": 5483,
      "poinformowała</w>": 5484,
      "waż": 5485,
      "dam</w>": 5486,
      "dochodowego</w>": 5487,
      "skierowany</w>": 5488,
      "rozumieniu</w>": 5489,
      "działających</w>": 5490,
      "samodzielnie</w>": 5491,
      "przestępstw</w>": 5492,
      "stanowiły</w>": 5493,
      "Katowicach</w>": 5494,
      "sol": 5495,
      "wyjątkowo</w>": 5496,
      "samolotów</w>": 5497,
      "kwot</w>": 5498,
      "wodnych</w>": 5499,
      "Cz": 5500,
      "ofercie</w>": 5501,
      "szczegółowo</w>": 5502,
      "pomoc": 5503,
      "poprawi": 5504,
      "Żydów</w>": 5505,
      "eksportu</w>": 5506,
      "struktur</w>": 5507,
      "źródłem</w>": 5508,
      "dzisiejszego</w>": 5509,
      "ić</w>": 5510,
      "brat</w>": 5511,
      "przejścia</w>": 5512,
      "szef</w>": 5513,
      "szczególnym</w>": 5514,
      "styczną</w>": 5515,
      "spełnia</w>": 5516,
      "dochodu</w>": 5517,
      "zmem</w>": 5518,
      "chłod": 5519,
      "tanie</w>": 5520,
      "Liczba</w>": 5521,
      "osiągnął</w>": 5522,
      "skierowane</w>": 5523,
      "Wielkiego</w>": 5524,
      "Wówczas</w>": 5525,
      "ości": 5526,
      "obniżenie</w>": 5527,
      "kasy</w>": 5528,
      "lizacja</w>": 5529,
      "sek</w>": 5530,
      "godzinach</w>": 5531,
      "Programu</w>": 5532,
      "wanym</w>": 5533,
      "linia</w>": 5534,
      "ściany</w>": 5535,
      "dodatku</w>": 5536,
      "bieżąco</w>": 5537,
      "Dom</w>": 5538,
      "słowo</w>": 5539,
      "wyposażenia</w>": 5540,
      "fundusz</w>": 5541,
      "niektórzy</w>": 5542,
      "obawy</w>": 5543,
      "proste</w>": 5544,
      "rozszerz": 5545,
      "lan</w>": 5546,
      "należała</w>": 5547,
      "sowej</w>": 5548,
      "tus</w>": 5549,
      "ywanie</w>": 5550,
      "interesy</w>": 5551,
      "uregulowania</w>": 5552,
      "ofertę</w>": 5553,
      "ustawowych</w>": 5554,
      "osa": 5555,
      "rodzinnego</w>": 5556,
      "swoimi</w>": 5557,
      "sad": 5558,
      "wbrew</w>": 5559,
      "wysoko</w>": 5560,
      "nin</w>": 5561,
      "przekazane</w>": 5562,
      "strzelił</w>": 5563,
      "Adama</w>": 5564,
      "ażeby</w>": 5565,
      "Śląska</w>": 5566,
      "dóbr</w>": 5567,
      "cal": 5568,
      "otrzymać</w>": 5569,
      "Ad": 5570,
      "bran": 5571,
      "przemocy</w>": 5572,
      "Mil": 5573,
      "jakaś</w>": 5574,
      "obiekty</w>": 5575,
      "jednostka</w>": 5576,
      "własnością</w>": 5577,
      "WI": 5578,
      "panem</w>": 5579,
      "całość</w>": 5580,
      "dokonał</w>": 5581,
      "wykonuje</w>": 5582,
      "250</w>": 5583,
      "poważnie</w>": 5584,
      "podatkowej</w>": 5585,
      "granic</w>": 5586,
      "naby": 5587,
      "odcinek</w>": 5588,
      "kowska</w>": 5589,
      "rangi</w>": 5590,
      "dorosłych</w>": 5591,
      "złe</w>": 5592,
      "złożyć</w>": 5593,
      "Afryki</w>": 5594,
      "używane</w>": 5595,
      "wpływów</w>": 5596,
      "trz": 5597,
      "wypłaty</w>": 5598,
      "kogo</w>": 5599,
      "eta": 5600,
      "Występuje</w>": 5601,
      "leki</w>": 5602,
      "więzienia</w>": 5603,
      "decyzją</w>": 5604,
      "urzędników</w>": 5605,
      "oka</w>": 5606,
      "sprzeda": 5607,
      "cht</w>": 5608,
      "niowym</w>": 5609,
      "lotu</w>": 5610,
      "stary</w>": 5611,
      "odsetek</w>": 5612,
      "2,5</w>": 5613,
      "działo</w>": 5614,
      "chroni": 5615,
      "powodzi</w>": 5616,
      "europejskiej</w>": 5617,
      "kwocie</w>": 5618,
      "morskich</w>": 5619,
      "che</w>": 5620,
      "napisał</w>": 5621,
      "Słu": 5622,
      "uczniowie</w>": 5623,
      "żem</w>": 5624,
      "Sp.</w>": 5625,
      "98</w>": 5626,
      "kar</w>": 5627,
      "lii</w>": 5628,
      "ed</w>": 5629,
      "maty": 5630,
      "świadczeniach</w>": 5631,
      "lek": 5632,
      "Sił</w>": 5633,
      "oczach</w>": 5634,
      "ulega</w>": 5635,
      "jasno</w>": 5636,
      "źródło</w>": 5637,
      "Zmiany</w>": 5638,
      "ph": 5639,
      "AM": 5640,
      "Cor": 5641,
      "XIV</w>": 5642,
      "staw": 5643,
      "przedstawicielami</w>": 5644,
      "Skoro</w>": 5645,
      "procent</w>": 5646,
      "Najwyższej</w>": 5647,
      "PLN</w>": 5648,
      "mogłyby</w>": 5649,
      "egzaminu</w>": 5650,
      "dna</w>": 5651,
      "właściciel</w>": 5652,
      "materii</w>": 5653,
      "kl": 5654,
      "parlamentarnych</w>": 5655,
      "rac": 5656,
      "przekształ": 5657,
      "skra": 5658,
      "historia</w>": 5659,
      "sam": 5660,
      "ien": 5661,
      "ję": 5662,
      "res": 5663,
      "Kan": 5664,
      "trzeciej</w>": 5665,
      "Szwecji</w>": 5666,
      "zmierzające</w>": 5667,
      "brata</w>": 5668,
      "owo": 5669,
      "owskich</w>": 5670,
      "imprez</w>": 5671,
      "rie": 5672,
      "techniki</w>": 5673,
      "poprzedniego</w>": 5674,
      "Pl</w>": 5675,
      "realiz": 5676,
      "ocena</w>": 5677,
      "prakty": 5678,
      "sowa</w>": 5679,
      "zobowiązany</w>": 5680,
      "działał</w>": 5681,
      "szczególnych</w>": 5682,
      "Przede</w>": 5683,
      "Pru": 5684,
      "łym</w>": 5685,
      "uzyskaniu</w>": 5686,
      "Kie": 5687,
      "mianowany</w>": 5688,
      "Ben": 5689,
      "nadzor": 5690,
      "administracyjnego</w>": 5691,
      "meta": 5692,
      "Krzy": 5693,
      "dzkiego</w>": 5694,
      "lubi": 5695,
      "chwy": 5696,
      "1965</w>": 5697,
      "ala": 5698,
      "92</w>": 5699,
      "boj": 5700,
      "wyspy</w>": 5701,
      "czytel": 5702,
      "gał</w>": 5703,
      "dyrektywy</w>": 5704,
      "jed": 5705,
      "podobnych</w>": 5706,
      "czeń</w>": 5707,
      "teorii</w>": 5708,
      "nęło</w>": 5709,
      "spę": 5710,
      "wając</w>": 5711,
      "Prace</w>": 5712,
      "Tru": 5713,
      "rządy</w>": 5714,
      "składu</w>": 5715,
      "niak</w>": 5716,
      "Ter": 5717,
      "lanie</w>": 5718,
      "niono</w>": 5719,
      "lewej</w>": 5720,
      "ręki</w>": 5721,
      "przedmiotów</w>": 5722,
      "działaniach</w>": 5723,
      "perspektywie</w>": 5724,
      "res</w>": 5725,
      "autorem</w>": 5726,
      "medale</w>": 5727,
      "łości</w>": 5728,
      "zasadami</w>": 5729,
      "lekko</w>": 5730,
      "pracownik</w>": 5731,
      "macie</w>": 5732,
      "wyło": 5733,
      "97</w>": 5734,
      "91</w>": 5735,
      "woda</w>": 5736,
      "zawod": 5737,
      "opiekę</w>": 5738,
      "wysokich</w>": 5739,
      "Polskim</w>": 5740,
      "jną</w>": 5741,
      "pri": 5742,
      "szans</w>": 5743,
      "rodu</w>": 5744,
      "znajdował</w>": 5745,
      "cjom</w>": 5746,
      "ocenę</w>": 5747,
      "lana</w>": 5748,
      "1924</w>": 5749,
      "Dra": 5750,
      "zrobił</w>": 5751,
      "1962</w>": 5752,
      "Piechoty</w>": 5753,
      "obecność</w>": 5754,
      "zację</w>": 5755,
      "ó</w>": 5756,
      "des</w>": 5757,
      "doświadczeń</w>": 5758,
      "rolnej</w>": 5759,
      "łu</w>": 5760,
      "czymś</w>": 5761,
      "samorząd</w>": 5762,
      "utworzenie</w>": 5763,
      "państwowe</w>": 5764,
      "1961</w>": 5765,
      "samolotu</w>": 5766,
      "składania</w>": 5767,
      "ńców</w>": 5768,
      "lać</w>": 5769,
      "ochro": 5770,
      "jednostkach</w>": 5771,
      "owca</w>": 5772,
      "weszły</w>": 5773,
      "Fil": 5774,
      "ństwo</w>": 5775,
      "plu": 5776,
      "dostał</w>": 5777,
      "integracji</w>": 5778,
      "największą</w>": 5779,
      "ino</w>": 5780,
      "86</w>": 5781,
      "łej</w>": 5782,
      "konkursie</w>": 5783,
      "zmniejszenia</w>": 5784,
      "finansowanych</w>": 5785,
      "wojewody</w>": 5786,
      "SK": 5787,
      "Pat": 5788,
      "lokalizacji</w>": 5789,
      "odwie": 5790,
      "kolor</w>": 5791,
      "należał</w>": 5792,
      "Działania</w>": 5793,
      "sprzeciwu</w>": 5794,
      "małej</w>": 5795,
      "telefon</w>": 5796,
      "1922</w>": 5797,
      "ton": 5798,
      "niewielkie</w>": 5799,
      "tk": 5800,
      "wieniu</w>": 5801,
      "pki</w>": 5802,
      "Trudno</w>": 5803,
      "bia</w>": 5804,
      "Istnieje</w>": 5805,
      "Sk": 5806,
      "doświad": 5807,
      "US</w>": 5808,
      "okazję</w>": 5809,
      "Opis</w>": 5810,
      "organizacja</w>": 5811,
      "określonym</w>": 5812,
      "dziły</w>": 5813,
      "kwalifik": 5814,
      "wę</w>": 5815,
      "pewna</w>": 5816,
      ",5</w>": 5817,
      "zabrać</w>": 5818,
      "naukowe</w>": 5819,
      "letniego</w>": 5820,
      "komuni": 5821,
      "kątem</w>": 5822,
      "nikogo</w>": 5823,
      "tworzyć</w>": 5824,
      "lizacji</w>": 5825,
      "kad": 5826,
      "wg</w>": 5827,
      "wypadków</w>": 5828,
      "pisał</w>": 5829,
      "Kro": 5830,
      "Mer": 5831,
      "otrzymuje</w>": 5832,
      "finansową</w>": 5833,
      "oznacz": 5834,
      "nięciu</w>": 5835,
      "bel": 5836,
      "cof": 5837,
      "znajdzie</w>": 5838,
      "Aktualnie</w>": 5839,
      "2.": 5840,
      "pada</w>": 5841,
      "wskaźnik</w>": 5842,
      "chło": 5843,
      "starszych</w>": 5844,
      "obiekt</w>": 5845,
      "1958</w>": 5846,
      "nne</w>": 5847,
      "Lan": 5848,
      "tydzień</w>": 5849,
      "84</w>": 5850,
      "wiedział</w>": 5851,
      "PE": 5852,
      "1957</w>": 5853,
      "ochroną</w>": 5854,
      "znajdujących</w>": 5855,
      "cechy</w>": 5856,
      "1930</w>": 5857,
      "sekretarza</w>": 5858,
      "Krzyżem</w>": 5859,
      "cmentarzu</w>": 5860,
      "czono</w>": 5861,
      "prawdy</w>": 5862,
      "wywo": 5863,
      "podzie": 5864,
      "wybranych</w>": 5865,
      "lep": 5866,
      "gli": 5867,
      "sis</w>": 5868,
      "Jesteśmy</w>": 5869,
      "trzecim</w>": 5870,
      "Lin": 5871,
      "bloku</w>": 5872,
      "ochrona</w>": 5873,
      "cieka": 5874,
      "aktu</w>": 5875,
      "przygotowane</w>": 5876,
      "systemy</w>": 5877,
      "tytułem</w>": 5878,
      "80": 5879,
      "szeniem</w>": 5880,
      "Ger": 5881,
      "Niemców</w>": 5882,
      "zję</w>": 5883,
      "niejszego</w>": 5884,
      "ė": 5885,
      "lokalnej</w>": 5886,
      "cią": 5887,
      "względzie</w>": 5888,
      "dowie": 5889,
      "uzasadnione</w>": 5890,
      "przedstawiciel</w>": 5891,
      "Będzie</w>": 5892,
      "sytuacją</w>": 5893,
      "wypełni": 5894,
      "Karola</w>": 5895,
      "prote": 5896,
      "nieruchomościami</w>": 5897,
      "wido": 5898,
      "wykry": 5899,
      "styki</w>": 5900,
      "znie": 5901,
      "dze": 5902,
      "główną</w>": 5903,
      "nianie</w>": 5904,
      "wen": 5905,
      "com": 5906,
      "państwach</w>": 5907,
      "Cha": 5908,
      "nakładów</w>": 5909,
      "Robert</w>": 5910,
      "obozu</w>": 5911,
      "wpływy</w>": 5912,
      "oba": 5913,
      "odbior": 5914,
      "poprzednim</w>": 5915,
      "hydro": 5916,
      "polityce</w>": 5917,
      "interes</w>": 5918,
      "Lublinie</w>": 5919,
      "tyki</w>": 5920,
      "czyn</w>": 5921,
      "Spo": 5922,
      "Gor": 5923,
      "owości</w>": 5924,
      "test": 5925,
      "znacznym</w>": 5926,
      "Fo": 5927,
      "specjali": 5928,
      "przyszłym</w>": 5929,
      "wad": 5930,
      "kore": 5931,
      "sięg": 5932,
      "stki</w>": 5933,
      "mego</w>": 5934,
      "bu</w>": 5935,
      "odpowiedzialny</w>": 5936,
      "zdra": 5937,
      "ź</w>": 5938,
      "wyci": 5939,
      "B.</w>": 5940,
      "zgłoszono</w>": 5941,
      "asz</w>": 5942,
      "1959</w>": 5943,
      "gospodarczy</w>": 5944,
      "Kre": 5945,
      "Mod": 5946,
      "zmienił</w>": 5947,
      "zjawisko</w>": 5948,
      "Czer": 5949,
      "prawdę</w>": 5950,
      "-u</w>": 5951,
      "TV</w>": 5952,
      "przedmiotu</w>": 5953,
      "il</w>": 5954,
      "tz</w>": 5955,
      "pracą</w>": 5956,
      "zawodnik</w>": 5957,
      "Kilka</w>": 5958,
      "zdrowotne</w>": 5959,
      "karę</w>": 5960,
      "podejmie</w>": 5961,
      "wejście</w>": 5962,
      "ód</w>": 5963,
      "nal": 5964,
      "chciałem</w>": 5965,
      "nastąpić</w>": 5966,
      "trudnej</w>": 5967,
      "czką</w>": 5968,
      "obni": 5969,
      "jasne</w>": 5970,
      "serdecznie</w>": 5971,
      "szeregu</w>": 5972,
      "nazwiska</w>": 5973,
      "srebrny</w>": 5974,
      "roboty</w>": 5975,
      "statusu</w>": 5976,
      "pochowany</w>": 5977,
      "córki</w>": 5978,
      "populacji</w>": 5979,
      "społeczną</w>": 5980,
      "raż": 5981,
      "stami</w>": 5982,
      "łó": 5983,
      "dwor": 5984,
      "Cu": 5985,
      "przykładem</w>": 5986,
      "dzona</w>": 5987,
      "Także</w>": 5988,
      "podatkowe</w>": 5989,
      "sław": 5990,
      "czonych</w>": 5991,
      "broń</w>": 5992,
      "fre": 5993,
      "szpitali</w>": 5994,
      "liwość</w>": 5995,
      "udostęp": 5996,
      "pochodzących</w>": 5997,
      "zam": 5998,
      "odbi": 5999,
      "Ruch</w>": 6000,
      "Radzie</w>": 6001,
      "powrót</w>": 6002,
      "Biuro</w>": 6003,
      "powstaje</w>": 6004,
      "wnioskodawca</w>": 6005,
      "niał</w>": 6006,
      "ktu</w>": 6007,
      "czyn": 6008,
      "maszyn</w>": 6009,
      "myślą</w>": 6010,
      "Bru": 6011,
      "opowiada</w>": 6012,
      "ss": 6013,
      "sse": 6014,
      "Gmina</w>": 6015,
      "określonego</w>": 6016,
      "odrzu": 6017,
      "wybory</w>": 6018,
      "budową</w>": 6019,
      "ktor</w>": 6020,
      "przedsięwzięć</w>": 6021,
      "porusz": 6022,
      "IS": 6023,
      "PS": 6024,
      "spadku</w>": 6025,
      "Py": 6026,
      "wodą</w>": 6027,
      "osła": 6028,
      "straży</w>": 6029,
      "słuch": 6030,
      "rolnicy</w>": 6031,
      "wydawania</w>": 6032,
      "Dotyczy</w>": 6033,
      "DzU</w>": 6034,
      "ll</w>": 6035,
      "1951</w>": 6036,
      "przewidziane</w>": 6037,
      "deklaracji</w>": 6038,
      "odcinka</w>": 6039,
      "musiała</w>": 6040,
      "ft</w>": 6041,
      "Osoby</w>": 6042,
      "dzy</w>": 6043,
      "izby</w>": 6044,
      "szkolnictwa</w>": 6045,
      "dyrektorem</w>": 6046,
      "Boże</w>": 6047,
      "czn": 6048,
      "tyczną</w>": 6049,
      "wydłu": 6050,
      "cal</w>": 6051,
      "niedawno</w>": 6052,
      "sprawdzić</w>": 6053,
      "Nikt</w>": 6054,
      "chci": 6055,
      "lska</w>": 6056,
      "poda": 6057,
      "tyl": 6058,
      "Zakładu</w>": 6059,
      "koniecznością</w>": 6060,
      "stych</w>": 6061,
      "zaczęły</w>": 6062,
      "zach</w>": 6063,
      "Zresztą</w>": 6064,
      "zato": 6065,
      "gatunek</w>": 6066,
      "hy": 6067,
      "tygodnie</w>": 6068,
      "klas</w>": 6069,
      "ryn": 6070,
      "wspólnej</w>": 6071,
      "XIII</w>": 6072,
      "Władysław</w>": 6073,
      "89</w>": 6074,
      "zajmują</w>": 6075,
      "ham": 6076,
      "pogląd</w>": 6077,
      "Mikołaja</w>": 6078,
      "impor": 6079,
      "Nic</w>": 6080,
      "chciała</w>": 6081,
      "Bog": 6082,
      "chciałabym</w>": 6083,
      "transpor": 6084,
      "kurs</w>": 6085,
      "prawej</w>": 6086,
      "liwych</w>": 6087,
      "poznać</w>": 6088,
      "tymże</w>": 6089,
      "Narodów</w>": 6090,
      "kać</w>": 6091,
      "aplikacji</w>": 6092,
      "wiary</w>": 6093,
      "kierow": 6094,
      "RE": 6095,
      "maszyny</w>": 6096,
      "ogólno": 6097,
      "popiera</w>": 6098,
      "żeń</w>": 6099,
      "wymiarze</w>": 6100,
      "przebiega</w>": 6101,
      "szę</w>": 6102,
      "Bez": 6103,
      "wskim</w>": 6104,
      "publi": 6105,
      "duszy</w>": 6106,
      "produkcja</w>": 6107,
      "dokonano</w>": 6108,
      "masy</w>": 6109,
      "kilkadziesiąt</w>": 6110,
      "kredyt</w>": 6111,
      "moment</w>": 6112,
      "popełni": 6113,
      "dia</w>": 6114,
      "iz": 6115,
      "strat</w>": 6116,
      "up": 6117,
      "kas</w>": 6118,
      "Hal": 6119,
      "Holandii</w>": 6120,
      "niają</w>": 6121,
      "opie": 6122,
      "parlament</w>": 6123,
      "przygotowany</w>": 6124,
      "rehabilitacji</w>": 6125,
      "zawarcia</w>": 6126,
      "zad": 6127,
      "szlache": 6128,
      "zezwolenia</w>": 6129,
      "zajmując</w>": 6130,
      "dzki</w>": 6131,
      "zawie": 6132,
      "wspiera": 6133,
      "dowa</w>": 6134,
      "aresz": 6135,
      "Stowarzyszenia</w>": 6136,
      "wił</w>": 6137,
      "wyższego</w>": 6138,
      "ble": 6139,
      "Jorku</w>": 6140,
      "letniej</w>": 6141,
      "zakaz</w>": 6142,
      "podziękować</w>": 6143,
      "SZ": 6144,
      "piosenki</w>": 6145,
      "wyodręb": 6146,
      "chodziło</w>": 6147,
      "kowanych</w>": 6148,
      "2018</w>": 6149,
      "NATO</w>": 6150,
      "obywatele</w>": 6151,
      "Wyższej</w>": 6152,
      "czak</w>": 6153,
      "o.</w>": 6154,
      "oficerów</w>": 6155,
      "kroki</w>": 6156,
      "zakończyła</w>": 6157,
      "formacji</w>": 6158,
      "wywalczył</w>": 6159,
      "formą</w>": 6160,
      "lecz": 6161,
      "EN": 6162,
      "Sytuacja</w>": 6163,
      "letnich</w>": 6164,
      "relacje</w>": 6165,
      "zwycię": 6166,
      "ałeś</w>": 6167,
      "starych</w>": 6168,
      "ludźmi</w>": 6169,
      "kał</w>": 6170,
      "Człowieka</w>": 6171,
      "fizycznej</w>": 6172,
      "metra</w>": 6173,
      "miejskiej</w>": 6174,
      "podaje</w>": 6175,
      "Narodowym</w>": 6176,
      "regul": 6177,
      "uchwal": 6178,
      "pary</w>": 6179,
      "ął</w>": 6180,
      ".0": 6181,
      "punkcie</w>": 6182,
      "19": 6183,
      "lasów</w>": 6184,
      "wrócić</w>": 6185,
      "kosztem</w>": 6186,
      "krok</w>": 6187,
      "szem</w>": 6188,
      "gal": 6189,
      "stosunek</w>": 6190,
      "pozbawienia</w>": 6191,
      "ustroju</w>": 6192,
      "Henryka</w>": 6193,
      "publicznym</w>": 6194,
      "dostać</w>": 6195,
      "bezwzględnej</w>": 6196,
      "odbiorców</w>": 6197,
      "ssa": 6198,
      "uprawnionych</w>": 6199,
      "uznania</w>": 6200,
      "silnik</w>": 6201,
      "wu</w>": 6202,
      "Historia</w>": 6203,
      "reali": 6204,
      "umowie</w>": 6205,
      "świę": 6206,
      "pojawiła</w>": 6207,
      "normy</w>": 6208,
      "stóp</w>": 6209,
      "wymiar</w>": 6210,
      "dokonuje</w>": 6211,
      "ministrów</w>": 6212,
      "3.": 6213,
      "Odpowiadając</w>": 6214,
      "wielka</w>": 6215,
      "włosy</w>": 6216,
      "Char": 6217,
      "len</w>": 6218,
      "dając</w>": 6219,
      "wybra": 6220,
      "silnika</w>": 6221,
      "tal": 6222,
      "poczucie</w>": 6223,
      "7.</w>": 6224,
      "odszedł</w>": 6225,
      "spodzie": 6226,
      "ór</w>": 6227,
      "kr": 6228,
      "mechanizm</w>": 6229,
      "nicą</w>": 6230,
      "tur</w>": 6231,
      "Wojciech</w>": 6232,
      "niejszej</w>": 6233,
      "renty</w>": 6234,
      "przedstawionego</w>": 6235,
      "łe": 6236,
      "cztero": 6237,
      "użyt": 6238,
      "stosowne</w>": 6239,
      "świadomości</w>": 6240,
      "Ab": 6241,
      "dotychczasowej</w>": 6242,
      "stopniowo</w>": 6243,
      "powiat</w>": 6244,
      "1963</w>": 6245,
      "niższe</w>": 6246,
      "proponowanych</w>": 6247,
      "sportowe</w>": 6248,
      "trwały</w>": 6249,
      "City</w>": 6250,
      "gospodarczym</w>": 6251,
      "nik": 6252,
      "polscy</w>": 6253,
      "przyjm": 6254,
      "umie": 6255,
      "93</w>": 6256,
      "jakimi</w>": 6257,
      "sprawozdawcę</w>": 6258,
      "pismo</w>": 6259,
      "ust</w>": 6260,
      "upadku</w>": 6261,
      "zamek</w>": 6262,
      "Sko": 6263,
      "drogowym</w>": 6264,
      "lokalne</w>": 6265,
      "wyciąg": 6266,
      "Rozumiem</w>": 6267,
      "plus</w>": 6268,
      "przygotować</w>": 6269,
      "1917</w>": 6270,
      "morza</w>": 6271,
      "górę</w>": 6272,
      "ąt": 6273,
      "zamian</w>": 6274,
      "morskiej</w>": 6275,
      "ywać</w>": 6276,
      "pić</w>": 6277,
      "Bre": 6278,
      "rozpoczęcia</w>": 6279,
      "występowania</w>": 6280,
      "papieża</w>": 6281,
      "iego</w>": 6282,
      "emerytur</w>": 6283,
      "przepraszam</w>": 6284,
      "skoń": 6285,
      "młodzież</w>": 6286,
      "ude": 6287,
      "ls</w>": 6288,
      "Powyższe</w>": 6289,
      "argumenty</w>": 6290,
      "Instytucie</w>": 6291,
      "ut</w>": 6292,
      "jakiejś</w>": 6293,
      "pas</w>": 6294,
      "pia": 6295,
      "dyskusja</w>": 6296,
      "super": 6297,
      "lewi": 6298,
      "Łódź</w>": 6299,
      "krze": 6300,
      "stopy</w>": 6301,
      "dzieło</w>": 6302,
      "uroczystości</w>": 6303,
      "listów</w>": 6304,
      "przestrze": 6305,
      "zamieszk": 6306,
      "szania</w>": 6307,
      "prędkości</w>": 6308,
      "ałyby</w>": 6309,
      "dz</w>": 6310,
      "Nauki</w>": 6311,
      "Tele": 6312,
      "sję</w>": 6313,
      "głos": 6314,
      "daty</w>": 6315,
      "ekonomiczne</w>": 6316,
      "ujawni": 6317,
      "brutto</w>": 6318,
      "prawach</w>": 6319,
      "kwi": 6320,
      "ato": 6321,
      "PKB</w>": 6322,
      "liza": 6323,
      "się": 6324,
      "Nowego</w>": 6325,
      "mistrz</w>": 6326,
      "obywatelskich</w>": 6327,
      "Bri": 6328,
      "znam</w>": 6329,
      "udzielenia</w>": 6330,
      "Jacek</w>": 6331,
      "kimi</w>": 6332,
      "Gdzie</w>": 6333,
      "zasadne</w>": 6334,
      "odpowiedział</w>": 6335,
      "rę</w>": 6336,
      "uszy</w>": 6337,
      "1914</w>": 6338,
      "Michała</w>": 6339,
      "podobny</w>": 6340,
      "Eu": 6341,
      "dor": 6342,
      "zdarzenia</w>": 6343,
      "1932</w>": 6344,
      "zakon": 6345,
      "94</w>": 6346,
      "FI": 6347,
      "kierował</w>": 6348,
      "producenta</w>": 6349,
      "prokuratury</w>": 6350,
      "minuty</w>": 6351,
      "are</w>": 6352,
      "łki</w>": 6353,
      "VII</w>": 6354,
      "kier": 6355,
      "skuteczności</w>": 6356,
      "pomy": 6357,
      "oczu</w>": 6358,
      "zi</w>": 6359,
      "9,": 6360,
      "autostrady</w>": 6361,
      "Am": 6362,
      "psycho": 6363,
      "dż": 6364,
      "uważał</w>": 6365,
      "norm</w>": 6366,
      "nku</w>": 6367,
      "Władysława</w>": 6368,
      "znajdziesz</w>": 6369,
      "nist": 6370,
      "Drugi</w>": 6371,
      "czoł": 6372,
      "dała</w>": 6373,
      "szk": 6374,
      "oświatowej</w>": 6375,
      "pozy": 6376,
      "spowodować</w>": 6377,
      "ówkę</w>": 6378,
      "raj": 6379,
      "organem</w>": 6380,
      "1935</w>": 6381,
      "TE": 6382,
      "ktor": 6383,
      "amerykańskich</w>": 6384,
      "Warszawskiego</w>": 6385,
      "mogłoby</w>": 6386,
      "red.</w>": 6387,
      "zaufania</w>": 6388,
      "zabezpie": 6389,
      "przewodniczącym</w>": 6390,
      "wszystkimi</w>": 6391,
      "tycznie</w>": 6392,
      "jnym</w>": 6393,
      "konsumentów</w>": 6394,
      "szar": 6395,
      "kilku": 6396,
      "prywatne</w>": 6397,
      "kin": 6398,
      "zre": 6399,
      "styka</w>": 6400,
      "70": 6401,
      "należało</w>": 6402,
      "styl</w>": 6403,
      "kaza": 6404,
      "ier": 6405,
      "skierował</w>": 6406,
      "arty": 6407,
      "medycyny</w>": 6408,
      "winy</w>": 6409,
      "pta": 6410,
      "Pen": 6411,
      "ciepła</w>": 6412,
      "mno": 6413,
      "ograniczeń</w>": 6414,
      "wszędzie</w>": 6415,
      "wychodzi</w>": 6416,
      "rzeniu</w>": 6417,
      "robot": 6418,
      "atu</w>": 6419,
      "zarządz": 6420,
      "zagrożeń</w>": 6421,
      "przebieg</w>": 6422,
      "6.</w>": 6423,
      "towała</w>": 6424,
      "dotk": 6425,
      "póź": 6426,
      "Ó": 6427,
      "Ę": 6428,
      "Tadeusza</w>": 6429,
      "gni": 6430,
      "potwierdz": 6431,
      "die": 6432,
      "reguluje</w>": 6433,
      "dek</w>": 6434,
      "pracownikom</w>": 6435,
      "kierunek</w>": 6436,
      "reakcji</w>": 6437,
      "zbudowany</w>": 6438,
      "Pozna": 6439,
      "wejść</w>": 6440,
      "przebywał</w>": 6441,
      "lasu</w>": 6442,
      "weryfikacji</w>": 6443,
      "brz": 6444,
      "absolutnie</w>": 6445,
      "wiesz</w>": 6446,
      "zwrot</w>": 6447,
      "jskie</w>": 6448,
      "zabezpieczenie</w>": 6449,
      "zosta": 6450,
      "Jaka</w>": 6451,
      "pami</w>": 6452,
      "cieli</w>": 6453,
      "sp.</w>": 6454,
      "berg</w>": 6455,
      "nin": 6456,
      "publiczną</w>": 6457,
      "najwyższej</w>": 6458,
      "opis": 6459,
      "oświadczenie</w>": 6460,
      "oglą": 6461,
      "Uni": 6462,
      "utrzymać</w>": 6463,
      "wnętrza</w>": 6464,
      "hipote": 6465,
      "us": 6466,
      "zapytania</w>": 6467,
      "kontra": 6468,
      "proponowane</w>": 6469,
      "NIE</w>": 6470,
      "ral": 6471,
      "Gal": 6472,
      "ekonomicznej</w>": 6473,
      "budynki</w>": 6474,
      "ulgi</w>": 6475,
      "gania</w>": 6476,
      "głosem</w>": 6477,
      "nina</w>": 6478,
      "obowiązującego</w>": 6479,
      "statu": 6480,
      "ier</w>": 6481,
      "młody</w>": 6482,
      "kolejnego</w>": 6483,
      "rządowych</w>": 6484,
      "sektorze</w>": 6485,
      "stos": 6486,
      "kompeten": 6487,
      "tabeli</w>": 6488,
      "osied": 6489,
      "wagi</w>": 6490,
      "akcje</w>": 6491,
      "rent</w>": 6492,
      "CE": 6493,
      "700</w>": 6494,
      "śnie</w>": 6495,
      "wyrazić</w>": 6496,
      "ctwo</w>": 6497,
      "prokuratora</w>": 6498,
      "wizyty</w>": 6499,
      "Parku</w>": 6500,
      "spor": 6501,
      "rzyć</w>": 6502,
      "dora": 6503,
      "Zmiana</w>": 6504,
      "tra</w>": 6505,
      "Właśnie</w>": 6506,
      "organizacyjne</w>": 6507,
      "tę": 6508,
      "pat": 6509,
      "letnim</w>": 6510,
      "utrudni": 6511,
      "postanowień</w>": 6512,
      "anów</w>": 6513,
      "wysoką</w>": 6514,
      "obej": 6515,
      "siłę</w>": 6516,
      "US": 6517,
      "wyłą": 6518,
      "Chrystusa</w>": 6519,
      "wykonywane</w>": 6520,
      "ir": 6521,
      "niewoli</w>": 6522,
      "uniknąć</w>": 6523,
      "pry": 6524,
      "nazwisko</w>": 6525,
      "ff</w>": 6526,
      "Brze": 6527,
      "jach</w>": 6528,
      "małym</w>": 6529,
      "przestrzennego</w>": 6530,
      "szcza</w>": 6531,
      "spowodowało</w>": 6532,
      "kilometrów</w>": 6533,
      "prę": 6534,
      "kolejną</w>": 6535,
      "1953</w>": 6536,
      "wyposażenie</w>": 6537,
      "Zbigniew</w>": 6538,
      "dod": 6539,
      "poży": 6540,
      "czekać</w>": 6541,
      "Głównego</w>": 6542,
      "państwowego</w>": 6543,
      "studiował</w>": 6544,
      "wysu": 6545,
      "nadaje</w>": 6546,
      "Art.</w>": 6547,
      "ser</w>": 6548,
      "wsz": 6549,
      "ting</w>": 6550,
      "tują</w>": 6551,
      "wyższym</w>": 6552,
      "Moje</w>": 6553,
      "debacie</w>": 6554,
      "jcie</w>": 6555,
      "założył</w>": 6556,
      "Cel": 6557,
      "niemożliwe</w>": 6558,
      "osobami</w>": 6559,
      "DO": 6560,
      "krótki</w>": 6561,
      "odzna": 6562,
      "zdecydował</w>": 6563,
      "inform": 6564,
      "Igrzyskach</w>": 6565,
      "KA</w>": 6566,
      "największy</w>": 6567,
      "Jed": 6568,
      "Stan</w>": 6569,
      "ktora</w>": 6570,
      "195": 6571,
      "Bożej</w>": 6572,
      "błędów</w>": 6573,
      "dopuszcz": 6574,
      "1955</w>": 6575,
      "przyjęta</w>": 6576,
      "metodą</w>": 6577,
      "racja</w>": 6578,
      "cyjnie</w>": 6579,
      "przyjęła</w>": 6580,
      "Szczególnie</w>": 6581,
      "efektów</w>": 6582,
      "kura": 6583,
      "żonych</w>": 6584,
      "Organizacji</w>": 6585,
      "korzystanie</w>": 6586,
      "krotnie</w>": 6587,
      "realizować</w>": 6588,
      "sków</w>": 6589,
      "wię": 6590,
      "cyjno-": 6591,
      "trasie</w>": 6592,
      "typ</w>": 6593,
      "chcąc</w>": 6594,
      "odszkodowania</w>": 6595,
      "pomi": 6596,
      "Telewizji</w>": 6597,
      "przeze</w>": 6598,
      "wzór</w>": 6599,
      "mleka</w>": 6600,
      "spisu</w>": 6601,
      "wolność</w>": 6602,
      "imienia</w>": 6603,
      "samochody</w>": 6604,
      "Pułku</w>": 6605,
      "tację</w>": 6606,
      "198": 6607,
      "sena": 6608,
      "ałaby</w>": 6609,
      "realizuje</w>": 6610,
      "Są": 6611,
      "literatury</w>": 6612,
      "rękach</w>": 6613,
      "Każda</w>": 6614,
      "znacząco</w>": 6615,
      "dokumen": 6616,
      "é": 6617,
      "Mistrzostwa</w>": 6618,
      "jakichkolwiek</w>": 6619,
      "przetargu</w>": 6620,
      "informa": 6621,
      "opinia</w>": 6622,
      "KM</w>": 6623,
      "Cóż</w>": 6624,
      "Dnia</w>": 6625,
      "lec</w>": 6626,
      "nieuzyskania</w>": 6627,
      "otwarcie</w>": 6628,
      "sytuacje</w>": 6629,
      "transakcji</w>": 6630,
      "nny</w>": 6631,
      "głoś": 6632,
      "powierzchnię</w>": 6633,
      "leż": 6634,
      "Pierwszym</w>": 6635,
      "tność</w>": 6636,
      "łyby</w>": 6637,
      "rozwiązać</w>": 6638,
      "woj": 6639,
      "rośli": 6640,
      "światło</w>": 6641,
      "Miał</w>": 6642,
      "dowiedzieć</w>": 6643,
      "mili": 6644,
      "tali": 6645,
      "rola</w>": 6646,
      "tysiące</w>": 6647,
      "osa</w>": 6648,
      "przedsiębiorstwo</w>": 6649,
      "towarzy": 6650,
      "oru</w>": 6651,
      "spędził</w>": 6652,
      "Gimnazjum</w>": 6653,
      "anem</w>": 6654,
      "kwa": 6655,
      "Miejscowość</w>": 6656,
      "dzisiejszym</w>": 6657,
      "karnych</w>": 6658,
      "szanie</w>": 6659,
      "artykuły</w>": 6660,
      "posiadał</w>": 6661,
      "sub": 6662,
      "biskup</w>": 6663,
      "diagno": 6664,
      "nastąpił</w>": 6665,
      "południu</w>": 6666,
      "wprowadzeniu</w>": 6667,
      "PLK</w>": 6668,
      "niemieckie</w>": 6669,
      "1933</w>": 6670,
      "ZE": 6671,
      "wieniem</w>": 6672,
      "wniosk": 6673,
      "pałacu</w>": 6674,
      "Dzieci</w>": 6675,
      "przekazywania</w>": 6676,
      "Komitet</w>": 6677,
      "stym</w>": 6678,
      "narzędzia</w>": 6679,
      "wykład": 6680,
      "koł": 6681,
      "Oddział</w>": 6682,
      "regula": 6683,
      "wodzie</w>": 6684,
      "tan</w>": 6685,
      "ff": 6686,
      "kali": 6687,
      "nada": 6688,
      "Królestwa</w>": 6689,
      "pozostają</w>": 6690,
      "Chciałabym</w>": 6691,
      "Zespołu</w>": 6692,
      "anu</w>": 6693,
      "gać</w>": 6694,
      "dodatek</w>": 6695,
      "dostosowania</w>": 6696,
      "zów</w>": 6697,
      "byłyby</w>": 6698,
      "mówili</w>": 6699,
      "gene": 6700,
      "bitwy</w>": 6701,
      "rodzaje</w>": 6702,
      "fan": 6703,
      "współpraca</w>": 6704,
      "baz": 6705,
      "widoczne</w>": 6706,
      "tworząc</w>": 6707,
      "wład": 6708,
      "układ": 6709,
      "poprawkami</w>": 6710,
      "dzieciom</w>": 6711,
      "roszczeń</w>": 6712,
      "Paw": 6713,
      "nara": 6714,
      "wykonać</w>": 6715,
      "dostępności</w>": 6716,
      "wydana</w>": 6717,
      "religii</w>": 6718,
      "nikom</w>": 6719,
      "Dan": 6720,
      "przyjmuje</w>": 6721,
      "spotkaniach</w>": 6722,
      "oper": 6723,
      "Nigdy</w>": 6724,
      "zabawy</w>": 6725,
      "oko": 6726,
      "planowanych</w>": 6727,
      "korzyst": 6728,
      "Moskwie</w>": 6729,
      "piękne</w>": 6730,
      "ham</w>": 6731,
      "Rzymie</w>": 6732,
      "pek</w>": 6733,
      "spotkać</w>": 6734,
      "ponad": 6735,
      "Wielu</w>": 6736,
      "szpitalu</w>": 6737,
      "Berlinie</w>": 6738,
      "rolniczych</w>": 6739,
      "Przed": 6740,
      "żół": 6741,
      "zawarty</w>": 6742,
      "www.": 6743,
      "Oto</w>": 6744,
      "ns": 6745,
      "politycznego</w>": 6746,
      "sens</w>": 6747,
      "Karol</w>": 6748,
      "byłego</w>": 6749,
      "Mój</w>": 6750,
      "zmierz": 6751,
      "będący</w>": 6752,
      "dodatkowego</w>": 6753,
      "zastanowić</w>": 6754,
      "śnie": 6755,
      "owoców</w>": 6756,
      "sejmowej</w>": 6757,
      "wodnej</w>": 6758,
      "kują</w>": 6759,
      "tajem": 6760,
      "La</w>": 6761,
      "Włoszech</w>": 6762,
      "finansach</w>": 6763,
      "perspektywy</w>": 6764,
      "powiedziała</w>": 6765,
      "nagród</w>": 6766,
      "cono</w>": 6767,
      "miastem</w>": 6768,
      "zmianami</w>": 6769,
      "zdobyć</w>": 6770,
      "onie</w>": 6771,
      "zgodzić</w>": 6772,
      "zawierają</w>": 6773,
      "działki</w>": 6774,
      "wysy": 6775,
      "utwory</w>": 6776,
      "wierzy": 6777,
      "Tre": 6778,
      "liła</w>": 6779,
      "obronie</w>": 6780,
      "tle": 6781,
      "torzy</w>": 6782,
      "granice</w>": 6783,
      "warun": 6784,
      "obniżenia</w>": 6785,
      "łącznej</w>": 6786,
      "grzy": 6787,
      "Sądzę</w>": 6788,
      "towano</w>": 6789,
      "tejże</w>": 6790,
      "znacznej</w>": 6791,
      "skrę": 6792,
      "lacji</w>": 6793,
      "sor": 6794,
      "różnice</w>": 6795,
      "powodują</w>": 6796,
      "rodzi": 6797,
      "przeprowadzono</w>": 6798,
      "złożone</w>": 6799,
      "rea": 6800,
      "głęboko</w>": 6801,
      "wło": 6802,
      "Cię</w>": 6803,
      "pach</w>": 6804,
      "tran": 6805,
      "szta": 6806,
      "przeznaczony</w>": 6807,
      "rela": 6808,
      "maszy": 6809,
      "regularnie</w>": 6810,
      "dało</w>": 6811,
      "egzekucji</w>": 6812,
      "fanta": 6813,
      "placu</w>": 6814,
      "Janusz</w>": 6815,
      "Orderu</w>": 6816,
      "pamiętam</w>": 6817,
      "wskazane</w>": 6818,
      "leni": 6819,
      "zoba": 6820,
      "autor</w>": 6821,
      "ustalenie</w>": 6822,
      "przeciwieństwie</w>": 6823,
      "zadłużenia</w>": 6824,
      "liwa</w>": 6825,
      "Dzień</w>": 6826,
      "cesarza</w>": 6827,
      "krajowym</w>": 6828,
      "1925</w>": 6829,
      "Lwowie</w>": 6830,
      "lon": 6831,
      "owań</w>": 6832,
      "znak</w>": 6833,
      "sklepie</w>": 6834,
      "rodziną</w>": 6835,
      "Dział": 6836,
      "ustalania</w>": 6837,
      "białe</w>": 6838,
      "netto</w>": 6839,
      "szczególną</w>": 6840,
      "sekretarz</w>": 6841,
      "żołnierze</w>": 6842,
      "łowi": 6843,
      "oddano</w>": 6844,
      "niedzielę</w>": 6845,
      "dzimy</w>": 6846,
      "ang": 6847,
      "możliwością</w>": 6848,
      "trakt": 6849,
      "liwą</w>": 6850,
      "zdobywając</w>": 6851,
      "ben": 6852,
      "negatywnie</w>": 6853,
      "alności</w>": 6854,
      "cor": 6855,
      "osobowe</w>": 6856,
      "realizacją</w>": 6857,
      "wniesienia</w>": 6858,
      "uważ": 6859,
      "nor": 6860,
      "wpad": 6861,
      "zmniejsz": 6862,
      "sowi</w>": 6863,
      "czasy</w>": 6864,
      "powrotem</w>": 6865,
      "letnie</w>": 6866,
      "zbo": 6867,
      "etap</w>": 6868,
      "kanie</w>": 6869,
      "stanowi": 6870,
      "ubiegłego</w>": 6871,
      "żą": 6872,
      "Spółka</w>": 6873,
      "wiat": 6874,
      "wykonany</w>": 6875,
      "kow</w>": 6876,
      "okrętów</w>": 6877,
      "gowej</w>": 6878,
      "1923</w>": 6879,
      "gości": 6880,
      "postanowienia</w>": 6881,
      "Hol": 6882,
      "Strona</w>": 6883,
      "Publi": 6884,
      "ons</w>": 6885,
      "torze</w>": 6886,
      "dochód</w>": 6887,
      "kowała</w>": 6888,
      "siedziby</w>": 6889,
      "czami</w>": 6890,
      "chęć</w>": 6891,
      "gminach</w>": 6892,
      "powierzchnia</w>": 6893,
      "acie</w>": 6894,
      "siedzibę</w>": 6895,
      "kluby</w>": 6896,
      "opis</w>": 6897,
      "przyjaciół</w>": 6898,
      "Samo": 6899,
      "prost": 6900,
      "żne</w>": 6901,
      "waną</w>": 6902,
      "socjalnych</w>": 6903,
      "oferta</w>": 6904,
      "rowania</w>": 6905,
      "wydzie": 6906,
      "gin": 6907,
      "podwyższ": 6908,
      "oby": 6909,
      "przewod": 6910,
      "bieg": 6911,
      "nictwie</w>": 6912,
      "zająć</w>": 6913,
      "Że</w>": 6914,
      "dana</w>": 6915,
      "ON": 6916,
      "kart</w>": 6917,
      "Oddziału</w>": 6918,
      "van</w>": 6919,
      "kcja</w>": 6920,
      "Zie": 6921,
      "Gdańsk</w>": 6922,
      "rodzinne</w>": 6923,
      "prom": 6924,
      "szer": 6925,
      "tkę</w>": 6926,
      "skuteczne</w>": 6927,
      "obcych</w>": 6928,
      "ies</w>": 6929,
      "językiem</w>": 6930,
      "zawody</w>": 6931,
      "mediach</w>": 6932,
      "analiz</w>": 6933,
      "opracowanie</w>": 6934,
      "1927</w>": 6935,
      "jedyną</w>": 6936,
      "dowódca</w>": 6937,
      "pkt.</w>": 6938,
      "raka</w>": 6939,
      "słucha": 6940,
      "Kos": 6941,
      "1929</w>": 6942,
      "of": 6943,
      "sporządz": 6944,
      "przeniesiony</w>": 6945,
      "podda": 6946,
      "klasztoru</w>": 6947,
      "obrazy</w>": 6948,
      "anali": 6949,
      "kają</w>": 6950,
      "przekazać</w>": 6951,
      "Lot": 6952,
      "codziennie</w>": 6953,
      "rządowy</w>": 6954,
      "raz": 6955,
      "Ostatnio</w>": 6956,
      "generalnie</w>": 6957,
      "następne</w>": 6958,
      "wyprze": 6959,
      "prezesem</w>": 6960,
      "barwy</w>": 6961,
      "stal": 6962,
      "Najbardziej</w>": 6963,
      "dat": 6964,
      "wspólne</w>": 6965,
      "obecne</w>": 6966,
      "sesji</w>": 6967,
      "Was</w>": 6968,
      "wykorzystaniem</w>": 6969,
      "oce": 6970,
      "obowiązującym</w>": 6971,
      "bieżącego</w>": 6972,
      "rował</w>": 6973,
      "rozważ": 6974,
      "rośliny</w>": 6975,
      "strukturze</w>": 6976,
      "kolorze</w>": 6977,
      "mek</w>": 6978,
      "zawarta</w>": 6979,
      "korzysta</w>": 6980,
      "nabycia</w>": 6981,
      "stwierdzenia</w>": 6982,
      "gminę</w>": 6983,
      "bły": 6984,
      "dostępny</w>": 6985,
      "krwa": 6986,
      "ol</w>": 6987,
      "wyniosła</w>": 6988,
      "Prix</w>": 6989,
      "podejście</w>": 6990,
      "istnienie</w>": 6991,
      "lą</w>": 6992,
      "son": 6993,
      "zasadą</w>": 6994,
      "pozytywne</w>": 6995,
      "bliżej</w>": 6996,
      "ciach</w>": 6997,
      "przerwy</w>": 6998,
      "prag": 6999,
      "Skarb</w>": 7000,
      "zła</w>": 7001,
      "del</w>": 7002,
      "przyznać</w>": 7003,
      "TA</w>": 7004,
      "szkoleń</w>": 7005,
      "dawnych</w>": 7006,
      "ant</w>": 7007,
      "fie</w>": 7008,
      "polityczną</w>": 7009,
      "wicz</w>": 7010,
      "ramienia</w>": 7011,
      "zem</w>": 7012,
      "środek</w>": 7013,
      "ręką</w>": 7014,
      "met": 7015,
      "zm": 7016,
      "Los</w>": 7017,
      "programem</w>": 7018,
      "wykonana</w>": 7019,
      "stop": 7020,
      "turystów</w>": 7021,
      "siedem</w>": 7022,
      "Przypominam</w>": 7023,
      "skarbowej</w>": 7024,
      "Dywizji</w>": 7025,
      "let</w>": 7026,
      "20-": 7027,
      "Men": 7028,
      "pogłębi": 7029,
      "set</w>": 7030,
      "ow</w>": 7031,
      "01</w>": 7032,
      "kład": 7033,
      "wojewoda</w>": 7034,
      "trze": 7035,
      "Stan": 7036,
      "oby</w>": 7037,
      "żadna</w>": 7038,
      "sprzed</w>": 7039,
      "naprzeciw</w>": 7040,
      "iem</w>": 7041,
      "dotychczasowe</w>": 7042,
      "Przypomnę</w>": 7043,
      "Wydział</w>": 7044,
      "młodego</w>": 7045,
      "następnego</w>": 7046,
      "Stanowi</w>": 7047,
      "pia</w>": 7048,
      "zwiększyć</w>": 7049,
      "Inne</w>": 7050,
      "podejmowanych</w>": 7051,
      "mag": 7052,
      "mat": 7053,
      "cześć</w>": 7054,
      "odbywają</w>": 7055,
      "nauczyciel</w>": 7056,
      "filozofii</w>": 7057,
      "stwierdzono</w>": 7058,
      "mniejszych</w>": 7059,
      "United</w>": 7060,
      "Spółki</w>": 7061,
      "opiera</w>": 7062,
      "Chociaż</w>": 7063,
      "budowlanego</w>": 7064,
      "wyspie</w>": 7065,
      "liwości</w>": 7066,
      "Rodzin</w>": 7067,
      "Woj": 7068,
      "pytał</w>": 7069,
      "Euro": 7070,
      "definicji</w>": 7071,
      "mieszka</w>": 7072,
      "strzel": 7073,
      "remont</w>": 7074,
      "ine": 7075,
      "zbior": 7076,
      "Seniorów</w>": 7077,
      "utworzono</w>": 7078,
      "komor": 7079,
      "rz</w>": 7080,
      "Transportu</w>": 7081,
      "Wielka</w>": 7082,
      "regionów</w>": 7083,
      "spowodowane</w>": 7084,
      "fundusze</w>": 7085,
      "rozstrzygnięcia</w>": 7086,
      "nili</w>": 7087,
      "widok</w>": 7088,
      "sun": 7089,
      "mentem</w>": 7090,
      "Lista</w>": 7091,
      "wynikają</w>": 7092,
      "Maj": 7093,
      "poparcia</w>": 7094,
      "Mary": 7095,
      "Stronnictwo</w>": 7096,
      "ene": 7097,
      "gwarantuje</w>": 7098,
      "miesiącu</w>": 7099,
      "pełnienia</w>": 7100,
      "TO": 7101,
      "Rynku</w>": 7102,
      "analiza</w>": 7103,
      "ji</w>": 7104,
      "zuży": 7105,
      "odpowiedni</w>": 7106,
      "brakiem</w>": 7107,
      "wzrosła</w>": 7108,
      "p.n.e.</w>": 7109,
      "stwierdzenie</w>": 7110,
      "wydat": 7111,
      "Ludowe</w>": 7112,
      "nos": 7113,
      "przekonanie</w>": 7114,
      "AK</w>": 7115,
      "Wz": 7116,
      "szczególne</w>": 7117,
      "tyw": 7118,
      "n.p.m</w>": 7119,
      "dopłat</w>": 7120,
      "XII</w>": 7121,
      "katalogu</w>": 7122,
      "małą</w>": 7123,
      "medycznego</w>": 7124,
      "sceny</w>": 7125,
      "papie": 7126,
      "skró": 7127,
      "gospodarowania</w>": 7128,
      "odniósł</w>": 7129,
      "drogowych</w>": 7130,
      "niową</w>": 7131,
      "finału</w>": 7132,
      "bat": 7133,
      "żywi": 7134,
      "lon</w>": 7135,
      "Czyli</w>": 7136,
      "roman": 7137,
      "powodem</w>": 7138,
      "załogi</w>": 7139,
      "podatnika</w>": 7140,
      "przestrzegania</w>": 7141,
      "widział</w>": 7142,
      "rozpoczęły</w>": 7143,
      "pożyczki</w>": 7144,
      "nięciem</w>": 7145,
      "wybi": 7146,
      "zgłoszenia</w>": 7147,
      "połączone</w>": 7148,
      "del": 7149,
      "ywał</w>": 7150,
      "Wreszcie</w>": 7151,
      "bić</w>": 7152,
      "owy": 7153,
      "oceni": 7154,
      "pasażerów</w>": 7155,
      "uszem</w>": 7156,
      "boku</w>": 7157,
      "dźwię": 7158,
      "transport</w>": 7159,
      "zajm": 7160,
      "zachwy": 7161,
      "stacja</w>": 7162,
      "pokaza": 7163,
      "bezpośrednich</w>": 7164,
      "pw.</w>": 7165,
      "posiad": 7166,
      "zagranicznej</w>": 7167,
      "naruszenia</w>": 7168,
      "dzieł</w>": 7169,
      "tni</w>": 7170,
      "ałbym</w>": 7171,
      "świetnie</w>": 7172,
      "Konstytucyjny</w>": 7173,
      "najwyższym</w>": 7174,
      "nastąpiła</w>": 7175,
      "emerytalnego</w>": 7176,
      "a-": 7177,
      "wagę</w>": 7178,
      "zachować</w>": 7179,
      "zgroma": 7180,
      "prezyden": 7181,
      "wyraz</w>": 7182,
      "Sprawa</w>": 7183,
      "szybkie</w>": 7184,
      "zatwierdz": 7185,
      "łatwiej</w>": 7186,
      "PS</w>": 7187,
      "drużyn</w>": 7188,
      "niemiecki</w>": 7189,
      "zami</w>": 7190,
      "zmie": 7191,
      "Qu": 7192,
      "patro": 7193,
      "tłuma": 7194,
      "błędy</w>": 7195,
      "darmowe</w>": 7196,
      "zła": 7197,
      "studen": 7198,
      "planowana</w>": 7199,
      "dową</w>": 7200,
      "upad": 7201,
      "Białorusi</w>": 7202,
      "kowymi</w>": 7203,
      "reprezent": 7204,
      "bre": 7205,
      "strefie</w>": 7206,
      "wystąpić</w>": 7207,
      "różnica</w>": 7208,
      "żyło</w>": 7209,
      "szkolnych</w>": 7210,
      "niejednokrotnie</w>": 7211,
      "Dane</w>": 7212,
      "Stu": 7213,
      "szcz</w>": 7214,
      "twórczości</w>": 7215,
      "podjęto</w>": 7216,
      "1931</w>": 7217,
      "C.</w>": 7218,
      "musi": 7219,
      "dłuższy</w>": 7220,
      "małżeństwa</w>": 7221,
      "stwierdz": 7222,
      "przodu</w>": 7223,
      "Toruń</w>": 7224,
      "ośrodki</w>": 7225,
      "człowiekiem</w>": 7226,
      "Mistrzostwach</w>": 7227,
      "PZ": 7228,
      "moze</w>": 7229,
      "bl": 7230,
      "stosowanych</w>": 7231,
      "ning</w>": 7232,
      "posze": 7233,
      "partner": 7234,
      "przewidzianych</w>": 7235,
      "siła</w>": 7236,
      "umożliwi": 7237,
      "mogłaby</w>": 7238,
      "znajdowała</w>": 7239,
      "punkt": 7240,
      "remon": 7241,
      "rezultacie</w>": 7242,
      "pow.</w>": 7243,
      "kcję</w>": 7244,
      "specjalnego</w>": 7245,
      "języków</w>": 7246,
      "uzgodnień</w>": 7247,
      "pamięć</w>": 7248,
      "zgłosił</w>": 7249,
      ".00</w>": 7250,
      "pozosta": 7251,
      "Grzegorz</w>": 7252,
      "rzeniem</w>": 7253,
      "szyć</w>": 7254,
      "niowa</w>": 7255,
      "córka</w>": 7256,
      "rzekła</w>": 7257,
      "komisję</w>": 7258,
      "rob": 7259,
      "zastrze": 7260,
      "korzystają</w>": 7261,
      "stawia</w>": 7262,
      "Spe": 7263,
      "nazywa</w>": 7264,
      "badanie</w>": 7265,
      "Niezależnie</w>": 7266,
      "ap": 7267,
      "podejm": 7268,
      "przeprowadzić</w>": 7269,
      "miałam</w>": 7270,
      "święta</w>": 7271,
      "Biał": 7272,
      "piłki</w>": 7273,
      "tworzeniu</w>": 7274,
      "potrzeb": 7275,
      "wejściu</w>": 7276,
      "niemniej</w>": 7277,
      "Wojskowego</w>": 7278,
      "słusznie</w>": 7279,
      "żer": 7280,
      "doty": 7281,
      "opuścił</w>": 7282,
      "sobotę</w>": 7283,
      "kolejno</w>": 7284,
      "jo": 7285,
      "uzgod": 7286,
      "rosyjskiej</w>": 7287,
      "zewnętrznych</w>": 7288,
      "wygląd</w>": 7289,
      "południowy</w>": 7290,
      "uchwalenie</w>": 7291,
      "lania</w>": 7292,
      "czarne</w>": 7293,
      "rowym</w>": 7294,
      "gło": 7295,
      "wojewodów</w>": 7296,
      "dostosowanie</w>": 7297,
      "połowę</w>": 7298,
      "wyrok</w>": 7299,
      "zamie": 7300,
      "opuszcz": 7301,
      "ers</w>": 7302,
      "naturalne</w>": 7303,
      "cukru</w>": 7304,
      "1926</w>": 7305,
      "gnie": 7306,
      "parlamencie</w>": 7307,
      "Tor": 7308,
      "szczeblu</w>": 7309,
      "ownie</w>": 7310,
      "pracują</w>": 7311,
      "zagadnień</w>": 7312,
      "szkolnego</w>": 7313,
      "liwego</w>": 7314,
      "Izbo</w>": 7315,
      "powrotu</w>": 7316,
      "sły": 7317,
      "rzał</w>": 7318,
      "właściwej</w>": 7319,
      "mart": 7320,
      "cona</w>": 7321,
      "urlopu</w>": 7322,
      "mowe</w>": 7323,
      "szybciej</w>": 7324,
      "działy</w>": 7325,
      "zwierzęta</w>": 7326,
      "lskie</w>": 7327,
      "mieszkalnych</w>": 7328,
      "użytkownika</w>": 7329,
      "ograniczone</w>": 7330,
      "ciele</w>": 7331,
      "komórek</w>": 7332,
      "szt</w>": 7333,
      "dzkiej</w>": 7334,
      "wybiera": 7335,
      "rozdzie": 7336,
      "zasięgu</w>": 7337,
      "Góra</w>": 7338,
      "przedmiotowego</w>": 7339,
      "PRL</w>": 7340,
      "móc</w>": 7341,
      "pozbawi": 7342,
      "kontaktów</w>": 7343,
      "bem</w>": 7344,
      "Aleksander</w>": 7345,
      "pisać</w>": 7346,
      "form": 7347,
      "sędziego</w>": 7348,
      "Pal": 7349,
      "USD</w>": 7350,
      "R.</w>": 7351,
      "rować</w>": 7352,
      "ewentualne</w>": 7353,
      "grupą</w>": 7354,
      "interes": 7355,
      "zamy": 7356,
      "kontrola</w>": 7357,
      "przyjętych</w>": 7358,
      "dowy</w>": 7359,
      "Jezusa</w>": 7360,
      "trwała</w>": 7361,
      "tygod": 7362,
      "stosunki</w>": 7363,
      "zgłoszonych</w>": 7364,
      "Między": 7365,
      "owość</w>": 7366,
      "wzbu": 7367,
      "zamierz": 7368,
      "196": 7369,
      "pun": 7370,
      "siłą</w>": 7371,
      "technicznej</w>": 7372,
      "you</w>": 7373,
      "cię": 7374,
      "Badania</w>": 7375,
      "Wprowadzenie</w>": 7376,
      "osiem</w>": 7377,
      "asy": 7378,
      "czystości</w>": 7379,
      "rządem</w>": 7380,
      "przyj": 7381,
      "das</w>": 7382,
      "mięsa</w>": 7383,
      "lizmu</w>": 7384,
      "wprowadził</w>": 7385,
      "197": 7386,
      "Wisły</w>": 7387,
      "ulic</w>": 7388,
      "budow": 7389,
      "lskim</w>": 7390,
      "nosz": 7391,
      "dziedzictwa</w>": 7392,
      "ulg</w>": 7393,
      "Toma": 7394,
      "złego</w>": 7395,
      "traktatu</w>": 7396,
      "gener": 7397,
      "energetyczne</w>": 7398,
      "idei</w>": 7399,
      "profesor</w>": 7400,
      "Rog": 7401,
      "Strze": 7402,
      "dre": 7403,
      "Wcześniej</w>": 7404,
      "pią</w>": 7405,
      "Główny</w>": 7406,
      "podjęła</w>": 7407,
      "artystów</w>": 7408,
      "instytucja</w>": 7409,
      "podoba</w>": 7410,
      "Ot": 7411,
      "owemu</w>": 7412,
      "auto</w>": 7413,
      "muzyka</w>": 7414,
      "kierownika</w>": 7415,
      "energię</w>": 7416,
      "najszybciej</w>": 7417,
      "ogar": 7418,
      "gna": 7419,
      "liczył</w>": 7420,
      "pozostawi": 7421,
      "Zbrojnych</w>": 7422,
      "czam</w>": 7423,
      "k-": 7424,
      "Prezesa</w>": 7425,
      "pali": 7426,
      "Klu": 7427,
      "Krzysztofa</w>": 7428,
      "konstytucją</w>": 7429,
      "arcy": 7430,
      "Ameryce</w>": 7431,
      "artykułu</w>": 7432,
      "odpowiednim</w>": 7433,
      "Zarówno</w>": 7434,
      "dziedziny</w>": 7435,
      "medycznej</w>": 7436,
      "niemu</w>": 7437,
      "powszechnych</w>": 7438,
      "spółkę</w>": 7439,
      "IE": 7440,
      "emerytów</w>": 7441,
      "stanowił</w>": 7442,
      "Szwajcarii</w>": 7443,
      "ling</w>": 7444,
      "Dro": 7445,
      "realizowany</w>": 7446,
      "uniemożliwi": 7447,
      "szła</w>": 7448,
      "wraca</w>": 7449,
      "sposobów</w>": 7450,
      "przyznanie</w>": 7451,
      "ogólnie</w>": 7452,
      "rana</w>": 7453,
      "agen": 7454,
      "Windows</w>": 7455,
      "gwiazdy</w>": 7456,
      "Ludzie</w>": 7457,
      "wojewódzkiego</w>": 7458,
      "poko": 7459,
      "raportu</w>": 7460,
      "skie": 7461,
      "lip": 7462,
      "tematu</w>": 7463,
      "bramki</w>": 7464,
      "pracujących</w>": 7465,
      "zamiar</w>": 7466,
      "Kró": 7467,
      "nagra": 7468,
      "przekracza</w>": 7469,
      "skon": 7470,
      "zwo": 7471,
      "płacić</w>": 7472,
      "szeniu</w>": 7473,
      "Chyba</w>": 7474,
      "portu</w>": 7475,
      "dzać</w>": 7476,
      "mowych</w>": 7477,
      "ryb</w>": 7478,
      "tką</w>": 7479,
      "VIII</w>": 7480,
      "głu": 7481,
      "pełnego</w>": 7482,
      "kontakty</w>": 7483,
      "Rodziny</w>": 7484,
      "medyczne</w>": 7485,
      "Marcin</w>": 7486,
      "przypadek</w>": 7487,
      "ostatnia</w>": 7488,
      "ałych</w>": 7489,
      "przyjęto</w>": 7490,
      "rzuc": 7491,
      "Najwyższego</w>": 7492,
      "utraty</w>": 7493,
      "dzisiejszej</w>": 7494,
      "zrozumieć</w>": 7495,
      "lepszy</w>": 7496,
      "gła": 7497,
      "narzędzi</w>": 7498,
      "stare</w>": 7499,
      "tyk</w>": 7500,
      "Wielki</w>": 7501,
      "jami</w>": 7502,
      "pyta": 7503,
      "faktem</w>": 7504,
      "odcinków</w>": 7505,
      "najprawdopodobniej</w>": 7506,
      "www</w>": 7507,
      "lecia</w>": 7508,
      "zacją</w>": 7509,
      "córkę</w>": 7510,
      "Mari": 7511,
      "facto</w>": 7512,
      "drze": 7513,
      "Poseł</w>": 7514,
      "czają</w>": 7515,
      "zły</w>": 7516,
      "lasy</w>": 7517,
      "ństwa</w>": 7518,
      "liby</w>": 7519,
      "ptaków</w>": 7520,
      "jącymi</w>": 7521,
      "zabudowy</w>": 7522,
      "Środki</w>": 7523,
      "dokonanie</w>": 7524,
      "fina": 7525,
      "odległość</w>": 7526,
      "Kot": 7527,
      "ara</w>": 7528,
      "wyczerp": 7529,
      "księ": 7530,
      "rywa": 7531,
      "vo": 7532,
      "wystąpiła</w>": 7533,
      "zasługuje</w>": 7534,
      "adres</w>": 7535,
      "wyro": 7536,
      "dochodach</w>": 7537,
      "lik</w>": 7538,
      "przedstawionych</w>": 7539,
      "ES": 7540,
      "peł": 7541,
      "4.": 7542,
      "bezpośredniego</w>": 7543,
      "ps</w>": 7544,
      "działu</w>": 7545,
      "nur": 7546,
      "przeprowadzone</w>": 7547,
      "obli": 7548,
      "aty</w>": 7549,
      "SI": 7550,
      "aresztowany</w>": 7551,
      "zdarzeń</w>": 7552,
      "walczył</w>": 7553,
      "różnymi</w>": 7554,
      "mniejsza</w>": 7555,
      "granicami</w>": 7556,
      "sklepu</w>": 7557,
      "nnego</w>": 7558,
      "krew</w>": 7559,
      "zbycia</w>": 7560,
      "dotyczyć</w>": 7561,
      "wyposażone</w>": 7562,
      "słabo</w>": 7563,
      "log</w>": 7564,
      "nęli</w>": 7565,
      "zdolność</w>": 7566,
      "skuteczność</w>": 7567,
      "Parlamentu</w>": 7568,
      "zebra": 7569,
      "wzmoc": 7570,
      "liny</w>": 7571,
      "bel</w>": 7572,
      "obowiązkiem</w>": 7573,
      "ogranicza</w>": 7574,
      "Er": 7575,
      "dawnej</w>": 7576,
      "godzinę</w>": 7577,
      "radę</w>": 7578,
      "zwiększa</w>": 7579,
      "dotyczącym</w>": 7580,
      "ośrodek</w>": 7581,
      "Wor": 7582,
      "elektronicznej</w>": 7583,
      "pierwotnie</w>": 7584,
      "służą</w>": 7585,
      "cku</w>": 7586,
      "ocenić</w>": 7587,
      "jechał</w>": 7588,
      "twór": 7589,
      "wypadek</w>": 7590,
      "ośrodka</w>": 7591,
      "Zad": 7592,
      "potrzebny</w>": 7593,
      "Około</w>": 7594,
      "myśleć</w>": 7595,
      "układzie</w>": 7596,
      "menty</w>": 7597,
      "siedmiu</w>": 7598,
      "szerokości</w>": 7599,
      "starego</w>": 7600,
      "graczy</w>": 7601,
      "sprawozdawcy</w>": 7602,
      "Ada": 7603,
      "bą</w>": 7604,
      "rozpocząć</w>": 7605,
      "ME": 7606,
      "chłop": 7607,
      "pojęcie</w>": 7608,
      "moni": 7609,
      "traktowania</w>": 7610,
      "Zale": 7611,
      "zwro": 7612,
      "sztu": 7613,
      "chor": 7614,
      "przekonany</w>": 7615,
      "dowodów</w>": 7616,
      "epi": 7617,
      "przedmiot</w>": 7618,
      "Lublin</w>": 7619,
      "Prezydenta</w>": 7620,
      "shi": 7621,
      "wyjścia</w>": 7622,
      "wyniósł</w>": 7623,
      "opera": 7624,
      "towanego</w>": 7625,
      "ger": 7626,
      "większością</w>": 7627,
      "chodził</w>": 7628,
      "ž": 7629,
      "que</w>": 7630,
      "sfery</w>": 7631,
      "stowarzyszenia</w>": 7632,
      "edukacyjnych</w>": 7633,
      "korzystne</w>": 7634,
      "uda": 7635,
      "języ": 7636,
      "wykonawczych</w>": 7637,
      "Nu": 7638,
      "przeciwdziałania</w>": 7639,
      "dziesięciu</w>": 7640,
      "chu": 7641,
      "inicj": 7642,
      "przeznaczeniem</w>": 7643,
      "zaba": 7644,
      "słow": 7645,
      "aktywnie</w>": 7646,
      "czymy</w>": 7647,
      "nasi</w>": 7648,
      "instrumenty</w>": 7649,
      "istotną</w>": 7650,
      "przyszłego</w>": 7651,
      "zdob": 7652,
      "Ac": 7653,
      "miejskie</w>": 7654,
      "placówkach</w>": 7655,
      "niepodległości</w>": 7656,
      "zwolnień</w>": 7657,
      "deklar": 7658,
      "oleju</w>": 7659,
      "A-": 7660,
      "oczywiste</w>": 7661,
      "owskie</w>": 7662,
      "zastrzeżeń</w>": 7663,
      "Hel": 7664,
      "koncer": 7665,
      "dę": 7666,
      "dom": 7667,
      "obowiązującej</w>": 7668,
      "ką": 7669,
      "wykonaniu</w>": 7670,
      "demokracji</w>": 7671,
      "wyposażony</w>": 7672,
      "mur": 7673,
      "sos": 7674,
      "dawniej</w>": 7675,
      "kwar": 7676,
      "dowi</w>": 7677,
      "szczerze</w>": 7678,
      "wiecie</w>": 7679,
      "wspólnoty</w>": 7680,
      "logia</w>": 7681,
      "stara": 7682,
      "Can": 7683,
      "stwarza</w>": 7684,
      "wersję</w>": 7685,
      "generała</w>": 7686,
      "powołanie</w>": 7687,
      "KS</w>": 7688,
      "Turystyki</w>": 7689,
      "pełna</w>": 7690,
      "pokrycie</w>": 7691,
      "zakazu</w>": 7692,
      "opad": 7693,
      "posiedzenie</w>": 7694,
      "tyłu</w>": 7695,
      "kart": 7696,
      "pł": 7697,
      "uzyskanych</w>": 7698,
      "większego</w>": 7699,
      "kwestią</w>": 7700,
      "udzielanie</w>": 7701,
      "ciem": 7702,
      "rowanie</w>": 7703,
      "wykonywać</w>": 7704,
      "genera": 7705,
      "wolnego</w>": 7706,
      "przyczy": 7707,
      "niskie</w>": 7708,
      "wprawdzie</w>": 7709,
      "ywania</w>": 7710,
      "ułatwi": 7711,
      "Zo": 7712,
      "stroną</w>": 7713,
      "utra": 7714,
      "inwestycyjne</w>": 7715,
      "procesy</w>": 7716,
      "Granicznej</w>": 7717,
      "yst": 7718,
      "naturalnych</w>": 7719,
      "Góry</w>": 7720,
      "wieloma</w>": 7721,
      "Żeby</w>": 7722,
      "szansa</w>": 7723,
      "mieniem</w>": 7724,
      "finans": 7725,
      "możliwa</w>": 7726,
      "zawodnicy</w>": 7727,
      "wałem</w>": 7728,
      "jek</w>": 7729,
      "ruch": 7730,
      "udziałów</w>": 7731,
      "chodzić</w>": 7732,
      "debata</w>": 7733,
      "uznanie</w>": 7734,
      "gii</w>": 7735,
      "liw": 7736,
      "Anny</w>": 7737,
      "opłac": 7738,
      "pociąg": 7739,
      "uważają</w>": 7740,
      "zja": 7741,
      "otrzymali</w>": 7742,
      "wypła": 7743,
      "linię</w>": 7744,
      "Katowice</w>": 7745,
      "kła": 7746,
      "akcep": 7747,
      "awansował</w>": 7748,
      "MSZ</w>": 7749,
      "niesie</w>": 7750,
      "ran</w>": 7751,
      "karze</w>": 7752,
      "pomieszczenia</w>": 7753,
      "funda": 7754,
      "Obok</w>": 7755,
      "Towarzystwo</w>": 7756,
      "nosiła</w>": 7757,
      "Fer": 7758,
      "przyjemność</w>": 7759,
      "gowym</w>": 7760,
      "Młodzieży</w>": 7761,
      "wyższej</w>": 7762,
      "walczyć</w>": 7763,
      "aktywność</w>": 7764,
      "fir": 7765,
      "sensu</w>": 7766,
      "dowódcą</w>": 7767,
      "importu</w>": 7768,
      "komórki</w>": 7769,
      "podróż</w>": 7770,
      "zapłaty</w>": 7771,
      "publicznie</w>": 7772,
      "zwany</w>": 7773,
      "fabry": 7774,
      "składników</w>": 7775,
      "mieni": 7776,
      "wydoby": 7777,
      "zarządzanie</w>": 7778,
      "n.p.m.</w>": 7779,
      "rozpoczyna</w>": 7780,
      "owicza</w>": 7781,
      "potrzebuje</w>": 7782,
      "otrzymują</w>": 7783,
      "walka</w>": 7784,
      "pienia</w>": 7785,
      "ewentualnych</w>": 7786,
      "Zwracam</w>": 7787,
      "użycia</w>": 7788,
      "byłych</w>": 7789,
      "ała": 7790,
      "wynosił</w>": 7791,
      "dzisiejszy</w>": 7792,
      "tt</w>": 7793,
      "nikowi</w>": 7794,
      "win</w>": 7795,
      "złożony</w>": 7796,
      "przyszłych</w>": 7797,
      "przeglą": 7798,
      "jaw": 7799,
      "negatywne</w>": 7800,
      "osiedla</w>": 7801,
      "zmar": 7802,
      "związ": 7803,
      "kwalifikacje</w>": 7804,
      "maksymalnie</w>": 7805,
      "nicki</w>": 7806,
      "pobu": 7807,
      "włosów</w>": 7808,
      "pełno": 7809,
      "rzeczą</w>": 7810,
      "zwiększ": 7811,
      "owni</w>": 7812,
      "ogromną</w>": 7813,
      "powa": 7814,
      "wychow": 7815,
      "egzemplarzy</w>": 7816,
      "przewidy": 7817,
      "złota</w>": 7818,
      "stracił</w>": 7819,
      "chodzą</w>": 7820,
      "należących</w>": 7821,
      "otrzymania</w>": 7822,
      "tymczasem</w>": 7823,
      "lają</w>": 7824,
      "Budynek</w>": 7825,
      "oglądać</w>": 7826,
      "tujemy</w>": 7827,
      "Kle": 7828,
      "waloryzacji</w>": 7829,
      "cho</w>": 7830,
      "rynkach</w>": 7831,
      "etatów</w>": 7832,
      "mięk": 7833,
      "albumu</w>": 7834,
      "siad": 7835,
      "autora</w>": 7836,
      "statku</w>": 7837,
      "uważamy</w>": 7838,
      "zbiór</w>": 7839,
      "ponosi</w>": 7840,
      "związanej</w>": 7841,
      "łek</w>": 7842,
      "Im": 7843,
      "sła</w>": 7844,
      "kierowcy</w>": 7845,
      "przeznaczono</w>": 7846,
      "mar</w>": 7847,
      "pracowała</w>": 7848,
      "podat": 7849,
      "wielko": 7850,
      "Hy": 7851,
      "orien": 7852,
      "trudnych</w>": 7853,
      "opieką</w>": 7854,
      "rywalizacji</w>": 7855,
      "sklepów</w>": 7856,
      "id": 7857,
      "ią</w>": 7858,
      "lskich</w>": 7859,
      "zgłoszone</w>": 7860,
      "8.</w>": 7861,
      "turystyki</w>": 7862,
      "forma": 7863,
      "rozpowszech": 7864,
      "wyszedł</w>": 7865,
      "autorstwa</w>": 7866,
      "okazał</w>": 7867,
      "rzucił</w>": 7868,
      "byśmy</w>": 7869,
      "kontraktu</w>": 7870,
      "leczniczych</w>": 7871,
      "inspektora</w>": 7872,
      "używany</w>": 7873,
      "liści</w>": 7874,
      "województwach</w>": 7875,
      "zaczęli</w>": 7876,
      "spodziewać</w>": 7877,
      "ctwa</w>": 7878,
      "efektem</w>": 7879,
      "tona</w>": 7880,
      "Jedna</w>": 7881,
      "dziewczyny</w>": 7882,
      "katalog</w>": 7883,
      "mit</w>": 7884,
      "poinformował</w>": 7885,
      "Jedną</w>": 7886,
      "nasi": 7887,
      "bedzie</w>": 7888,
      "piątek</w>": 7889,
      "100": 7890,
      "Lip": 7891,
      "szybkiego</w>": 7892,
      "Poselskiego</w>": 7893,
      "amerykańskiej</w>": 7894,
      "czamy</w>": 7895,
      "kilkudziesięciu</w>": 7896,
      "wysłuchał</w>": 7897,
      "kierowane</w>": 7898,
      "połączeń</w>": 7899,
      "stanem</w>": 7900,
      "utworu</w>": 7901,
      "trener</w>": 7902,
      "dowód</w>": 7903,
      "ceniu</w>": 7904,
      "pier": 7905,
      "kazał</w>": 7906,
      "niemieckim</w>": 7907,
      "ekspor": 7908,
      "przewi": 7909,
      "Franciszka</w>": 7910,
      "niły</w>": 7911,
      "pośredni": 7912,
      "wyjaśnienie</w>": 7913,
      "kieruje</w>": 7914,
      "wspierania</w>": 7915,
      "uczynić</w>": 7916,
      "niemy</w>": 7917,
      "zacząć</w>": 7918,
      "niepoko": 7919,
      "Kru": 7920,
      "Wer": 7921,
      "Zgromadzenia</w>": 7922,
      "char": 7923,
      "sposoby</w>": 7924,
      "One</w>": 7925,
      "ogranicz": 7926,
      "sową</w>": 7927,
      "otwarte</w>": 7928,
      "krótkie</w>": 7929,
      "zestaw</w>": 7930,
      "możliwych</w>": 7931,
      "szerokie</w>": 7932,
      "tum</w>": 7933,
      "stę</w>": 7934,
      "niejako</w>": 7935,
      "spółce</w>": 7936,
      "kierunków</w>": 7937,
      "tera": 7938,
      "wskazanych</w>": 7939,
      "rolnictwie</w>": 7940,
      "Pucharze</w>": 7941,
      "hotelu</w>": 7942,
      "przeprowadzonych</w>": 7943,
      "trwać</w>": 7944,
      "Pos": 7945,
      "temperatury</w>": 7946,
      "zbi": 7947,
      "rozporządzeniem</w>": 7948,
      "żywo</w>": 7949,
      "dobro</w>": 7950,
      "dyskut": 7951,
      "stek</w>": 7952,
      "dużego</w>": 7953,
      "ö": 7954,
      "ałe</w>": 7955,
      "sił": 7956,
      "wodne</w>": 7957,
      "twórców</w>": 7958,
      "kolejowego</w>": 7959,
      "rachunku</w>": 7960,
      "robią</w>": 7961,
      "znajdowały</w>": 7962,
      "in.</w>": 7963,
      "przesłanki</w>": 7964,
      "przedstawiony</w>": 7965,
      "ogromny</w>": 7966,
      "Olimpi": 7967,
      "Autor</w>": 7968,
      "cznemu</w>": 7969,
      "finansowy</w>": 7970,
      "fizyczne</w>": 7971,
      "sukcesem</w>": 7972,
      "okupacji</w>": 7973,
      "posłem</w>": 7974,
      "zwi": 7975,
      "obrocie</w>": 7976,
      "rodzinę</w>": 7977,
      "twierdzi</w>": 7978,
      "sel": 7979,
      "mnóstwo</w>": 7980,
      "ora": 7981,
      "omi": 7982,
      "udał</w>": 7983,
      "I.</w>": 7984,
      "pozwolą</w>": 7985,
      "nictwem</w>": 7986,
      "zapis": 7987,
      "poprawić</w>": 7988,
      "stałego</w>": 7989,
      "wyd</w>": 7990,
      "widzów</w>": 7991,
      "Dob": 7992,
      "atak": 7993,
[...]
