{
  "version": "1.0",
  "truncation": null,
  "padding": null,
  "added_tokens": [
    {
      "id": 0,
      "content": "<s>",
      "single_word": false,
      "lstrip": false,
      "rstrip": false,
      "normalized": false,
      "special": true
    },
    {
      "id": 1,
      "content": "<pad>",
      "single_word": false,
      "lstrip": false,
      "rstrip": false,
      "normalized": false,
      "special": true
    },
    {
      "id": 2,
      "content": "</s>",
      "single_word": false,
      "lstrip": false,
      "rstrip": false,
      "normalized": false,
      "special": true
    },
    {
      "id": 3,
      "content": "<unk>",
      "single_word": false,
      "lstrip": false,
      "rstrip": false,
      "normalized": false,
      "special": true
    },
    {
      "id": 4,
      "content": "<mask>",
      "single_word": false,
      "lstrip": false,
      "rstrip": false,
      "normalized": false,
      "special": true
    }
  ],
  "normalizer": null,
  "pre_tokenizer": {
    "type": "ByteLevel",
    "add_prefix_space": false,
    "trim_offsets": true,
    "use_regex": true
  },
  "post_processor": {
    "type": "ByteLevel",
    "add_prefix_space": true,
    "trim_offsets": false,
    "use_regex": true
  },
  "decoder": {
    "type": "ByteLevel",
    "add_prefix_space": true,
    "trim_offsets": true,
    "use_regex": true
  },
  "model": {
    "type": "BPE",
    "dropout": null,
    "unk_token": null,
    "continuing_subword_prefix": null,
    "end_of_word_suffix": null,
    "fuse_unk": false,
    "byte_fallback": false,
    "ignore_merges": false,
    "vocab": {
      "<s>": 0,
      "<pad>": 1,
      "</s>": 2,
      "<unk>": 3,
      "<mask>": 4,
      "!": 5,
      "\"": 6,
      "#": 7,
      "$": 8,
      "%": 9,
      "&": 10,
      "'": 11,
      "(": 12,
      ")": 13,
      "*": 14,
      "+": 15,
      ",": 16,
      "-": 17,
      ".": 18,
      "/": 19,
      "0": 20,
      "1": 21,
      "2": 22,
      "3": 23,
      "4": 24,
      "5": 25,
      "6": 26,
      "7": 27,
      "8": 28,
      "9": 29,
      ":": 30,
      ";": 31,
      "<": 32,
      "=": 33,
      ">": 34,
      "?": 35,
      "@": 36,
      "A": 37,
      "B": 38,
      "C": 39,
      "D": 40,
      "E": 41,
      "F": 42,
      "G": 43,
      "H": 44,
      "I": 45,
      "J": 46,
      "K": 47,
      "L": 48,
      "M": 49,
      "N": 50,
      "O": 51,
      "P": 52,
      "Q": 53,
      "R": 54,
      "S": 55,
      "T": 56,
      "U": 57,
      "V": 58,
      "W": 59,
      "X": 60,
      "Y": 61,
      "Z": 62,
      "[": 63,
      "\\": 64,
      "]": 65,
      "^": 66,
      "_": 67,
      "`": 68,
      "a": 69,
      "b": 70,
      "c": 71,
      "d": 72,
      "e": 73,
      "f": 74,
      "g": 75,
      "h": 76,
      "i": 77,
      "j": 78,
      "k": 79,
      "l": 80,
      "m": 81,
      "n": 82,
      "o": 83,
      "p": 84,
      "q": 85,
      "r": 86,
      "s": 87,
      "t": 88,
      "u": 89,
      "v": 90,
      "w": 91,
      "x": 92,
      "y": 93,
      "z": 94,
      "{": 95,
      "|": 96,
      "}": 97,
      "~": 98,
      "¡": 99,
      "¢": 100,
      "£": 101,
      "¤": 102,
      "¥": 103,
      "¦": 104,
      "§": 105,
      "¨": 106,
      "©": 107,
      "ª": 108,
      "«": 109,
      "¬": 110,
      "®": 111,
      "¯": 112,
      "°": 113,
      "±": 114,
      "²": 115,
      "³": 116,
      "´": 117,
      "µ": 118,
      "¶": 119,
      "·": 120,
      "¸": 121,
      "¹": 122,
      "º": 123,
      "»": 124,
      "¼": 125,
      "½": 126,
      "¾": 127,
      "¿": 128,
      "À": 129,
      "Á": 130,
      "Â": 131,
      "Ã": 132,
      "Ä": 133,
      "Å": 134,
      "Æ": 135,
      "Ç": 136,
      "È": 137,
      "É": 138,
      "Ê": 139,
      "Ë": 140,
      "Ì": 141,
      "Í": 142,
      "Î": 143,
      "Ï": 144,
      "Ð": 145,
      "Ñ": 146,
      "Ò": 147,
      "Ó": 148,
      "Ô": 149,
      "Õ": 150,
      "Ö": 151,
      "×": 152,
      "Ø": 153,
      "Ù": 154,
      "Ú": 155,
      "Û": 156,
      "Ü": 157,
      "Ý": 158,
      "Þ": 159,
      "ß": 160,
      "à": 161,
      "á": 162,
      "â": 163,
      "ã": 164,
      "ä": 165,
      "å": 166,
      "æ": 167,
      "ç": 168,
      "è": 169,
      "é": 170,
      "ê": 171,
      "ë": 172,
      "ì": 173,
      "í": 174,
      "î": 175,
      "ï": 176,
      "ð": 177,
      "ñ": 178,
      "ò": 179,
      "ó": 180,
      "ô": 181,
      "õ": 182,
      "ö": 183,
      "÷": 184,
      "ø": 185,
      "ù": 186,
      "ú": 187,
      "û": 188,
      "ü": 189,
      "ý": 190,
      "þ": 191,
      "ÿ": 192,
      "Ā": 193,
      "ā": 194,
      "Ă": 195,
      "ă": 196,
      "Ą": 197,
      "ą": 198,
      "Ć": 199,
      "ć": 200,
      "Ĉ": 201,
      "ĉ": 202,
      "Ċ": 203,
      "ċ": 204,
      "Č": 205,
      "č": 206,
      "Ď": 207,
      "ď": 208,
      "Đ": 209,
      "đ": 210,
      "Ē": 211,
      "ē": 212,
      "Ĕ": 213,
      "ĕ": 214,
      "Ė": 215,
      "ė": 216,
      "Ę": 217,
      "ę": 218,
      "Ě": 219,
      "ě": 220,
      "Ĝ": 221,
      "ĝ": 222,
      "Ğ": 223,
      "ğ": 224,
      "Ġ": 225,
      "ġ": 226,
      "Ģ": 227,
      "ģ": 228,
      "Ĥ": 229,
      "ĥ": 230,
      "Ħ": 231,
      "ħ": 232,
      "Ĩ": 233,
      "ĩ": 234,
      "Ī": 235,
      "ī": 236,
      "Ĭ": 237,
      "ĭ": 238,
      "Į": 239,
      "į": 240,
      "İ": 241,
      "ı": 242,
      "Ĳ": 243,
      "ĳ": 244,
      "Ĵ": 245,
      "ĵ": 246,
      "Ķ": 247,
      "ķ": 248,
      "ĸ": 249,
      "Ĺ": 250,
      "ĺ": 251,
      "Ļ": 252,
      "ļ": 253,
      "Ľ": 254,
      "ľ": 255,
      "Ŀ": 256,
      "ŀ": 257,
      "Ł": 258,
      "ł": 259,
      "Ń": 260,
      "ie": 261,
      "Ġp": 262,
      "Ġw": 263,
      "ÅĤ": 264,
      "Ġs": 265,
      "na": 266,
      "ow": 267,
      "Ġz": 268,
      "ÄĻ": 269,
      "cz": 270,
      "Äħ": 271,
      "ni": 272,
      "ch": 273,
      "nie": 274,
      "rz": 275,
      "Ġd": 276,
      "st": 277,
      "Å¼": 278,
      "ra": 279,
      "Ã³": 280,
      "Ġo": 281,
      "Ġt": 282,
      "Ġk": 283,
      "ro": 284,
      "Ġm": 285,
      "ÅĽ": 286,
      "sz": 287,
      "ne": 288,
      "Ġna": 289,
      "Ġi": 290,
      "Ġpo": 291,
      "je": 292,
      "ny": 293,
      "dz": 294,
      "le": 295,
      "li": 296,
      "Äĩ": 297,
      "ka": 298,
      "ia": 299,
      "go": 300,
      "iÄĻ": 301,
      "rze": 302,
      "Ġb": 303,
      "re": 304,
      "Ġdo": 305,
      "ar": 306,
      "Ġza": 307,
      "Ã³w": 308,
      "ki": 309,
      "owa": 310,
      "nia": 311,
      "la": 312,
      "ÅĤa": 313,
      "ci": 314,
      "ta": 315,
      "ko": 316,
      "ja": 317,
      "Ġa": 318,
      "Ġwy": 319,
      "wa": 320,
      "er": 321,
      "Ġu": 322,
      "ce": 323,
      "ty": 324,
      "Ġje": 325,
      "rzy": 326,
      "no": 327,
      "da": 328,
      "Å¼e": 329,
      "ĠP": 330,
      "jÄħ": 331,
      "Ġnie": 332,
      "ĠsiÄĻ": 333,
      "mi": 334,
      "or": 335,
      "Ġprze": 336,
      "cy": 337,
      "Ġko": 338,
      "ku": 339,
      "czy": 340,
      "ry": 341,
      "te": 342,
      "sta": 343,
      "ma": 344,
      "cze": 345,
      "ÅĤo": 346,
      "kie": 347,
      "wo": 348,
      "po": 349,
      "cie": 350,
      "Ġg": 351,
      "tu": 352,
      "ÅĽci": 353,
      "ĠW": 354,
      "âĢ": 355,
      "my": 356,
      "en": 357,
      "Ġmo": 358,
      "dy": 359,
      "nych": 360,
      "owe": 361,
      "owy": 362,
      "Ġod": 363,
      "to": 364,
      "ĠS": 365,
      "Ġro": 366,
      "wi": 367,
      "cj": 368,
      "ÅĦ": 369,
      "lu": 370,
      "dzie": 371,
      "Ġte": 372,
      "Ġto": 373,
      "Ġjest": 374,
      "Å¼y": 375,
      "tÃ³": 376,
      "Ġf": 377,
      "ca": 378,
      "szy": 379,
      "lo": 380,
      "Ġma": 381,
      "ru": 382,
      "ĠM": 383,
      "Ġja": 384,
      "Ġpro": 385,
      "zy": 386,
      "ĠktÃ³": 387,
      "ÅĤy": 388,
      "wie": 389,
      "Ġprzy": 390,
      "sze": 391,
      "za": 392,
      "ĠK": 393,
      "ga": 394,
      "ĠT": 395,
      "ĠC": 396,
      "by": 397,
      "Ġin": 398,
      "cji": 399,
      "Ġta": 400,
      "mo": 401,
      "Ġty": 402,
      "as": 403,
      "ĠN": 404,
      "dzi": 405,
      "Ġ1": 406,
      "du": 407,
      "Ġsp": 408,
      "de": 409,
      "ĠD": 410,
      "ĠâĢ": 411,
      "Ġ2": 412,
      "Ġe": 413,
      "ĠÅ¼e": 414,
      "Ġdz": 415,
      "co": 416,
      "ÅĽÄĩ": 417,
      "raz": 418,
      "ĠB": 419,
      "ob": 420,
      "ÅĤu": 421,
      "mie": 422,
      "pa": 423,
      "nÄħ": 424,
      "pi": 425,
      "ĠA": 426,
      "mu": 427,
      "ĠPo": 428,
      "Ġpod": 429,
      "Ġcz": 430,
      "rÃ³": 431,
      "wia": 432,
      "in": 433,
      "owie": 434,
      "ĠZ": 435,
      "Ġby": 436,
      "em": 437,
      "nej": 438,
      "cja": 439,
      "ĠÅĽ": 440,
      "ĠJ": 441,
      "nego": 442,
      "si": 443,
      "Ġch": 444,
      "Ġpra": 445,
      "ĠO": 446,
      "Ġre": 447,
      "Ġob": 448,
      "Ġ-": 449,
      "Ġsz": 450,
      "nym": 451,
      "wy": 452,
      "ĠR": 453,
      "sa": 454,
      "Ġdla": 455,
      "gi": 456,
      "Ġ(": 457,
      "ez": 458,
      "Ġroz": 459,
      "ski": 460,
      "pie": 461,
      "cia": 462,
      "owo": 463,
      "..": 464,
      "bi": 465,
      "Ġmie": 466,
      "on": 467,
      "kt": 468,
      "owi": 469,
      "an": 470,
      "Ġst": 471,
      "Ġwie": 472,
      "ĠG": 473,
      "kÃ³w": 474,
      "Ġco": 475,
      "pe": 476,
      "Ġlu": 477,
      "skie": 478,
      "bie": 479,
      "Ġjak": 480,
      "Ġczy": 481,
      "niu": 482,
      "il": 483,
      "owych": 484,
      "su": 485,
      "sy": 486,
      "we": 487,
      "al": 488,
      "Ġnaj": 489,
      "ĠâĢĵ": 490,
      "Ġsta": 491,
      "Ġh": 492,
      "00": 493,
      "nt": 494,
      "ska": 495,
      "Ġka": 496,
      "sty": 497,
      "Åº": 498,
      "do": 499,
      "noÅĽci": 500,
      "ĠI": 501,
      "Ġr": 502,
      "sza": 503,
      "ĠsÄħ": 504,
      "ba": 505,
      "Ġpa": 506,
      "niej": 507,
      "pra": 508,
      "Ġspo": 509,
      "ter": 510,
      "dze": 511,
      "ĠktÃ³re": 512,
      "ĠL": 513,
      "Ġni": 514,
      "Ġoraz": 515,
      "jÄĻ": 516,
      "Ġgo": 517,
      "ÅĤe": 518,
      "Ġprzez": 519,
      "Ġjed": 520,
      "Ġtak": 521,
      "cza": 522,
      "Ġzna": 523,
      "kÅĤa": 524,
      "pu": 525,
      "Ġn": 526,
      "Ġze": 527,
      "ju": 528,
      "men": 529,
      "cho": 530,
      "Ġdzie": 531,
      "Ġsa": 532,
      "stÄĻ": 533,
      "sto": 534,
      "Ġra": 535,
      "Ġkon": 536,
      "gra": 537,
      "dni": 538,
      "Ġle": 539,
      "ĠmoÅ¼e": 540,
      "Ġli": 541,
      "ier": 542,
      "ĠbÄĻ": 543,
      "Ġ20": 544,
      "owaÄĩ": 545,
      "Ġbez": 546,
      "ĠNa": 547,
      "un": 548,
      "Ġda": 549,
      "ek": 550,
      "fi": 551,
      "ĠktÃ³ry": 552,
      "tycz": 553,
      "Ġwi": 554,
      "mia": 555,
      "uje": 556,
      "osta": 557,
      "Ġlub": 558,
      "Ġtym": 559,
      "ĠF": 560,
      "ĠU": 561,
      "so": 562,
      "owej": 563,
      "Ġmi": 564,
      "owanie": 565,
      "Ġce": 566,
      "ĠE": 567,
      "dzo": 568,
      "cje": 569,
      "gu": 570,
      "sp": 571,
      "cyj": 572,
      "zna": 573,
      "tk": 574,
      "nd": 575,
      "Ġfi": 576,
      "Ġswo": 577,
      "jÄħcy": 578,
      "rowa": 579,
      "szyst": 580,
      "Ġde": 581,
      "bo": 582,
      "Ã³ÅĤ": 583,
      "iÄĻk": 584,
      "rzÄħ": 585,
      "ĠmoÅ¼": 586,
      "ak": 587,
      "dzia": 588,
      "Ġla": 589,
      "ĠJe": 590,
      "Ġ3": 591,
      "me": 592,
      "Ġale": 593,
      "stÄĻp": 594,
      "dza": 595,
      "ÅĽli": 596,
      "Ġprzed": 597,
      "Å¼a": 598,
      "for": 599,
      "Ġbar": 600,
      "âĢĿ": 601,
      "ur": 602,
      "io": 603,
      "owania": 604,
      "Ġme": 605,
      "rza": 606,
      "ran": 607,
      "ÅĤÄħ": 608,
      "lko": 609,
      "sie": 610,
      "owego": 611,
      "||": 612,
      "jÄħc": 613,
      "czo": 614,
      "tÃ³w": 615,
      "nika": 616,
      "Ġof": 617,
      "ĠZa": 618,
      "Ġwszyst": 619,
      "js": 620,
      "Ġwo": 621,
      "wiÄħ": 622,
      "kre": 623,
      "Ġpoz": 624,
      "Ġczas": 625,
      "ĠH": 626,
      "Ġsy": 627,
      "noÅĽÄĩ": 628,
      "Ġos": 629,
      "ĠbÄĻdzie": 630,
      "ĠÅ": 631,
      "Po": 632,
      "Ġca": 633,
      "Ġmu": 634,
      "ÅĽcie": 635,
      "czne": 636,
      "ĠNie": 637,
      "nÄĻ": 638,
      "Ġzosta": 639,
      "ĠrÃ³w": 640,
      "bu": 641,
      "Ġspra": 642,
      "ĠâĢŀ": 643,
      "Ġpe": 644,
      "jÄħce": 645,
      "lÄħ": 646,
      "ste": 647,
      "Ġtego": 648,
      "cha": 649,
      "kÄħ": 650,
      "kona": 651,
      "cu": 652,
      "ona": 653,
      "Ġprodu": 654,
      "niem": 655,
      "iaÅĤa": 656,
      "Ġwar": 657,
      "rÃ³Å¼": 658,
      "rod": 659,
      "ĠÅ¼y": 660,
      "spo": 661,
      "Ã³r": 662,
      "tor": 663,
      "powie": 664,
      "szcze": 665,
      "Ġpow": 666,
      "Ġju": 667,
      "Ġbu": 668,
      "kÄĻ": 669,
      "ĠMa": 670,
      "ĠwÅĤa": 671,
      "Ã³b": 672,
      "bli": 673,
      "Ġwe": 674,
      "sÅĤu": 675,
      "zu": 676,
      "Ġwz": 677,
      "cjÄĻ": 678,
      "nieÅ¼": 679,
      "dnie": 680,
      "Ġsto": 681,
      "Ġsk": 682,
      "ktu": 683,
      "Ġog": 684,
      "Ġbo": 685,
      "Ġmiejs": 686,
      "Ġtylko": 687,
      "kiem": 688,
      "kich": 689,
      "tem": 690,
      "czÄħ": 691,
      "Ġmog": 692,
      "Ġwa": 693,
      "Ġku": 694,
      "ĠwiÄĻ": 695,
      "Ġba": 696,
      "ĠrÃ³wnieÅ¼": 697,
      "ĠtakÅ¼e": 698,
      "nik": 699,
      "Ġstro": 700,
      "nu": 701,
      "Ġ5": 702,
      "szych": 703,
      "Ġroku": 704,
      "ĠbyÄĩ": 705,
      "...": 706,
      "bra": 707,
      "ciÄħ": 708,
      "nio": 709,
      "Ġpot": 710,
      "ĠjuÅ¼": 711,
      "Ġjako": 712,
      "ĠPol": 713,
      "dÄħ": 714,
      "cznie": 715,
      "Ġ4": 716,
      "lej": 717,
      "Ġdu": 718,
      "ÅĤat": 719,
      "ri": 720,
      "lÄĻ": 721,
      "20": 722,
      "Ġaby": 723,
      "ÅĤem": 724,
      "owym": 725,
      "Ġgra": 726,
      "se": 727,
      "Ġpre": 728,
      "kty": 729,
      "Ġ\"": 730,
      "ĠPa": 731,
      "Ġop": 732,
      "ĠKo": 733,
      "ĠDo": 734,
      "lne": 735,
      "ĠWy": 736,
      "Ġzd": 737,
      "Ġlo": 738,
      "Ġbardzo": 739,
      "wÃ³": 740,
      "siÄħ": 741,
      "Ġofer": 742,
      "sia": 743,
      "owane": 744,
      "rÄĻ": 745,
      "Ġpi": 746,
      "niÄĻ": 747,
      "cej": 748,
      "tka": 749,
      "dzy": 750,
      "ĠmoÅ¼na": 751,
      "trzy": 752,
      "ti": 753,
      "Ġ201": 754,
      "war": 755,
      "fe": 756,
      "Ġpier": 757,
      "nak": 758,
      "Å¼o": 759,
      "ng": 760,
      "ÅĤÃ³w": 761,
      "Ġsie": 762,
      "ze": 763,
      "mp": 764,
      "nymi": 765,
      "Ġcie": 766,
      "ĠkaÅ¼": 767,
      "skiego": 768,
      "czas": 769,
      "Ġc": 770,
      "Ġpla": 771,
      "um": 772,
      "ÅĦst": 773,
      "ĠdziaÅĤa": 774,
      "Ġich": 775,
      "ĠuÅ¼y": 776,
      "ÅĽmy": 777,
      "pad": 778,
      "Ġno": 779,
      "Ġau": 780,
      "szka": 781,
      "lar": 782,
      "Ġtra": 783,
      "tki": 784,
      "owÄħ": 785,
      "Na": 786,
      "Ġdob": 787,
      "cÃ³w": 788,
      "szÄħ": 789,
      "Ġry": 790,
      "ĠMo": 791,
      "ery": 792,
      "ĠzÅĤ": 793,
      "praw": 794,
      "forma": 795,
      "ĠTo": 796,
      "ĠczÄĻ": 797,
      "Ġsu": 798,
      "Ġfir": 799,
      "he": 800,
      "Ġon": 801,
      "lep": 802,
      "Ã³l": 803,
      "rzysta": 804,
      "Ġser": 805,
      "czÄĻ": 806,
      "Ġpie": 807,
      "ji": 808,
      "cznych": 809,
      "ble": 810,
      "Ġbi": 811,
      "siÄĻ": 812,
      "Ġdoda": 813,
      "czenia": 814,
      "art": 815,
      "ĠrÃ³Å¼": 816,
      "Ġznaj": 817,
      "Ġodpowie": 818,
      "skiej": 819,
      "tego": 820,
      "ns": 821,
      "Ġmia": 822,
      "Ġsob": 823,
      "ĠteÅ¼": 824,
      "Ġsamo": 825,
      "tra": 826,
      "rzÄĻ": 827,
      "towa": 828,
      "Ġswoje": 829,
      "kim": 830,
      "ĠÅĽwia": 831,
      "ĠKa": 832,
      "Ġpowie": 833,
      "mÃ³w": 834,
      "tek": 835,
      "Ġcho": 836,
      "szej": 837,
      "res": 838,
      "kÅĤad": 839,
      "Ġwyda": 840,
      "ÅĽnie": 841,
      "py": 842,
      "czenie": 843,
      "im": 844,
      "cÄħ": 845,
      "prze": 846,
      "Ġpierw": 847,
      "rÄħ": 848,
      "szym": 849,
      "Ġwsp": 850,
      "dÅº": 851,
      "Ġjego": 852,
      "owni": 853,
      "liwo": 854,
      ").": 855,
      "ĠCh": 856,
      "liza": 857,
      "dzenia": 858,
      "zie": 859,
      "sko": 860,
      "Ġpor": 861,
      "wiÄħza": 862,
      "maga": 863,
      "Ġdy": 864,
      "sk": 865,
      "jÄħcych": 866,
      "Ġele": 867,
      "Ġspe": 868,
      "dziej": 869,
      "Ġ6": 870,
      "Ġwp": 871,
      "ner": 872,
      "Ġzw": 873,
      "ĠRo": 874,
      "rem": 875,
      "staw": 876,
      "Ġfor": 877,
      "tni": 878,
      "Ġjednak": 879,
      "iÄĻki": 880,
      "stra": 881,
      "oba": 882,
      "nku": 883,
      "owia": 884,
      "gie": 885,
      "Ġkil": 886,
      "Ġwyko": 887,
      "Ġkom": 888,
      "ĠmogÄħ": 889,
      "Ġprac": 890,
      "Ġor": 891,
      "Ġtu": 892,
      "Ġinter": 893,
      "ĠMi": 894,
      "nta": 895,
      "den": 896,
      "net": 897,
      "ĠV": 898,
      "ĠJa": 899,
      "kowa": 900,
      "Ġpraw": 901,
      "Ġrze": 902,
      "trzyma": 903,
      "dzÄħ": 904,
      "Ġdzi": 905,
      "nek": 906,
      "Ġpomo": 907,
      "ĠktÃ³ra": 908,
      "Za": 909,
      "ory": 910,
      "wiet": 911,
      "Ġraz": 912,
      "Ġspraw": 913,
      "Ġar": 914,
      "waÄĩ": 915,
      "gani": 916,
      "ge": 917,
      "skich": 918,
      "Ġten": 919,
      "uro": 920,
      "liz": 921,
      "Ġinforma": 922,
      "Ġjej": 923,
      "Ġgru": 924,
      "glÄħ": 925,
      "Ġnad": 926,
      "Ġse": 927,
      "czyÄĩ": 928,
      "czu": 929,
      "lie": 930,
      "czny": 931,
      "wania": 932,
      "miÄĻ": 933,
      "leÅ¼y": 934,
      "Ġlat": 935,
      "line": 936,
      "Ġtej": 937,
      "ec": 938,
      "asy": 939,
      "Ġspos": 940,
      "ing": 941,
      "Ġszy": 942,
      "unk": 943,
      "Ġdru": 944,
      "Ġgdy": 945,
      "Ġkie": 946,
      "rÃ³d": 947,
      "kiej": 948,
      "szu": 949,
      "pew": 950,
      "ii": 951,
      "ĠÅļ": 952,
      "wet": 953,
      "dÄĻ": 954,
      "Ġpracy": 955,
      "Ġga": 956,
      "ct": 957,
      "Ġmar": 958,
      "Ġpu": 959,
      "sku": 960,
      "lny": 961,
      "Ġ7": 962,
      "waÅ¼": 963,
      "ĠPrze": 964,
      "Ġcze": 965,
      "cznej": 966,
      "tyw": 967,
      "nowi": 968,
      "ĠRe": 969,
      "ort": 970,
      "taj": 971,
      "dÃ³w": 972,
      "sÅĤa": 973,
      "dowa": 974,
      "logi": 975,
      "Ġsko": 976,
      "Ġszcze": 977,
      "kach": 978,
      "pl": 979,
      "Ġpotrze": 980,
      "liÅĽmy": 981,
      "kiego": 982,
      "Ġwarto": 983,
      "Ġsobie": 984,
      "Å¼Äħ": 985,
      "Ġmieszka": 986,
      "dziÄĩ": 987,
      "ha": 988,
      "rzu": 989,
      "et": 990,
      "ĠwiÄĻcej": 991,
      "Ġfil": 992,
      "sÃ³w": 993,
      "Ġhi": 994,
      "Ġfa": 995,
      "Ġwyso": 996,
      "el": 997,
      "ĠPro": 998,
      "stu": 999,
      "tnie": 1000,
      "ĠdostÄĻp": 1001,
      "Wy": 1002,
      "Ġpew": 1003,
      "Ġkra": 1004,
      "Ġnas": 1005,
      "Je": 1006,
      "ck": 1007,
      "pro": 1008,
      "Ġokre": 1009,
      "ĠdÅĤu": 1010,
      "Ġ10": 1011,
      "jem": 1012,
      "ĠmiÄĻ": 1013,
      "ĠbÄĻdÄħ": 1014,
      "zen": 1015,
      "ĠosÃ³b": 1016,
      "Ġ8": 1017,
      "Ġru": 1018,
      "),": 1019,
      "Ġszko": 1020,
      "wiÄĻ": 1021,
      "lnych": 1022,
      "Ġprzypad": 1023,
      "Ġpol": 1024,
      "ciu": 1025,
      "kcji": 1026,
      "ĠCo": 1027,
      "Ġkolej": 1028,
      "tr": 1029,
      "ho": 1030,
      "ĠWar": 1031,
      "Ġdro": 1032,
      "ÅĽwia": 1033,
      "Ġnawet": 1034,
      "strze": 1035,
      "lnie": 1036,
      "ĠÅĽrod": 1037,
      "niÄħ": 1038,
      "czki": 1039,
      "Ġuwa": 1040,
      "di": 1041,
      "ÅĤam": 1042,
      "ĠbyÅĤo": 1043,
      "rywa": 1044,
      "Ġosob": 1045,
      "Ġjeszcze": 1046,
      "szego": 1047,
      "Ġ19": 1048,
      "Ġkre": 1049,
      "Ġrodzi": 1050,
      "skim": 1051,
      "onu": 1052,
      "ĠSz": 1053,
      "ĠRa": 1054,
      "tÄĻ": 1055,
      "dziaÅĤ": 1056,
      "Ġtrze": 1057,
      "ren": 1058,
      "rek": 1059,
      "szo": 1060,
      "Ġpoda": 1061,
      "Ġwiele": 1062,
      "stytu": 1063,
      "Ġwykona": 1064,
      "niÄĩ": 1065,
      "tach": 1066,
      "Ġbra": 1067,
      "nad": 1068,
      "Ġkobie": 1069,
      "ĠniÅ¼": 1070,
      "ĠTwo": 1071,
      "Ġek": 1072,
      "ary": 1073,
      "nowa": 1074,
      "Ġusta": 1075,
      "Do": 1076,
      "siada": 1077,
      "Ġonline": 1078,
      "pisa": 1079,
      "chni": 1080,
      "peÅĤ": 1081,
      "Ġmy": 1082,
      "dzenie": 1083,
      "gro": 1084,
      "Ġauto": 1085,
      "nki": 1086,
      "Ġproble": 1087,
      "Ġsprze": 1088,
      "tura": 1089,
      "kÅĤada": 1090,
      "IE": 1091,
      "ĠmajÄħ": 1092,
      "gÄĻ": 1093,
      "kar": 1094,
      "dar": 1095,
      "ĠIn": 1096,
      "Ġzro": 1097,
      "Ġproje": 1098,
      "kaz": 1099,
      "Ġsza": 1100,
      "Ġpodczas": 1101,
      "Ġszyb": 1102,
      "ĠTe": 1103,
      "Ġzapew": 1104,
      "mat": 1105,
      "Ġal": 1106,
      "tel": 1107,
      "ĠÅĤa": 1108,
      "Ġniez": 1109,
      "tych": 1110,
      "teria": 1111,
      "ntÃ³w": 1112,
      "Ġpoja": 1113,
      "ut": 1114,
      "Ġsku": 1115,
      "czna": 1116,
      "ĠusÅĤu": 1117,
      "ment": 1118,
      "Ġdzieci": 1119,
      "Ġ202": 1120,
      "Ġpowo": 1121,
      "cznego": 1122,
      "ĠsposÃ³b": 1123,
      "Ġkasy": 1124,
      "ĠDz": 1125,
      "Ġprowa": 1126,
      "wier": 1127,
      "fa": 1128,
      "god": 1129,
      "Ġso": 1130,
      "Ġorgani": 1131,
      "Ġjedno": 1132,
      "ĠbyÅĤ": 1133,
      "ich": 1134,
      "Ġzdr": 1135,
      "kaza": 1136,
      "ĠBo": 1137,
      "Ġkar": 1138,
      "ĠzÅĤo": 1139,
      "szta": 1140,
      "Ġdar": 1141,
      "Ã³wi": 1142,
      "Ġproce": 1143,
      "jemy": 1144,
      "ÅĽwiad": 1145,
      "Ġspecja": 1146,
      "Ġnajlep": 1147,
      "ej": 1148,
      "ĠpeÅĤ": 1149,
      "ktÃ³w": 1150,
      "dem": 1151,
      "ĠLe": 1152,
      "Ġprzygo": 1153,
      "ĠwiÄĻk": 1154,
      "kami": 1155,
      "wÃ³j": 1156,
      "Ġ9": 1157,
      "ÅĤÄĻ": 1158,
      "Ġklie": 1159,
      "Å¼ej": 1160,
      "Nie": 1161,
      "cjÄħ": 1162,
      "Ġtych": 1163,
      "Ġkla": 1164,
      "trz": 1165,
      "sce": 1166,
      "now": 1167,
      "rzenia": 1168,
      "bÄĻ": 1169,
      "Ġ0": 1170,
      "Ġtwo": 1171,
      "ers": 1172,
      "tru": 1173,
      "Ġsze": 1174,
      "ĠmoÅ¼liwo": 1175,
      "tp": 1176,
      "dow": 1177,
      "Ġfunk": 1178,
      "Ġosta": 1179,
      "nii": 1180,
      "ve": 1181,
      "star": 1182,
      "Ġinnych": 1183,
      "ĠnaleÅ¼y": 1184,
      "Ġzale": 1185,
      "lika": 1186,
      "mach": 1187,
      "dej": 1188,
      "wanie": 1189,
      "zd": 1190,
      "ezpie": 1191,
      "ÅĤoÅĽci": 1192,
      "czni": 1193,
      "ĠwiÄĻc": 1194,
      "stem": 1195,
      "Ġzach": 1196,
      "owiÄħ": 1197,
      "Ġoko": 1198,
      "Ġpoli": 1199,
      "ĠmÃ³wi": 1200,
      "stru": 1201,
      "ĠLi": 1202,
      "wsze": 1203,
      "Ġho": 1204,
      "Ġtele": 1205,
      "Ko": 1206,
      "oru": 1207,
      "Ġsprzeda": 1208,
      "Ġnau": 1209,
      "Ġinte": 1210,
      "min": 1211,
      "mowa": 1212,
      "Ġkilka": 1213,
      "âĢ¦": 1214,
      "ĠOd": 1215,
      "Ġinternet": 1216,
      "Ġgdzie": 1217,
      "ĠWie": 1218,
      "Ġposta": 1219,
      "lnego": 1220,
      "lnoÅĽci": 1221,
      "mina": 1222,
      "Ġpar": 1223,
      "Ġcy": 1224,
      "chu": 1225,
      "ĠTa": 1226,
      "Ġszczeg": 1227,
      "biera": 1228,
      "10": 1229,
      "jÄĻcia": 1230,
      "ciw": 1231,
      "ĠktÃ³rych": 1232,
      "ĠciÄħ": 1233,
      "prowa": 1234,
      "stÄħ": 1235,
      "pera": 1236,
      "tku": 1237,
      "ĠktÃ³rzy": 1238,
      "nikÃ³w": 1239,
      "arÃ³w": 1240,
      "Ġspotka": 1241,
      "Ġgry": 1242,
      "Ġgodzi": 1243,
      "ĠwÅĤas": 1244,
      "dia": 1245,
      "Ġposiada": 1246,
      "tua": 1247,
      "duje": 1248,
      "Ġbezpie": 1249,
      "Ġnich": 1250,
      "Ġthe": 1251,
      "nÄħÄĩ": 1252,
      "wczy": 1253,
      "czywi": 1254,
      "wu": 1255,
      "ĠkaÅ¼dy": 1256,
      "ĠjeÅĽli": 1257,
      "tÄħ": 1258,
      "ard": 1259,
      "Ġtre": 1260,
      "try": 1261,
      "szcza": 1262,
      "ÅĤym": 1263,
      "Ġwymaga": 1264,
      "menta": 1265,
      "lek": 1266,
      "Ġmnie": 1267,
      "Ġzmia": 1268,
      "Ġ15": 1269,
      "Ġzmie": 1270,
      "rzo": 1271,
      "Ġstra": 1272,
      "ĠkoÅĦ": 1273,
      "Ġpozy": 1274,
      "ĠwaÅ¼": 1275,
      "bar": 1276,
      "Ġmusi": 1277,
      "ĠWi": 1278,
      "ĠdziÄĻki": 1279,
      "wyk": 1280,
      "ÅĤych": 1281,
      "ĠSta": 1282,
      "Ġpy": 1283,
      "Ġmiejsce": 1284,
      "kry": 1285,
      "Ġprzypadku": 1286,
      "ÅĦstwa": 1287,
      "Ġtakie": 1288,
      "am": 1289,
      "Ã³j": 1290,
      "gen": 1291,
      "nach": 1292,
      "Ġopi": 1293,
      "Ġrozpo": 1294,
      "bezpie": 1295,
      "lnej": 1296,
      "vi": 1297,
      "Ġpowin": 1298,
      "dek": 1299,
      "Ġchce": 1300,
      "ĠPod": 1301,
      "pozy": 1302,
      "owany": 1303,
      "ĠmiÄĻdzy": 1304,
      "bior": 1305,
      "per": 1306,
      "ĠCzy": 1307,
      "Ġzap": 1308,
      "Ġarty": 1309,
      "czes": 1310,
      "lenia": 1311,
      "Å¼u": 1312,
      "Ġprogra": 1313,
      "soby": 1314,
      "Ġdnia": 1315,
      "stos": 1316,
      "sem": 1317,
      "Ġsek": 1318,
      "Ġwielu": 1319,
      "ster": 1320,
      "kro": 1321,
      "kla": 1322,
      "ĠMar": 1323,
      "ciÄĩ": 1324,
      "Ġfina": 1325,
      "ĠwspÃ³ÅĤ": 1326,
      "Ġsty": 1327,
      "redni": 1328,
      "Å¼enia": 1329,
      "glÄĻ": 1330,
      "Ġstanowi": 1331,
      "ÅĽcia": 1332,
      "cyjne": 1333,
      "Ġnam": 1334,
      "Ġ.": 1335,
      "mniej": 1336,
      "Ġponie": 1337,
      "Ġbardziej": 1338,
      "Ġ200": 1339,
      "ĠPolsce": 1340,
      "cka": 1341,
      "ĠÅĽwie": 1342,
      "ĠCi": 1343,
      "ww": 1344,
      "Ġsi": 1345,
      "tro": 1346,
      "ĠGo": 1347,
      "lem": 1348,
      "czka": 1349,
      "âĢĿ.": 1350,
      "nem": 1351,
      "Ġha": 1352,
      "Ġzda": 1353,
      "Ġbie": 1354,
      "log": 1355,
      "cych": 1356,
      "ĠÅģ": 1357,
      "Ġwszystkich": 1358,
      "Ġdni": 1359,
      "Ġdomu": 1360,
      "Ġkiedy": 1361,
      "ul": 1362,
      "ĠuÅ¼ytk": 1363,
      "ĠmoÅ¼esz": 1364,
      "Ġci": 1365,
      "Ġ,": 1366,
      "ser": 1367,
      "Ġot": 1368,
      "Ġok": 1369,
      "rwa": 1370,
      "ĠsÅĤu": 1371,
      "Ã³d": 1372,
      "stro": 1373,
      "uka": 1374,
      "wala": 1375,
      "Ġspa": 1376,
      "Ġjakie": 1377,
      "szko": 1378,
      "Ġrea": 1379,
      "wiera": 1380,
      "miast": 1381,
      "nÃ³w": 1382,
      "stwa": 1383,
      "ĠJak": 1384,
      "Ġap": 1385,
      "Ġfo": 1386,
      "chro": 1387,
      "stor": 1388,
      "stÄĻpu": 1389,
      "ĠrozwiÄħza": 1390,
      "Ġkosz": 1391,
      "Ġwia": 1392,
      "ĠmÄĻ": 1393,
      "ĠWo": 1394,
      "Ġpotrzeb": 1395,
      "19": 1396,
      "Ġbada": 1397,
      "ĠwpÅĤy": 1398,
      "Ġtran": 1399,
      "com": 1400,
      "ĠurzÄħ": 1401,
      "ĠktÃ³rym": 1402,
      "Ġpole": 1403,
      "Ġtemu": 1404,
      "kra": 1405,
      "ĠwÅĤaÅĽci": 1406,
      "glÄħda": 1407,
      "fer": 1408,
      "mowy": 1409,
      "pular": 1410,
      "ĠmÅĤo": 1411,
      "be": 1412,
      "twa": 1413,
      "Å¼enie": 1414,
      "Ġzaku": 1415,
      "por": 1416,
      "ĠgÅĤÃ³w": 1417,
      "Ġpozio": 1418,
      "Ġprzeciw": 1419,
      "Ġkredy": 1420,
      "Ġstrony": 1421,
      "od": 1422,
      "owiada": 1423,
      "Ġtru": 1424,
      "lna": 1425,
      "mowe": 1426,
      "dÅĤu": 1427,
      "Ġad": 1428,
      "tne": 1429,
      "moÅĽci": 1430,
      "Ġchwi": 1431,
      "Ġwybra": 1432,
      "Ġim": 1433,
      "ara": 1434,
      "ĠJeÅĽli": 1435,
      "Ġ12": 1436,
      "ĠEuro": 1437,
      "Ġzawo": 1438,
      "tar": 1439,
      "Ġkorzysta": 1440,
      "Ġwyb": 1441,
      "mio": 1442,
      "cznym": 1443,
      "chy": 1444,
      "biÄĩ": 1445,
      "Ġmateria": 1446,
      "Ġponad": 1447,
      "Ġsytua": 1448,
      "czego": 1449,
      "ĠpoÅ¼y": 1450,
      "ir": 1451,
      "Ġklu": 1452,
      "Ġwszystkie": 1453,
      "nk": 1454,
      "ktyw": 1455,
      "ÅĤego": 1456,
      "muje": 1457,
      "Ġmin": 1458,
      "Ma": 1459,
      "maty": 1460,
      "ĠPrzy": 1461,
      "grani": 1462,
      "czej": 1463,
      "Ġkont": 1464,
      "Ġpas": 1465,
      "tami": 1466,
      "th": 1467,
      "stnie": 1468,
      "ĠPra": 1469,
      "cach": 1470,
      "ktor": 1471,
      "cznÄħ": 1472,
      "Ġkonta": 1473,
      "lni": 1474,
      "skona": 1475,
      "âĢĵ": 1476,
      "Ġloka": 1477,
      "ÅĤowie": 1478,
      "Ġserwi": 1479,
      "Ġregu": 1480,
      "Ġfirmy": 1481,
      "Ġkonie": 1482,
      "cen": 1483,
      "daw": 1484,
      "fo": 1485,
      "trze": 1486,
      "Ġczasu": 1487,
      "Ġzapo": 1488,
      "AN": 1489,
      "Ġobec": 1490,
      "nka": 1491,
      "Prze": 1492,
      "ĠDla": 1493,
      "godnie": 1494,
      "ĠbyÅĤa": 1495,
      "Ġwska": 1496,
      "tera": 1497,
      "ÅĽciÄħ": 1498,
      "ÅĤej": 1499,
      "szenia": 1500,
      "niki": 1501,
      "lnym": 1502,
      "and": 1503,
      "tury": 1504,
      "sti": 1505,
      "ujemy": 1506,
      "Ġtam": 1507,
      "tora": 1508,
      "fek": 1509,
      "Ġnowo": 1510,
      "dnia": 1511,
      "lenie": 1512,
      "niejsze": 1513,
      "om": 1514,
      "wiÄĩ": 1515,
      "ĠÅ¼a": 1516,
      "wiÄħz": 1517,
      "rom": 1518,
      "Ġzdo": 1519,
      "Ġdodatk": 1520,
      "tyczÄħ": 1521,
      "Pro": 1522,
      "ĠBa": 1523,
      "ĠspoÅĤe": 1524,
      "Å¼li": 1525,
      "lizacji": 1526,
      "Ġumie": 1527,
      "tyczne": 1528,
      "ĠdoÅĽwiad": 1529,
      "Ġpyta": 1530,
      "Ġrodza": 1531,
      "ĠrÄĻ": 1532,
      "dne": 1533,
      "Ġpozosta": 1534,
      "ĠdotyczÄħ": 1535,
      "ĠNaj": 1536,
      "ĠLu": 1537,
      "Jak": 1538,
      "ĠzwiÄħza": 1539,
      "ĠÅĤat": 1540,
      "Ġwszystko": 1541,
      "pita": 1542,
      "mier": 1543,
      "ok": 1544,
      "Ġtakich": 1545,
      "wki": 1546,
      "wane": 1547,
      "ĠczÄĻsto": 1548,
      "zo": 1549,
      "noÅĽciÄħ": 1550,
      "ĠpÅĤy": 1551,
      "kce": 1552,
      "ktÃ³": 1553,
      "ÅĽla": 1554,
      "tion": 1555,
      "Ġobie": 1556,
      "dÅĤ": 1557,
      "kow": 1558,
      "Ġdanych": 1559,
      "Ġpoprze": 1560,
      "Ġzawsze": 1561,
      "Ġzapa": 1562,
      "Ġcelu": 1563,
      "ÅĽrÃ³d": 1564,
      "ĠWarsza": 1565,
      "cÄĻ": 1566,
      "cki": 1567,
      "mys": 1568,
      "ten": 1569,
      "gÅĤo": 1570,
      "ĠJest": 1571,
      "Ġkol": 1572,
      "Ġdecy": 1573,
      "ĠwÅĤo": 1574,
      "Ġelekt": 1575,
      "Ġsamocho": 1576,
      "wen": 1577,
      "Ġrand": 1578,
      "Ġne": 1579,
      "Ġstos": 1580,
      "ĠJed": 1581,
      "pis": 1582,
      "os": 1583,
      "zi": 1584,
      "ĠTy": 1585,
      "bardziej": 1586,
      "Ġcia": 1587,
      "Ġ100": 1588,
      "chodzi": 1589,
      "sztaÅĤ": 1590,
      "wiÄĻk": 1591,
      "chi": 1592,
      "Åģ": 1593,
      "Å¼yÄĩ": 1594,
      "stawie": 1595,
      "Ġ:": 1596,
      "Ġ18": 1597,
      "ĠktÃ³rej": 1598,
      "Åļ": 1599,
      "Ġuzy": 1600,
      "Ġide": 1601,
      "Ġpubli": 1602,
      "hi": 1603,
      "Czy": 1604,
      "Ġws": 1605,
      "scy": 1606,
      "cyjnych": 1607,
      "bywa": 1608,
      "ĠÅ¼ycia": 1609,
      "Ġkto": 1610,
      "Ġpoko": 1611,
      "Ġtemat": 1612,
      "stwo": 1613,
      "jÄħca": 1614,
      "Ġbe": 1615,
      "Ġprostytu": 1616,
      "spodar": 1617,
      "Ġdobrze": 1618,
      "Å¼eli": 1619,
      "nosi": 1620,
      "piej": 1621,
      "ciÄĻ": 1622,
      "rzÄħd": 1623,
      "nera": 1624,
      "Ġnaszej": 1625,
      "ĠWa": 1626,
      "Ġter": 1627,
      "fika": 1628,
      "kowe": 1629,
      "stÃ³w": 1630,
      "ĠrÃ³Å¼nych": 1631,
      "ĠjÄħ": 1632,
      "koÅĦ": 1633,
      "kowi": 1634,
      "Ġwarun": 1635,
      "ĠpoczÄħ": 1636,
      "prasza": 1637,
      "ĠDe": 1638,
      "Ġwszystkim": 1639,
      "nij": 1640,
      "Ġ[": 1641,
      "nne": 1642,
      "Ġotrzyma": 1643,
      "Ġpozwala": 1644,
      "Ġzasa": 1645,
      "Ġ/": 1646,
      "50": 1647,
      "ly": 1648,
      "ĠSa": 1649,
      "Ġczyli": 1650,
      "cjona": 1651,
      "Ġprezen": 1652,
      "Ġzakre": 1653,
      "Ġjaki": 1654,
      "kowy": 1655,
      "Ġkro": 1656,
      "Ġ30": 1657,
      "ownikÃ³w": 1658,
      "czone": 1659,
      "wem": 1660,
      "ĠDa": 1661,
      "Ġinne": 1662,
      "ÅĦstwo": 1663,
      "der": 1664,
      "12": 1665,
      "cenia": 1666,
      "Ġinwe": 1667,
      "sji": 1668,
      "ÅĤka": 1669,
      "Ġzde": 1670,
      "Ġznale": 1671,
      "Ġkur": 1672,
      "Ġwypo": 1673,
      "lnoÅĽÄĩ": 1674,
      "Ġzie": 1675,
      "Ġbud": 1676,
      "Ġteraz": 1677,
      "ĠTwoje": 1678,
      "OW": 1679,
      "ÅĦski": 1680,
      "Ġczasie": 1681,
      "ĠwzglÄĻ": 1682,
      "ĠÅĽwiat": 1683,
      "Ġzain": 1684,
      "Ġstronie": 1685,
      "Ġban": 1686,
      "ĠÅ¼eby": 1687,
      "ÅĤÃ³": 1688,
      "ĠÅ»": 1689,
      "Ġtrzy": 1690,
      "ĠjÄĻ": 1691,
      "ĠzostaÅĤ": 1692,
      "ĠX": 1693,
      "ĠPi": 1694,
      "bia": 1695,
      "Ġsiebie": 1696,
      "30": 1697,
      "zji": 1698,
      "cznoÅĽci": 1699,
      "ĠkaÅ¼de": 1700,
      "szenie": 1701,
      "pre": 1702,
      "naj": 1703,
      "chno": 1704,
      "ĠMe": 1705,
      "nÄĻtrz": 1706,
      "Ġge": 1707,
      "Ġczer": 1708,
      "Ġand": 1709,
      "Ġosoby": 1710,
      "ĠKon": 1711,
      "Ġnada": 1712,
      "arÃ³wno": 1713,
      "Ġszuka": 1714,
      "ĠÂ": 1715,
      "Ġstu": 1716,
      "nty": 1717,
      "lik": 1718,
      "Ġfinans": 1719,
      "ss": 1720,
      "ĠobowiÄħ": 1721,
      "Ġ14": 1722,
      "rÃ³w": 1723,
      "Ġwal": 1724,
      "Ġnajbardziej": 1725,
      "ĠKra": 1726,
      "Ġprzedsta": 1727,
      "ĠciÄĻ": 1728,
      "Ġporno": 1729,
      "ĠpiÄĻk": 1730,
      "ĠkrÃ³": 1731,
      "Ġmode": 1732,
      "Ġdosta": 1733,
      "ÅĽwiet": 1734,
      "Ġlicz": 1735,
      "gna": 1736,
      "Ġartyku": 1737,
      "Ġzada": 1738,
      "dzieÄĩ": 1739,
      "ĠCz": 1740,
      "let": 1741,
      "Ġuro": 1742,
      "Ġener": 1743,
      "Ġdoskona": 1744,
      "ĠponiewaÅ¼": 1745,
      "cer": 1746,
      "nienia": 1747,
      "pÅĤa": 1748,
      "one": 1749,
      "Ġpowsta": 1750,
      "tuje": 1751,
      "ld": 1752,
      "Ġucze": 1753,
      "Ġfirm": 1754,
      "\".": 1755,
      "Ġwiel": 1756,
      "ÅĤoÅĽÄĩ": 1757,
      "owaÅĤ": 1758,
      "rucho": 1759,
      "Ġhistor": 1760,
      "wyÅ¼": 1761,
      "Ġuzyska": 1762,
      "Ġzaba": 1763,
      "Ġswoich": 1764,
      "jona": 1765,
      "14": 1766,
      "ĠksiÄħ": 1767,
      "gÄħ": 1768,
      "rÃ³b": 1769,
      "che": 1770,
      "ke": 1771,
      "Ã³Åº": 1772,
      "ĠbyÅĤy": 1773,
      "ĠHo": 1774,
      "ĠcoÅĽ": 1775,
      "Ġnim": 1776,
      "Ġrynku": 1777,
      "Ġokaz": 1778,
      "leÅ¼": 1779,
      "Ġkry": 1780,
      "ĠmieÄĩ": 1781,
      "Ġcu": 1782,
      "ÅĤek": 1783,
      "AR": 1784,
      "Ġludzi": 1785,
      "Å¼czy": 1786,
      "Ġozna": 1787,
      "Ã³ry": 1788,
      "Ġodpowiedni": 1789,
      "Ġtrzeba": 1790,
      "ĠswojÄħ": 1791,
      "mar": 1792,
      "ĠjakoÅĽci": 1793,
      "Ã³lnie": 1794,
      "ĠPolski": 1795,
      "Ġkilku": 1796,
      "ĠjÄĻzy": 1797,
      "Ġstanie": 1798,
      "15": 1799,
      "dob": 1800,
      "alne": 1801,
      "ĠwÅĤaÅĽnie": 1802,
      "czeÅĽ": 1803,
      "Ro": 1804,
      "Ġinformacji": 1805,
      "owanych": 1806,
      "owana": 1807,
      "ĠuwagÄĻ": 1808,
      "ĠczÄĻÅĽci": 1809,
      "//": 1810,
      "raca": 1811,
      "Ġznajdzie": 1812,
      "pia": 1813,
      "Ġkonku": 1814,
      "Ġchara": 1815,
      "Od": 1816,
      "ĠzarÃ³wno": 1817,
      "Ġ16": 1818,
      "Ġwzro": 1819,
      "ĠpamiÄĻ": 1820,
      "ttp": 1821,
      "czeÅĦ": 1822,
      "leg": 1823,
      "Ġmini": 1824,
      "gii": 1825,
      "ĠobsÅĤu": 1826,
      "rach": 1827,
      "Ġzawiera": 1828,
      "Ġochro": 1829,
      "Ġzapewnia": 1830,
      "ĠzwiÄħz": 1831,
      "jÄħcego": 1832,
      "Ġwprowa": 1833,
      "ĠgÅĤo": 1834,
      "waÅĤ": 1835,
      "ĠsÅĤo": 1836,
      "ĠDziÄĻki": 1837,
      "Ġuda": 1838,
      "Mo": 1839,
      "rzenie": 1840,
      "wali": 1841,
      "Ġdwa": 1842,
      "cyjny": 1843,
      "czeniu": 1844,
      "://": 1845,
      "ĠpoÅĤÄħ": 1846,
      "owarzy": 1847,
      "usz": 1848,
      "ĠMie": 1849,
      "Ġnaszych": 1850,
      "Ġtrwa": 1851,
      "fes": 1852,
      "ĠAr": 1853,
      "nter": 1854,
      "mery": 1855,
      "Ġeksp": 1856,
      "ĠwyjÄħ": 1857,
      "kcja": 1858,
      "ĠCie": 1859,
      "Ġpowi": 1860,
      "moÅ¼li": 1861,
      "Ġana": 1862,
      "Ġjedy": 1863,
      "ĠMoÅ¼e": 1864,
      "piÄĩ": 1865,
      "Ġdziewczy": 1866,
      "Ġnatura": 1867,
      "ĠtÅĤu": 1868,
      "menty": 1869,
      "nami": 1870,
      "Ġkomu": 1871,
      "Ġczyn": 1872,
      "ER": 1873,
      "wer": 1874,
      "ÅĤowa": 1875,
      "Ġone": 1876,
      "Ġprzygot": 1877,
      "kuje": 1878,
      "ler": 1879,
      "ĠdÅĤugo": 1880,
      "Ġdom": 1881,
      "Ġsyste": 1882,
      "ĠzwiÄĻk": 1883,
      "pÅĤat": 1884,
      "IA": 1885,
      "kcie": 1886,
      "Ġv": 1887,
      "szcz": 1888,
      "Ġcieka": 1889,
      "dno": 1890,
      "Ġtro": 1891,
      "wykle": 1892,
      "zne": 1893,
      "obacz": 1894,
      "Ġilo": 1895,
      "nicy": 1896,
      "chodzÄħ": 1897,
      "mini": 1898,
      "ĠÅĽwiet": 1899,
      "Ġskute": 1900,
      "ĠAu": 1901,
      "Ġmniej": 1902,
      "rea": 1903,
      "czywiÅĽcie": 1904,
      "Ġpopular": 1905,
      "roni": 1906,
      "ĠBi": 1907,
      "Ka": 1908,
      "ĠSp": 1909,
      "rzyÄĩ": 1910,
      "Ġinformacje": 1911,
      "szÄĻ": 1912,
      "orÃ³w": 1913,
      "Ġskle": 1914,
      "lacji": 1915,
      "jÄħcym": 1916,
      "ĠusÅĤug": 1917,
      "ĠBy": 1918,
      "mawia": 1919,
      "mentÃ³w": 1920,
      "Ġjeste": 1921,
      "Ġmiejscu": 1922,
      "Ġpodej": 1923,
      "ura": 1924,
      "ÅĽredni": 1925,
      "Ġwykorzysta": 1926,
      "Ġdie": 1927,
      "zja": 1928,
      "dnych": 1929,
      "Ġnowe": 1930,
      "18": 1931,
      "Ġnapraw": 1932,
      "Ġkier": 1933,
      "Ġzaj": 1934,
      "Ġprzysz": 1935,
      "Ġnaz": 1936,
      "ĠktÃ³rego": 1937,
      "czyna": 1938,
      "17": 1939,
      "ĠmÃ³": 1940,
      "Ġzamie": 1941,
      "ĠÐ": 1942,
      "Ġbli": 1943,
      "000": 1944,
      "czeÅĽniej": 1945,
      "Ġsystem": 1946,
      "dro": 1947,
      "Ġjeden": 1948,
      "ĠOb": 1949,
      "lnÄħ": 1950,
      "ÅºÄĩ": 1951,
      "waran": 1952,
      "ĠmoÅ¼liwoÅĽÄĩ": 1953,
      "Ġbonu": 1954,
      "wnÄĻtrz": 1955,
      "To": 1956,
      "sek": 1957,
      "ĠÅ¼ycie": 1958,
      "Ġcm": 1959,
      "Re": 1960,
      "ST": 1961,
      "Ġdobre": 1962,
      "Ġtechno": 1963,
      "gle": 1964,
      "Ġaktyw": 1965,
      "Ġ17": 1966,
      "Ġpodstaw": 1967,
      "ĠAle": 1968,
      "Ġnaszym": 1969,
      "Ġdoku": 1970,
      "wÃ³r": 1971,
      "Ġpodob": 1972,
      "cent": 1973,
      "Ġorganiz": 1974,
      "âĢĿ,": 1975,
      "II": 1976,
      "AT": 1977,
      "Ġzwie": 1978,
      "Ġpun": 1979,
      "Ġpan": 1980,
      "ĠmiesiÄħ": 1981,
      "Ġnp": 1982,
      "ĠskÅĤa": 1983,
      "Ġmoc": 1984,
      "Ġbezpiecze": 1985,
      "Ġki": 1986,
      "Ġwsze": 1987,
      "Ġalbo": 1988,
      "Naj": 1989,
      "prac": 1990,
      "Ġklasy": 1991,
      "chÄĻ": 1992,
      "ĠÅĤÄħ": 1993,
      "lan": 1994,
      "tal": 1995,
      "ĠnastÄĻp": 1996,
      "powiada": 1997,
      "ĠSo": 1998,
      "ĠWe": 1999,
      "Ġmam": 2000,
      "Pod": 2001,
      "licy": 2002,
      "Ġsztu": 2003,
      "ĠmoÅ¼emy": 2004,
      "Ġistnie": 2005,
      "two": 2006,
      "ĠBu": 2007,
      "Ġgro": 2008,
      "ĠGa": 2009,
      "ĠDzie": 2010,
      "pada": 2011,
      "Ġdlatego": 2012,
      "ĠâĢĶ": 2013,
      "zer": 2014,
      "Ġswojej": 2015,
      "ĠÅ¼": 2016,
      "Ġ11": 2017,
      "Ġgospodar": 2018,
      "kom": 2019,
      "byt": 2020,
      "kol": 2021,
      "Ġstwo": 2022,
      "Ja": 2023,
      "koÅĽÄĩ": 2024,
      "Ġobej": 2025,
      "Ġwygra": 2026,
      "Ġnieza": 2027,
      "Ġmiejsc": 2028,
      "ĠÅĽwiecie": 2029,
      "twarza": 2030,
      "owaniu": 2031,
      "niach": 2032,
      "ĠmÄĻÅ¼czy": 2033,
      "Ġswoim": 2034,
      "jo": 2035,
      "ber": 2036,
      "ĠpÃ³ÅĤ": 2037,
      "ĠduÅ¼y": 2038,
      "ĠdzieÅĦ": 2039,
      "Co": 2040,
      "owymi": 2041,
      "Ġkomp": 2042,
      "Ġsil": 2043,
      "Ġprzestrze": 2044,
      "Ġcharakt": 2045,
      "czÄĻÅĽcie": 2046,
      "rew": 2047,
      "Ġ50": 2048,
      "Ġorganiza": 2049,
      "skÄħ": 2050,
      "Ġaplika": 2051,
      "Ġbia": 2052,
      "Ġmamy": 2053,
      "Ġ13": 2054,
      "!!": 2055,
      "tyka": 2056,
      "Ġleka": 2057,
      "Ġostatni": 2058,
      "ĠwyglÄħda": 2059,
      "Ġopie": 2060,
      "Ġpozna": 2061,
      "Ġprywa": 2062,
      "ĠCa": 2063,
      "Pa": 2064,
      "ĠaÅ¼": 2065,
      "Ġdobry": 2066,
      "Ġmiejsca": 2067,
      "11": 2068,
      "Ġwiado": 2069,
      "Ġdzia": 2070,
      "Ġdrugie": 2071,
      "Ġpacje": 2072,
      "qu": 2073,
      "koÅĽci": 2074,
      "Ġsame": 2075,
      "Ġani": 2076,
      "Ġczym": 2077,
      "Å»": 2078,
      "Ġsma": 2079,
      "Ġul": 2080,
      "ĠcaÅĤ": 2081,
      "gan": 2082,
      "Ġoferty": 2083,
      "Ġzam": 2084,
      "Ġmeto": 2085,
      "ĠBar": 2086,
      "fesjona": 2087,
      "iel": 2088,
      "cep": 2089,
      "ĠosiÄħ": 2090,
      "Ġper": 2091,
      "mpa": 2092,
      "logii": 2093,
      "jÄħcej": 2094,
      "wÃ³ch": 2095,
      "szyÄĩ": 2096,
      "Ġchoro": 2097,
      "Ġkole": 2098,
      "Ġrekla": 2099,
      "tory": 2100,
      "Ġzdecy": 2101,
      "ĠkaÅ¼dego": 2102,
      "Ġy": 2103,
      "Ġprostytutki": 2104,
      "mienia": 2105,
      "wÄħ": 2106,
      "jÄĻcie": 2107,
      "CZ": 2108,
      "Ġpromo": 2109,
      "ĠSÄħ": 2110,
      "Ġpora": 2111,
      "Ġramach": 2112,
      "Ġjednym": 2113,
      "ÅĤki": 2114,
      "liwe": 2115,
      "pol": 2116,
      "Ġograni": 2117,
      "zyden": 2118,
      "Å¼ki": 2119,
      "Ġrazem": 2120,
      "siÄĻbior": 2121,
      "Ġsam": 2122,
      "Ġbudy": 2123,
      "mÃ³wie": 2124,
      "Ġml": 2125,
      "szuki": 2126,
      "Ġcoraz": 2127,
      "tycznie": 2128,
      "ĠmieszkaÅĦ": 2129,
      "stan": 2130,
      "Ġwspo": 2131,
      "ĠproduktÃ³w": 2132,
      "Ġx": 2133,
      "ĠzostaÅĤa": 2134,
      "pej": 2135,
      "Ġoce": 2136,
      "ĠnajwiÄĻk": 2137,
      "Ġkontro": 2138,
      "EN": 2139,
      "ĠdwÃ³ch": 2140,
      "Ġprzyja": 2141,
      "jÄħcÄħ": 2142,
      "tnoÅĽci": 2143,
      "Ð¾": 2144,
      "ĠSe": 2145,
      "alnie": 2146,
      "Ġstar": 2147,
      "cjon": 2148,
      "Ġkredyt": 2149,
      "ĠniektÃ³": 2150,
      "Ġmiasta": 2151,
      "16": 2152,
      "Ġpowierz": 2153,
      "Ġkul": 2154,
      "ĠmiaÅĤ": 2155,
      "dio": 2156,
      "Ġwnio": 2157,
      "ON": 2158,
      "tej": 2159,
      "tacji": 2160,
      "Ġaktu": 2161,
      "ĠpiÄĻ": 2162,
      "czeÅĽnie": 2163,
      "Ġtypu": 2164,
      "Ġuczest": 2165,
      "Ġkli": 2166,
      "Ġprzeprowa": 2167,
      "Ġnowych": 2168,
      "ÅĽnia": 2169,
      "czyÅĤ": 2170,
      "Ġszybko": 2171,
      "Ġcent": 2172,
      "JeÅĽli": 2173,
      "Ġatra": 2174,
      "Ġsez": 2175,
      "Ġtaki": 2176,
      "ĠwyjÄħtk": 2177,
      "ĠNi": 2178,
      "spÃ³ÅĤ": 2179,
      "ĠwÄħ": 2180,
      "ĠMu": 2181,
      "Ð°": 2182,
      "czony": 2183,
      "Ġszero": 2184,
      "dziÅĤ": 2185,
      "rii": 2186,
      "nienie": 2187,
      "siÄĻcy": 2188,
      "ĠKu": 2189,
      "In": 2190,
      "rzÄħdza": 2191,
      "ĠchÅĤo": 2192,
      "ĠRoz": 2193,
      "Ġsieci": 2194,
      "ĠnaprawdÄĻ": 2195,
      "daÄĩ": 2196,
      "mentu": 2197,
      "lach": 2198,
      "Ġzau": 2199,
      "wÄĻ": 2200,
      "Ġtechni": 2201,
      "ĠpomocÄħ": 2202,
      "Ġgier": 2203,
      "Ġ24": 2204,
      "ĠtÄĻ": 2205,
      "Ġstop": 2206,
      "Ġprawdzi": 2207,
      "ĠÅĽwiad": 2208,
      "Ġnaszego": 2209,
      "ĠÅº": 2210,
      "ĠokoÅĤo": 2211,
      "sor": 2212,
      "ĠzrobiÄĩ": 2213,
      "ĠklientÃ³w": 2214,
      "Ġznajduje": 2215,
      "deo": 2216,
      "gram": 2217,
      "Ġtere": 2218,
      "miar": 2219,
      "taÄĩ": 2220,
      "ĠSu": 2221,
      "Ġimp": 2222,
      "sh": 2223,
      "teres": 2224,
      "ou": 2225,
      "ĠznaleÅºÄĩ": 2226,
      "gh": 2227,
      "Ġrozwo": 2228,
      "ĠzakoÅĦ": 2229,
      "wycza": 2230,
      "Ġzu": 2231,
      "Ġczego": 2232,
      "Ġwieku": 2233,
      "Ġlek": 2234,
      "Ġpara": 2235,
      "pisy": 2236,
      "Ġnasze": 2237,
      "Ġtowarzy": 2238,
      "zdy": 2239,
      "va": 2240,
      "ĠFa": 2241,
      "ĠduÅ¼o": 2242,
      "Ġmoje": 2243,
      "wiajÄħ": 2244,
      "24": 2245,
      "ĠzdjÄĻcia": 2246,
      "cjach": 2247,
      "ĠPola": 2248,
      "dzien": 2249,
      "Ġmasz": 2250,
      "dr": 2251,
      "ĠsprzÄĻ": 2252,
      "resu": 2253,
      "Ġprzewo": 2254,
      "czek": 2255,
      "tomiast": 2256,
      "ĠczÅĤowie": 2257,
      "Ġefek": 2258,
      "Ġinwesty": 2259,
      "man": 2260,
      "tedy": 2261,
      "ĠobowiÄħz": 2262,
      "ĠmoÅ¼liwoÅĽci": 2263,
      "Ġmedy": 2264,
      "Ġsprawie": 2265,
      "OR": 2266,
      "Ġspecjali": 2267,
      "dÅĤug": 2268,
      "ĠdziaÅĤania": 2269,
      "Ġpierwszy": 2270,
      "ĠpÅĤat": 2271,
      "ĠpÅĤa": 2272,
      "Ġzastos": 2273,
      "ĠwyÅĤÄħ": 2274,
      "dniej": 2275,
      "ÅĽni": 2276,
      "gÅĤ": 2277,
      "ĠPre": 2278,
      "Ġzespo": 2279,
      "Ġprzej": 2280,
      "ĠUS": 2281,
      "Ġtem": 2282,
      "ver": 2283,
      "feren": 2284,
      "ĠGra": 2285,
      "owaniem": 2286,
      "Ġwyja": 2287,
      "Ġoznacza": 2288,
      "Ġ25": 2289,
      "cÅĤa": 2290,
      "Ġdowo": 2291,
      "ĠFi": 2292,
      "tom": 2293,
      "ÅĤeÅĽ": 2294,
      "Ġusu": 2295,
      "Ġreje": 2296,
      "ĠAl": 2297,
      "Ġmuzy": 2298,
      "widu": 2299,
      "ĠwÄĻ": 2300,
      "ĠwczeÅĽniej": 2301,
      "Ġsamy": 2302,
      "mysÅĤ": 2303,
      "SZ": 2304,
      "tnych": 2305,
      "Ġsport": 2306,
      "Ġnic": 2307,
      "Wi": 2308,
      "Ġzostanie": 2309,
      "Ġniego": 2310,
      "Ġswojego": 2311,
      "Ġpom": 2312,
      "Ġpomoc": 2313,
      "niÄħdze": 2314,
      "ĠDu": 2315,
      "Te": 2316,
      "gnie": 2317,
      "wiek": 2318,
      "Ġniej": 2319,
      "Ġwraz": 2320,
      "Ġpoza": 2321,
      "ĠpÃ³Åº": 2322,
      "Ġotwar": 2323,
      "Ġpotra": 2324,
      "Ġlata": 2325,
      "Ġhand": 2326,
      "Ġrok": 2327,
      "Ġzad": 2328,
      "Ġopa": 2329,
      "tycznych": 2330,
      "Ġwers": 2331,
      "Ġkieru": 2332,
      "Ġrobi": 2333,
      "Ġtutaj": 2334,
      "kowych": 2335,
      "Ġczeka": 2336,
      "Ġsklep": 2337,
      "Ġblo": 2338,
      "kon": 2339,
      "ĠInter": 2340,
      "Ġprzyczy": 2341,
      "OD": 2342,
      "Ġpli": 2343,
      "ĠokreÅĽ": 2344,
      "Ġczar": 2345,
      "czych": 2346,
      "nkÃ³w": 2347,
      "ĠJu": 2348,
      "ĠciÄħgu": 2349,
      "lia": 2350,
      "Ġwyposa": 2351,
      "ĠumoÅ¼li": 2352,
      "obie": 2353,
      "szczÄĻ": 2354,
      "ĠCho": 2355,
      "ad": 2356,
      "Äĺ": 2357,
      "ĠskÅĤada": 2358,
      "tyczny": 2359,
      "ony": 2360,
      "king": 2361,
      "Ġkr": 2362,
      "wka": 2363,
      "Ġbizne": 2364,
      "Ġpoprzez": 2365,
      "ĠpoczÄħtku": 2366,
      "Ġskorzysta": 2367,
      "Ġprofesjona": 2368,
      "is": 2369,
      "Ġdane": 2370,
      "ĠusÅĤugi": 2371,
      "lub": 2372,
      "kolwiek": 2373,
      "ÅĦskiego": 2374,
      "Ġindy": 2375,
      "lizacja": 2376,
      "wych": 2377,
      "ĠBe": 2378,
      "Ġzapro": 2379,
      "Ġwykorzy": 2380,
      "ĠZe": 2381,
      "ĠprzykÅĤad": 2382,
      ".,": 2383,
      "Ġkraju": 2384,
      "âĢĻ": 2385,
      "par": 2386,
      "Å¼one": 2387,
      "Ġzainteres": 2388,
      "Ġrozwi": 2389,
      "Ġbran": 2390,
      "Ġprzede": 2391,
      "Ġlep": 2392,
      "lÃ³w": 2393,
      "IN": 2394,
      "Ġstosu": 2395,
      "Ġpart": 2396,
      "liÄĩ": 2397,
      "Przy": 2398,
      "tny": 2399,
      "ĠktÃ³rÄħ": 2400,
      "gdy": 2401,
      "Ġtelef": 2402,
      "Ġkonsu": 2403,
      "Ġpowodu": 2404,
      "Ġpowinie": 2405,
      "biega": 2406,
      "Ġprawa": 2407,
      "towe": 2408,
      "rami": 2409,
      "ĠwspÃ³ÅĤpra": 2410,
      "stety": 2411,
      "Ġproc": 2412,
      "ĠSy": 2413,
      "Ġwielo": 2414,
      "mow": 2415,
      "ĠJednak": 2416,
      "nci": 2417,
      "wÃ³dz": 2418,
      "Ġobro": 2419,
      "13": 2420,
      "Ġnowoczes": 2421,
      "moÅĽÄĩ": 2422,
      "nic": 2423,
      "Ġkompu": 2424,
      "ciel": 2425,
      "Ġpsy": 2426,
      "22": 2427,
      "ctwa": 2428,
      "bieg": 2429,
      "Ġska": 2430,
      "Ġpopra": 2431,
      "ĠksztaÅĤ": 2432,
      "Ġznajdu": 2433,
      "Å¼ony": 2434,
      "Ġzoba": 2435,
      "Ġ2023": 2436,
      "wca": 2437,
      "Ġprojekt": 2438,
      "Åºdzie": 2439,
      "ĠdziÅĽ": 2440,
      "ĠwiÄĻkszo": 2441,
      "len": 2442,
      "Ġproblem": 2443,
      "gno": 2444,
      "ciem": 2445,
      "Ġszpita": 2446,
      "ĠLa": 2447,
      "ĠWszyst": 2448,
      "leca": 2449,
      "ÅĤow": 2450,
      "ĠnarzÄĻ": 2451,
      "ðŁ": 2452,
      "mÄĻ": 2453,
      "Ġoferuje": 2454,
      "Ġzakresie": 2455,
      "Ġ2020": 2456,
      "Ġzdoby": 2457,
      "ĠskÃ³ry": 2458,
      "ĠprzedsiÄĻbior": 2459,
      "Ġsytuacji": 2460,
      "Ġona": 2461,
      "ĠkaÅ¼dym": 2462,
      "Ġchodzi": 2463,
      "tery": 2464,
      "Ġogrom": 2465,
      "Ġpozwo": 2466,
      "pÅĤy": 2467,
      "ĠPoli": 2468,
      "Ġwody": 2469,
      "ĠwzglÄĻdu": 2470,
      "jewÃ³dz": 2471,
      "liwoÅĽci": 2472,
      "ĠswÃ³j": 2473,
      "tym": 2474,
      "praszamy": 2475,
      "Ġproduktu": 2476,
      ":||": 2477,
      "Ġdziec": 2478,
      "21": 2479,
      "jÃ³w": 2480,
      "owoÅĽci": 2481,
      "Ġzdrowia": 2482,
      "wiel": 2483,
      "Ðµ": 2484,
      "Ġinnymi": 2485,
      "ĠiÅ¼": 2486,
      "Ġ...": 2487,
      "Ġwido": 2488,
      "ĠPolska": 2489,
      "Ġprzyj": 2490,
      "ĠTak": 2491,
      "sja": 2492,
      "ĠÅĽwiata": 2493,
      "land": 2494,
      "Ġ|": 2495,
      "jcie": 2496,
      "RA": 2497,
      "west": 2498,
      "lin": 2499,
      "ĠAnd": 2500,
      "Ġchcia": 2501,
      "Ġwynika": 2502,
      "ĠzwiÄħzku": 2503,
      "Ġzawar": 2504,
      "....": 2505,
      "Ġisto": 2506,
      "starcza": 2507,
      "Ġprodukty": 2508,
      "ĠpieniÄħdze": 2509,
      "Ġeuro": 2510,
      "rocÅĤa": 2511,
      "Ġdzien": 2512,
      "datk": 2513,
      "ĠciÄĻÅ¼": 2514,
      "Ġzgo": 2515,
      "Ġopera": 2516,
      "ĠudziaÅĤ": 2517,
      "ÅĦska": 2518,
      "Ġpomaga": 2519,
      "Ġfak": 2520,
      "iedy": 2521,
      "Ġplan": 2522,
      "Ġocze": 2523,
      "Ġwyra": 2524,
      "Ġmili": 2525,
      "Ġodwie": 2526,
      "moc": 2527,
      "Ġtrady": 2528,
      "Ġodpowiada": 2529,
      "ĠwaÅ¼ne": 2530,
      "dra": 2531,
      "ĠLo": 2532,
      "ĠogÅĤo": 2533,
      "Ġwspar": 2534,
      "Ġgwaran": 2535,
      "Ġprzezna": 2536,
      "tur": 2537,
      "Å¼na": 2538,
      "gar": 2539,
      "Ġprostu": 2540,
      "cenie": 2541,
      "Ġczu": 2542,
      "ĠNo": 2543,
      "kÃ³ÅĤ": 2544,
      "Ġklucz": 2545,
      "mnia": 2546,
      "nna": 2547,
      "asi": 2548,
      "Ġkwo": 2549,
      "Ġhttp": 2550,
      "Ġrodzaju": 2551,
      "ĠmyÅĽ": 2552,
      "ĠspeÅĤ": 2553,
      "Ġprzedstawi": 2554,
      "lta": 2555,
      "dach": 2556,
      "ĠzamÃ³wie": 2557,
      "pÄĻ": 2558,
      "lega": 2559,
      "ĠY": 2560,
      "ĠCen": 2561,
      "mii": 2562,
      "ĠcaÅĤkowi": 2563,
      "ownika": 2564,
      "gina": 2565,
      "stÄħpi": 2566,
      "ĠzostaÅĤy": 2567,
      "Ġprawo": 2568,
      "ĠPu": 2569,
      "ĠczÄĻÅĽÄĩ": 2570,
      "ĠcaÅĤy": 2571,
      "niejszych": 2572,
      "Ġfilmy": 2573,
      "Ġzmiany": 2574,
      "ĠPe": 2575,
      "Ġnor": 2576,
      "ĠÅĽrodowi": 2577,
      "towaÄĩ": 2578,
      "Ġtys": 2579,
      "Ġindywidu": 2580,
      "ĠCe": 2581,
      "Ġwszel": 2582,
      "ĠwartoÅĽci": 2583,
      "lony": 2584,
      "szczy": 2585,
      "Ġkonkur": 2586,
      "us": 2587,
      "ĠpracÄĻ": 2588,
      "Ġwymia": 2589,
      "okie": 2590,
      "wany": 2591,
      "Ġodby": 2592,
      "ple": 2593,
      "ckiego": 2594,
      "Ġkorzy": 2595,
      "Ġryzy": 2596,
      "ros": 2597,
      "niku": 2598,
      "ĠPla": 2599,
      "Da": 2600,
      "mula": 2601,
      "wyczaj": 2602,
      "Ġzy": 2603,
      "Ġfizy": 2604,
      "ksy": 2605,
      "âĢŀ": 2606,
      "Ġkobiety": 2607,
      "Dz": 2608,
      "dzÄĻ": 2609,
      "Ġkomunika": 2610,
      "Ġeko": 2611,
      "CH": 2612,
      "starczy": 2613,
      "lone": 2614,
      "ĠzaÅĤo": 2615,
      "Ġkobiet": 2616,
      "Ġodpowiedzia": 2617,
      "pon": 2618,
      "towi": 2619,
      "mer": 2620,
      "cznoÅĽÄĩ": 2621,
      "Ġdalej": 2622,
      "dzeÅĦ": 2623,
      "pania": 2624,
      "ĠdostÄĻpne": 2625,
      "ĠpieniÄĻ": 2626,
      "towy": 2627,
      "Ġwykony": 2628,
      "ĠII": 2629,
      "row": 2630,
      "gniÄĻ": 2631,
      "duka": 2632,
      "Ġbudow": 2633,
      "Ġkomenta": 2634,
      "dzone": 2635,
      "ĠdotyczÄħce": 2636,
      "Mi": 2637,
      "Ġbezpo": 2638,
      "OL": 2639,
      "ĠRy": 2640,
      "Ġzgodnie": 2641,
      "wz": 2642,
      "ĠnajwaÅ¼": 2643,
      "Ġchcesz": 2644,
      "99": 2645,
      "ĠrÃ³Å¼ne": 2646,
      "ĠchoÄĩ": 2647,
      "wal": 2648,
      "Ġautoma": 2649,
      "Ġtytu": 2650,
      "bio": 2651,
      "KA": 2652,
      "Ġ2019": 2653,
      "25": 2654,
      "ĠwybraÄĩ": 2655,
      "Ġpotwier": 2656,
      "Ġrzecz": 2657,
      "laz": 2658,
      "piera": 2659,
      "Ġpomocy": 2660,
      "lina": 2661,
      "przy": 2662,
      "ĠCiebie": 2663,
      "Ġdrew": 2664,
      "Ġkos": 2665,
      "gry": 2666,
      "krai": 2667,
      "Ġutrzyma": 2668,
      "Ġcodzien": 2669,
      "ĠPar": 2670,
      "Ġminut": 2671,
      "ts": 2672,
      "Ġprzygotowa": 2673,
      "Ġtek": 2674,
      "syw": 2675,
      "ÄħdÅº": 2676,
      "ĠroÅĽli": 2677,
      "sowe": 2678,
      "jny": 2679,
      "ministra": 2680,
      "Ġdziecka": 2681,
      "cieli": 2682,
      "dowy": 2683,
      "dowaÄĩ": 2684,
      "tyki": 2685,
      "Ġsex": 2686,
      "23": 2687,
      "Ġwtedy": 2688,
      "niesie": 2689,
      "ĠniezbÄĻ": 2690,
      "Ġtempera": 2691,
      "trza": 2692,
      "para": 2693,
      "ortu": 2694,
      "iÄħ": 2695,
      "umer": 2696,
      "mal": 2697,
      "Ġdarmowe": 2698,
      "Ġnapisa": 2699,
      "ĠskÅĤadni": 2700,
      "rum": 2701,
      "Ġfirma": 2702,
      "prezen": 2703,
      "cyjnego": 2704,
      "sÅĤaw": 2705,
      "Ġkatego": 2706,
      "Ġuzna": 2707,
      "Ġpodkre": 2708,
      "ĠTu": 2709,
      "ĠsprzedaÅ¼y": 2710,
      "czonych": 2711,
      "piero": 2712,
      "cyjnej": 2713,
      "Ġile": 2714,
      "ĠduÅ¼e": 2715,
      "Ġnierucho": 2716,
      "Ġrzeczy": 2717,
      "Ġznajdziesz": 2718,
      "ĠÅĽwiÄĻ": 2719,
      "iÄĻcej": 2720,
      "ĠwÅĽrÃ³d": 2721,
      "ujÄħ": 2722,
      "owiem": 2723,
      "pas": 2724,
      "mail": 2725,
      "niwer": 2726,
      "Ġ+": 2727,
      "Ġat": 2728,
      "ujesz": 2729,
      "siaj": 2730,
      "ĠSpo": 2731,
      "nny": 2732,
      "ĠPozna": 2733,
      "nione": 2734,
      "Ġwra": 2735,
      "Ġtwa": 2736,
      "Sz": 2737,
      "Ġeta": 2738,
      "ĠOr": 2739,
      "ĠnajwyÅ¼": 2740,
      "gÃ³w": 2741,
      "Ġproduk": 2742,
      "AM": 2743,
      "Li": 2744,
      "ĠNe": 2745,
      "Ġmln": 2746,
      "dli": 2747,
      "Ġowo": 2748,
      "rÃ³j": 2749,
      "Å¼ka": 2750,
      "gne": 2751,
      "dowanie": 2752,
      "ÅĤowy": 2753,
      "ĠDlatego": 2754,
      "Ġsub": 2755,
      "wienia": 2756,
      "Ġzim": 2757,
      "Ġprzyzna": 2758,
      "siÅĤ": 2759,
      "Ġwrze": 2760,
      "Ġwyna": 2761,
      "Ġokoli": 2762,
      "Ãĵ": 2763,
      "Ce": 2764,
      "Ġlatach": 2765,
      "ton": 2766,
      "Ġlepiej": 2767,
      "Ġniepo": 2768,
      "Ġsposob": 2769,
      "widÅĤ": 2770,
      "zujÄħ": 2771,
      "LN": 2772,
      "pla": 2773,
      "ĠPrzed": 2774,
      "Ġas": 2775,
      "dami": 2776,
      "Ġzabezpie": 2777,
      "Ta": 2778,
      "ĠuwaÅ¼a": 2779,
      "Ġdwu": 2780,
      "Ġsamym": 2781,
      "Ġseks": 2782,
      "nÄħÅĤ": 2783,
      "Ġprodukt": 2784,
      "\",": 2785,
      "Ġelektry": 2786,
      "ĠmiaÅĤa": 2787,
      "ckie": 2788,
      "Ġatrak": 2789,
      "Ġdaw": 2790,
      "ĠoglÄħ": 2791,
      "01": 2792,
      "Ġ22": 2793,
      "styczne": 2794,
      "stry": 2795,
      "Ġeg": 2796,
      "ĠHa": 2797,
      "cego": 2798,
      "szyscy": 2799,
      "Ġobja": 2800,
      "ĠwspÃ³l": 2801,
      "Ġdoj": 2802,
      "ĠbezpÅĤat": 2803,
      "bierz": 2804,
      "Ġ2021": 2805,
      "ĠumiejÄĻ": 2806,
      "ĠSzcze": 2807,
      "Ġpok": 2808,
      "Ġnr": 2809,
      "ĠSpraw": 2810,
      "togra": 2811,
      "fia": 2812,
      "czÄĻÅĽciej": 2813,
      "Ġfilm": 2814,
      "ĠpÃ³Åºniej": 2815,
      "dna": 2816,
      "zio": 2817,
      "tna": 2818,
      "czona": 2819,
      "pier": 2820,
      "Ġ40": 2821,
      "ĠspÃ³ÅĤ": 2822,
      "Ġpojawi": 2823,
      "ĠGdy": 2824,
      "ctwo": 2825,
      "Ġobraz": 2826,
      "Ġosobi": 2827,
      "ÅĦskiej": 2828,
      "Ġmasa": 2829,
      "Ġmarki": 2830,
      "Ġpodstawie": 2831,
      "bym": 2832,
      "Ġodpowiednie": 2833,
      "ĠczÅĤo": 2834,
      "Ġ2018": 2835,
      "ĠPR": 2836,
      "Ġprodukcji": 2837,
      "alny": 2838,
      "Ġceny": 2839,
      "cami": 2840,
      "Ġzbyt": 2841,
      "Ġzrobi": 2842,
      "rÃ³ciÄĩ": 2843,
      "Ġrejestra": 2844,
      "Ġkrwi": 2845,
      "rzeÅĦ": 2846,
      "tkÃ³w": 2847,
      "Ġ21": 2848,
      "lepiej": 2849,
      "Ġprzetwarza": 2850,
      "ĠWarto": 2851,
      "Ġogro": 2852,
      "Ġpowa": 2853,
      "ciÄħga": 2854,
      "ĠBez": 2855,
      "Ġjedynie": 2856,
      "podob": 2857,
      "Ġdokona": 2858,
      "rÃ³t": 2859,
      "Ġnoc": 2860,
      "ĠkaÅ¼dej": 2861,
      "Ġinsta": 2862,
      "Ġdia": 2863,
      "Ġterenie": 2864,
      "dostÄĻp": 2865,
      "ĠszczegÃ³lnie": 2866,
      "jÄĻÄĩ": 2867,
      "cem": 2868,
      "Ġmaszy": 2869,
      "Ġrozwoju": 2870,
      "ĠSer": 2871,
      "Ġwysy": 2872,
      "ĠurzÄħdzenia": 2873,
      "jekt": 2874,
      "ĠâĢľ": 2875,
      "Ġtrafi": 2876,
      "Ġumowy": 2877,
      "syj": 2878,
      "ĠJo": 2879,
      "Ġobu": 2880,
      "ket": 2881,
      "Ġrazie": 2882,
      "Ġopu": 2883,
      "Roz": 2884,
      "ĠzarzÄħdza": 2885,
      "ĠmÃ³gÅĤ": 2886,
      "Ġpewno": 2887,
      "ĠmÄĻÅ¼czyz": 2888,
      "ll": 2889,
      "raj": 2890,
      "sÅĤo": 2891,
      "rÃ³ci": 2892,
      "Ġan": 2893,
      "yba": 2894,
      "ĠporÃ³w": 2895,
      "Ġstand": 2896,
      "Ġpowinien": 2897,
      "www": 2898,
      "Ġadres": 2899,
      "Ġoczy": 2900,
      "Ġnowy": 2901,
      "Ġdwie": 2902,
      "Ġak": 2903,
      "leÅĦ": 2904,
      "Ġkonkre": 2905,
      "Ġznajo": 2906,
      "Ġanty": 2907,
      "obec": 2908,
      "Ġakce": 2909,
      "Ġforma": 2910,
      "piÄĻ": 2911,
      "at": 2912,
      "ĠÅĤatwo": 2913,
      "Ġcen": 2914,
      "dzeniu": 2915,
      "Ġnatomiast": 2916,
      "Ġkomfor": 2917,
      "Ġdarmo": 2918,
      "Å¼ne": 2919,
      "budowa": 2920,
      "dziaÅĤu": 2921,
      "Ġregi": 2922,
      "stoÅĽci": 2923,
      "zumie": 2924,
      "trÃ³w": 2925,
      "Ġsukce": 2926,
      "wyciÄĻ": 2927,
      "Ġkana": 2928,
      "kÅĤadu": 2929,
      "mencie": 2930,
      "Ġkm": 2931,
      "Ġnajlepsze": 2932,
      "Ġpomie": 2933,
      "Ġudzie": 2934,
      "narod": 2935,
      "ger": 2936,
      "Ġzmniej": 2937,
      "asa": 2938,
      "Ġcookie": 2939,
      "Ġpierwsze": 2940,
      "ower": 2941,
      "cyjna": 2942,
      "mos": 2943,
      "ownicy": 2944,
      "Ġrela": 2945,
      "Ġprzyjem": 2946,
      "kowego": 2947,
      "Ġemo": 2948,
      "ĠÅĽmier": 2949,
      "dny": 2950,
      "lami": 2951,
      "ĠchcÄħ": 2952,
      "ĠwybÃ³r": 2953,
      "chowy": 2954,
      "Ġpowierzchni": 2955,
      "TA": 2956,
      "daj": 2957,
      "danie": 2958,
      "ĠFran": 2959,
      "ĠpracownikÃ³w": 2960,
      "Ġrazy": 2961,
      "ĠstronÄĻ": 2962,
      "Ġjednej": 2963,
      "bry": 2964,
      "Ġzaczyna": 2965,
      "Ġtransp": 2966,
      "ĠHi": 2967,
      "ciaÅ¼": 2968,
      "Ġzakup": 2969,
      "Ġprzedmio": 2970,
      "ownik": 2971,
      "torÃ³w": 2972,
      "ĠpoÅ¼yczki": 2973,
      "Ġpoleca": 2974,
      "dziaÅĤa": 2975,
      "Ġrobo": 2976,
      "Ġprak": 2977,
      "Ġjestem": 2978,
      "sen": 2979,
      "Åºdzier": 2980,
      "Ġkolor": 2981,
      "ĠÅĽcia": 2982,
      "ĠThe": 2983,
      "ĠpomÃ³": 2984,
      "kÅĤadnie": 2985,
      "stw": 2986,
      "Ch": 2987,
      "Ġwynosi": 2988,
      "Ġdobra": 2989,
      "pisu": 2990,
      "Ġab": 2991,
      "szczenia": 2992,
      "âĢ¢": 2993,
      "Ġkontakt": 2994,
      "Ġobecnie": 2995,
      "ĠWiel": 2996,
      "Ġ2017": 2997,
      "ĠpowiedziaÅĤ": 2998,
      "alnych": 2999,
      "Ġklienta": 3000,
      "Ġdoty": 3001,
      "nce": 3002,
      "ĠsobÄħ": 3003,
      "glÄħd": 3004,
      "ĠÄĩ": 3005,
      "Ġwej": 3006,
      "ĠwyÅĽwiet": 3007,
      "Ġwypad": 3008,
      "wej": 3009,
      "unda": 3010,
      "miny": 3011,
      "Ġprawie": 3012,
      "rzej": 3013,
      "ĠciaÅĤa": 3014,
      "Ġdowie": 3015,
      "Ġoczeki": 3016,
      "Ġimpre": 3017,
      "Ġznacznie": 3018,
      "ĠgÃ³r": 3019,
      "Ġhaz": 3020,
      "Ġokaza": 3021,
      "ria": 3022,
      "Ġen": 3023,
      "Ġzatru": 3024,
      "Ġrozwija": 3025,
      "ĠzwiÄħzane": 3026,
      "Ġtygod": 3027,
      "ÅĽwiÄĻ": 3028,
      "wym": 3029,
      "ĠbezpieczeÅĦstwa": 3030,
      "Ġtrans": 3031,
      "ĠRu": 3032,
      "rygina": 3033,
      "ĠpoÅĤo": 3034,
      "niÅ¼ej": 3035,
      "Ġtow": 3036,
      "Ġkoro": 3037,
      "ĠKaÅ¼": 3038,
      "Ġpisa": 3039,
      "Ġkuch": 3040,
      "dopodob": 3041,
      "kniÄĻ": 3042,
      "cjami": 3043,
      "Ġnasz": 3044,
      "ĠtrochÄĻ": 3045,
      "owaÅĤa": 3046,
      "Ġtry": 3047,
      "mbo": 3048,
      "zÄĻ": 3049,
      "ium": 3050,
      "ĠcaÅĤej": 3051,
      "ĠMia": 3052,
      "ED": 3053,
      "Ġuczni": 3054,
      "lowe": 3055,
      "ÄĦ": 3056,
      "40": 3057,
      "Ġwideo": 3058,
      "ciej": 3059,
      "ĠktoÅĽ": 3060,
      "lona": 3061,
      "Dla": 3062,
      "ĠrozpoczÄĻ": 3063,
      "ĠnastÄĻpnie": 3064,
      "nomi": 3065,
      "Ġprogram": 3066,
      "Ġzak": 3067,
      "lii": 3068,
      "ĠksiÄĻ": 3069,
      "Ġdrugi": 3070,
      "stki": 3071,
      "pach": 3072,
      "Ġkan": 3073,
      "ĠpostÄĻp": 3074,
      "ĠjednÄħ": 3075,
      "owiÄħza": 3076,
      "Ġprojektu": 3077,
      "Ġkwa": 3078,
      "ĠpielÄĻ": 3079,
      "Ġstycz": 3080,
      "resz": 3081,
      "Ġmaja": 3082,
      "Ġboga": 3083,
      "Ġdostos": 3084,
      "Ġ60": 3085,
      "ĠdoÅĽÄĩ": 3086,
      "rÃ³cz": 3087,
      "ĠwyÅ¼": 3088,
      "ĠÅĽrodkÃ³w": 3089,
      "myÅĽ": 3090,
      "Ġsen": 3091,
      "ĠchÄĻ": 3092,
      "Ġlisto": 3093,
      "ĠpiÄħ": 3094,
      "ol": 3095,
      "iÄĩ": 3096,
      "Ġwizy": 3097,
      "Ġprzypo": 3098,
      "Ġprezyden": 3099,
      "ĠgoÅĽci": 3100,
      "Ġkolo": 3101,
      "ĠpaÅºdzier": 3102,
      "wego": 3103,
      "Ġniezwykle": 3104,
      "Ġgodz": 3105,
      "ĠuÅ¼ywa": 3106,
      "ĠdruÅ¼y": 3107,
      "Ġ2022": 3108,
      "Ġbla": 3109,
      "owski": 3110,
      "sc": 3111,
      "Ġnadal": 3112,
      "ĠÂ»": 3113,
      "czeniem": 3114,
      "Ġhistorii": 3115,
      "ÅĤaszcza": 3116,
      "Ġjednego": 3117,
      "gÃ³": 3118,
      "Ġpoziom": 3119,
      "ID": 3120,
      "lon": 3121,
      "nikiem": 3122,
      "jecha": 3123,
      "Ġpropozy": 3124,
      "Ġzwro": 3125,
      "Ġwyk": 3126,
      "Ġzawodni": 3127,
      "Ġtelewi": 3128,
      "Ġ2016": 3129,
      "Ġwybiera": 3130,
      "ĠMini": 3131,
      "60": 3132,
      "90": 3133,
      "Ġdepozy": 3134,
      "Ġstara": 3135,
      "ĠjakoÅĽÄĩ": 3136,
      "Ġwysokiej": 3137,
      "zje": 3138,
      "Ġserwis": 3139,
      "Ġnauczy": 3140,
      "Ġcentrum": 3141,
      "Ġwil": 3142,
      "szech": 3143,
      "Ġpostaci": 3144,
      "ĠzgÅĤo": 3145,
      "ĠopÅĤa": 3146,
      "tkÄĻ": 3147,
      "Ġgodziny": 3148,
      "Ġstron": 3149,
      "ĠtreÅĽci": 3150,
      "Ġnigdy": 3151,
      "Ġludzie": 3152,
      "Ġfe": 3153,
      "kowaÄĩ": 3154,
      "dnoÅĽci": 3155,
      "ĠnieruchomoÅĽci": 3156,
      "strzy": 3157,
      "ĠjednoczeÅĽnie": 3158,
      "ĠBra": 3159,
      "woÅĤa": 3160,
      "spi": 3161,
      "chÃ³d": 3162,
      "Ġpowy": 3163,
      "tw": 3164,
      "wek": 3165,
      "ÅĽciach": 3166,
      "Ġpierwszej": 3167,
      "gazy": 3168,
      "ĠCiÄĻ": 3169,
      "mujÄħ": 3170,
      "Ġart": 3171,
      "tam": 3172,
      "Ð¸": 3173,
      "Ġbru": 3174,
      "kowej": 3175,
      "pisz": 3176,
      "Ġnu": 3177,
      "ĠBia": 3178,
      "Ġnajnow": 3179,
      "mieni": 3180,
      "Ġwyj": 3181,
      "ĠWrocÅĤa": 3182,
      "nawi": 3183,
      "ĠspÄĻ": 3184,
      "cym": 3185,
      "ĠPio": 3186,
      "meryka": 3187,
      "Å¼noÅĽci": 3188,
      "gaÅ¼": 3189,
      "Ġis": 3190,
      "Ġl": 3191,
      "szÅĤo": 3192,
      "ning": 3193,
      "pienia": 3194,
      "ĠÅĤazie": 3195,
      "sÅĤy": 3196,
      "dam": 3197,
      "nadto": 3198,
      "nnych": 3199,
      "ĠSt": 3200,
      "Ġkwest": 3201,
      "tencja": 3202,
      "ĠEuropej": 3203,
      "ĠpodrÃ³Å¼": 3204,
      "Ġdrugiej": 3205,
      "bliÅ¼": 3206,
      "ted": 3207,
      "ĠDar": 3208,
      "Ġsier": 3209,
      "ĠmoÅ¼liwe": 3210,
      "ciÄħÅ¼": 3211,
      "zw": 3212,
      "Ġgrupy": 3213,
      "ierw": 3214,
      "Ġkraj": 3215,
      "Ġ23": 3216,
      "ĠSto": 3217,
      "ĠÅĤÃ³": 3218,
      "Ġzmienia": 3219,
      "Ġosoba": 3220,
      "ft": 3221,
      "Ġczemu": 3222,
      "ĠRze": 3223,
      "wnÄħ": 3224,
      "ĠbezpoÅĽredni": 3225,
      "Ġdrz": 3226,
      "Ġwarunki": 3227,
      "Ġsystemu": 3228,
      "ĠnastÄĻpu": 3229,
      "grywa": 3230,
      "ĠÅĽredni": 3231,
      "Ġdaje": 3232,
      "Ġreprezen": 3233,
      "racji": 3234,
      "ĠdziaÅĤalnoÅĽci": 3235,
      "Ġbowiem": 3236,
      "Ġkoniec": 3237,
      "ach": 3238,
      "Ġero": 3239,
      "zuje": 3240,
      "ĠjesteÅĽ": 3241,
      "Ġdziedzi": 3242,
      "Ġnadzie": 3243,
      "ĊĊ": 3244,
      "ĠpieniÄĻdzy": 3245,
      "Ġpotrafi": 3246,
      "sami": 3247,
      "ĠJeÅ¼eli": 3248,
      "zjÄĻ": 3249,
      "ĠAby": 3250,
      "ĠumoÅ¼liwia": 3251,
      "ks": 3252,
      "Ġrzeczywi": 3253,
      "Ġpozytyw": 3254,
      "Ġkasyna": 3255,
      "aru": 3256,
      "Ty": 3257,
      "Ġunika": 3258,
      "lowa": 3259,
      "Ġproces": 3260,
      "bro": 3261,
      "Ġ#": 3262,
      "trum": 3263,
      "lkoho": 3264,
      "Ġtrakcie": 3265,
      "Ġstwier": 3266,
      "ĠSzy": 3267,
      "rych": 3268,
      "Ġmobi": 3269,
      "Ġenergii": 3270,
      "Ġpoziomie": 3271,
      "rzÄħdu": 3272,
      "Ġkwiet": 3273,
      "Ġsprawia": 3274,
      "Ġbadania": 3275,
      "infor": 3276,
      "Ġtar": 3277,
      "OS": 3278,
      "ĠpomÃ³c": 3279,
      "ĠwpÅĤyw": 3280,
      "ĠdokÅĤadnie": 3281,
      "Ġtyle": 3282,
      "Ġzao": 3283,
      "ÑĤ": 3284,
      "ĠGe": 3285,
      "kujemy": 3286,
      "ĠwyÅĤÄħcznie": 3287,
      "Ġodda": 3288,
      "Ġfan": 3289,
      "undu": 3290,
      "mon": 3291,
      "Ġautor": 3292,
      "gÅĤa": 3293,
      "onÃ³w": 3294,
      "Ġnumer": 3295,
      "ĠpeÅĤni": 3296,
      "Ġopar": 3297,
      "ckiej": 3298,
      "ĠkÄħ": 3299,
      "Ġcharaktery": 3300,
      "Ġmusisz": 3301,
      "Ġfunkcjona": 3302,
      "Ġdziecko": 3303,
      "ĠÅºrÃ³d": 3304,
      "ÅĦskie": 3305,
      "ĠcaÅĤym": 3306,
      "les": 3307,
      "ĠðŁ": 3308,
      "Ġspotkania": 3309,
      "Ġkosme": 3310,
      "Ġdal": 3311,
      "Ġgu": 3312,
      "Ġnieco": 3313,
      "Ġbrak": 3314,
      "ĠwysokoÅĽci": 3315,
      "Ġnajmniej": 3316,
      "zyj": 3317,
      "Ġubezpie": 3318,
      "nawia": 3319,
      "ĠPan": 3320,
      "Sta": 3321,
      "ĠbÄħdÅº": 3322,
      "leni": 3323,
      "lus": 3324,
      "Ġang": 3325,
      "mont": 3326,
      "lor": 3327,
      "Ġuszko": 3328,
      "ĠwystÄĻpu": 3329,
      "Ġeduka": 3330,
      "nim": 3331,
      "ĠpewnoÅĽciÄħ": 3332,
      "letni": 3333,
      "Ġlip": 3334,
      "ĠzaleÅ¼y": 3335,
      "Ġgodzin": 3336,
      "Ġchwili": 3337,
      "ĠuzyskaÄĩ": 3338,
      "Ġnowego": 3339,
      "Ġtury": 3340,
      "ĠÅ¼yciu": 3341,
      "Å¼d": 3342,
      "bÄħ": 3343,
      "Ġnale": 3344,
      "gia": 3345,
      "Ġodpor": 3346,
      "Ġkonstru": 3347,
      "ĠmiesiÄĻcy": 3348,
      "Kon": 3349,
      "dzeniem": 3350,
      "Ġdostaw": 3351,
      "ĠMy": 3352,
      "Ã©": 3353,
      "cena": 3354,
      "Ġust": 3355,
      "grze": 3356,
      "ĠszczegÃ³l": 3357,
      "giem": 3358,
      "ĠzaÅĽ": 3359,
      "ĠgÅĤÄĻ": 3360,
      "ĠmuszÄħ": 3361,
      "gn": 3362,
      "kowanie": 3363,
      "nos": 3364,
      "nica": 3365,
      "Ġustawy": 3366,
      "Ġregular": 3367,
      "organi": 3368,
      "Ġplat": 3369,
      "Ġorygina": 3370,
      "nin": 3371,
      "gÃ³l": 3372,
      "Ġmedia": 3373,
      "ron": 3374,
      "Ġwskaza": 3375,
      "Ġinfor": 3376,
      "Ġniedzie": 3377,
      "Ġbio": 3378,
      "Ġefe": 3379,
      "ĠNiem": 3380,
      "Ġzabu": 3381,
      "ĠSi": 3382,
      "Ġkierow": 3383,
      "Ġspowo": 3384,
      "wski": 3385,
      "Ġgrze": 3386,
      "Ġpotrzeby": 3387,
      "mart": 3388,
      "ĠSzko": 3389,
      "ĠskÃ³r": 3390,
      "Ġpytanie": 3391,
      "cin": 3392,
      "orÄħ": 3393,
      "ĠzostaÄĩ": 3394,
      "Ġprogramu": 3395,
      "Ġinterne": 3396,
      "Ġzni": 3397,
      "jach": 3398,
      "dzieÅ¼": 3399,
      "ĠWarszawie": 3400,
      "Ġprowadzi": 3401,
      "Ġwygod": 3402,
      "ĠwypeÅĤ": 3403,
      "ĠkoÅĦca": 3404,
      "ĠwÅĤosÃ³w": 3405,
      "ĠÄĩwi": 3406,
      "Ġjas": 3407,
      "Ġhote": 3408,
      "Ġwyro": 3409,
      "Ġtakim": 3410,
      "Ġopro": 3411,
      "Ġnajlepiej": 3412,
      "niony": 3413,
      "Ġpotencja": 3414,
      "Ġpowia": 3415,
      "Ġmm": 3416,
      "Ġpojaz": 3417,
      "Ġproduce": 3418,
      "ĠzwyciÄĻ": 3419,
      "ĠwnÄĻ": 3420,
      "zm": 3421,
      "Ġzawod": 3422,
      "Ġgraczy": 3423,
      "zywa": 3424,
      "ogle": 3425,
      "wienie": 3426,
      "Ġmecha": 3427,
      "Ġkolejne": 3428,
      "Ġstrate": 3429,
      "ĠprÃ³b": 3430,
      "OM": 3431,
      "kÅĤady": 3432,
      "ĠwrzeÅĽnia": 3433,
      "ĠzewnÄĻtrz": 3434,
      "ĠGru": 3435,
      "ĠFe": 3436,
      "Ġczwar": 3437,
      "cieÅ¼": 3438,
      "zacji": 3439,
      "bÃ³w": 3440,
      "Ġrealizacji": 3441,
      "ĠspoÅ¼y": 3442,
      "Au": 3443,
      "Ġmagazy": 3444,
      "kowania": 3445,
      "Ġczyta": 3446,
      "Ġpowinna": 3447,
      "rzem": 3448,
      "Ġdopas": 3449,
      "Ġstru": 3450,
      "zÃ³w": 3451,
      "ĠFor": 3452,
      "Ġinteresu": 3453,
      "Ġfran": 3454,
      "Ġtema": 3455,
      "ĠWarszawa": 3456,
      "niami": 3457,
      "kazuje": 3458,
      "Ġzagro": 3459,
      "Ġokazji": 3460,
      "tow": 3461,
      "Ġdniu": 3462,
      "Ġpoka": 3463,
      "ĠnaszÄħ": 3464,
      "Ġpoinfor": 3465,
      "ĠzakÅĤad": 3466,
      "ĠsÅĤa": 3467,
      "gnÄħÄĩ": 3468,
      "Ġrandki": 3469,
      "NA": 3470,
      "Ġtera": 3471,
      "Ġskar": 3472,
      "Ġchyba": 3473,
      "ĠsÅĤy": 3474,
      "Ġ:)": 3475,
      "Ġwitry": 3476,
      "ÅĦstw": 3477,
      "ĠbÄĻdziesz": 3478,
      "Ġzaraz": 3479,
      "xa": 3480,
      "ĠÅ¼ywo": 3481,
      "Ġinstru": 3482,
      "Ġjedna": 3483,
      "ĠMoÅ¼esz": 3484,
      "ĠNA": 3485,
      "fy": 3486,
      "Le": 3487,
      "ĠTen": 3488,
      "ĠbÅĤÄĻ": 3489,
      "Ġcena": 3490,
      "US": 3491,
      "ĠzÅĤotych": 3492,
      "Ġczerwca": 3493,
      "Ġnajlepszych": 3494,
      "mor": 3495,
      "Ġ?": 3496,
      "Fi": 3497,
      "czkÄĻ": 3498,
      "Ġkasyno": 3499,
      "ĠDob": 3500,
      "tycznej": 3501,
      "lno": 3502,
      "Ġokres": 3503,
      "Ð½": 3504,
      "lety": 3505,
      "Ġinternetowej": 3506,
      "ĠJego": 3507,
      "Ġedy": 3508,
      "niÅĤ": 3509,
      "Ġmarca": 3510,
      "Ġskrzy": 3511,
      "Ġporta": 3512,
      "Zobacz": 3513,
      "Ġwymie": 3514,
      "fina": 3515,
      "Ġlecz": 3516,
      "sach": 3517,
      "Ġrecen": 3518,
      "Ġtakiego": 3519,
      "Ġalkoho": 3520,
      "War": 3521,
      "onie": 3522,
      "stycznych": 3523,
      "ĠOp": 3524,
      "Ġdopiero": 3525,
      "80": 3526,
      "Ġaplikacji": 3527,
      "ĠDy": 3528,
      "ĠnajbliÅ¼": 3529,
      "We": 3530,
      "Ġfar": 3531,
      "ĠiloÅĽÄĩ": 3532,
      "Ġstylu": 3533,
      "Ġodpowiedzi": 3534,
      "RE": 3535,
      "ĠmateriaÅĤÃ³w": 3536,
      "Ġjakim": 3537,
      "ven": 3538,
      "ĠbÄĻdziemy": 3539,
      "Ġproblemy": 3540,
      "Ob": 3541,
      "Ġistnieje": 3542,
      "Ġspoko": 3543,
      "Ġmieszkania": 3544,
      "lacja": 3545,
      "Ġnieu": 3546,
      "Opis": 3547,
      "ĠjÄĻzyka": 3548,
      "ĠUkrai": 3549,
      "ÅĦczy": 3550,
      "ĠkoÅĦcu": 3551,
      "Ġpodzie": 3552,
      "cyjnym": 3553,
      "Ġzauwa": 3554,
      "Ġciep": 3555,
      "Ġponow": 3556,
      "Ġdelika": 3557,
      "ĠkupiÄĩ": 3558,
      "wicz": 3559,
      "ĠszkoÅĤy": 3560,
      "kowie": 3561,
      "Ġnami": 3562,
      "ĠtÅĤuma": 3563,
      "Ġhe": 3564,
      "noc": 3565,
      "ĠuÅ¼ytkownikÃ³w": 3566,
      "Ġarchi": 3567,
      "ĠsÅĤowa": 3568,
      "ĠbranÅ¼y": 3569,
      "Ġoba": 3570,
      "wans": 3571,
      "Ġdba": 3572,
      "ÄĻdzie": 3573,
      "Ġwyz": 3574,
      "Ġwybo": 3575,
      "wnÄħtrz": 3576,
      "ĠogÃ³l": 3577,
      "peÅĤnie": 3578,
      "tkiem": 3579,
      "Ġtrzech": 3580,
      "ban": 3581,
      "Ġinten": 3582,
      "Ġtermi": 3583,
      "sÄħ": 3584,
      "ficja": 3585,
      "Ġpolega": 3586,
      "ĠznajdujÄħ": 3587,
      "ĠZie": 3588,
      "ĠniÄħ": 3589,
      "NI": 3590,
      "ĠjakÄħ": 3591,
      "dania": 3592,
      "ĠprawidÅĤ": 3593,
      "Ġkwia": 3594,
      "ree": 3595,
      "LE": 3596,
      "ĠobsÅĤugi": 3597,
      "ĠwciÄħÅ¼": 3598,
      "ws": 3599,
      "ĠÅ¼ad": 3600,
      "Ġfunkcjon": 3601,
      "ĠumiejÄĻtnoÅĽci": 3602,
      "ĠjeÅ¼eli": 3603,
      "mowi": 3604,
      "Ġzasta": 3605,
      "ĠKar": 3606,
      "ĠuÅĤat": 3607,
      "Ġkategorii": 3608,
      "Ġrodziny": 3609,
      "Ġmogli": 3610,
      "siej": 3611,
      "Ġgrani": 3612,
      "Ġakcji": 3613,
      "ĠBan": 3614,
      "wacji": 3615,
      "Ġprakty": 3616,
      "ĠoczywiÅĽcie": 3617,
      "KI": 3618,
      "tnej": 3619,
      "mple": 3620,
      "Ġgwia": 3621,
      "Ġgi": 3622,
      "Ġwspiera": 3623,
      "Ġkonto": 3624,
      "Ġzagra": 3625,
      "gach": 3626,
      "ĠOn": 3627,
      "Ġpytania": 3628,
      "ÅĽmie": 3629,
      "Ġwykorzysty": 3630,
      "szymi": 3631,
      "Ġwaka": 3632,
      "ĠCentrum": 3633,
      "kowane": 3634,
      "Ġpolskich": 3635,
      "Ġstan": 3636,
      "logia": 3637,
      "Ġwiem": 3638,
      "weÅĤ": 3639,
      "Ġuczestni": 3640,
      "szczenie": 3641,
      "Ġostatnich": 3642,
      "ĠwspÃ³ÅĤpracy": 3643,
      "stawia": 3644,
      "Ġrealiz": 3645,
      "towych": 3646,
      "Ġbudowla": 3647,
      "ĠTV": 3648,
      "ĠwewnÄĻtrz": 3649,
      "ĠBie": 3650,
      "ĠrozwiÄħzania": 3651,
      "Ġcharakter": 3652,
      "ĠKiedy": 3653,
      "ktury": 3654,
      "rusza": 3655,
      "ĠzaleÅ¼noÅĽci": 3656,
      "Ġwww": 3657,
      "ĠpodÅĤo": 3658,
      "Ġsierp": 3659,
      "Ġwobec": 3660,
      "ĠwedÅĤug": 3661,
      "IS": 3662,
      "Ġeksper": 3663,
      "Ġzaa": 3664,
      "Ġspi": 3665,
      "kru": 3666,
      "ĠwyrÃ³Å¼": 3667,
      "tyma": 3668,
      "waniu": 3669,
      "Ġmagne": 3670,
      "tyfika": 3671,
      "Ġdzisiaj": 3672,
      "Ġjazdy": 3673,
      "Ġdoros": 3674,
      "Ġdrzwi": 3675,
      "del": 3676,
      "tyczna": 3677,
      "27": 3678,
      "Ġkasynie": 3679,
      "zes": 3680,
      "Wie": 3681,
      "Ġbiznes": 3682,
      "Ġwszyscy": 3683,
      "ĠmÅĤody": 3684,
      "Ġâ": 3685,
      "ĠÅļwiÄĻ": 3686,
      "ĠgotÃ³w": 3687,
      "Ġzatrzyma": 3688,
      "Ġcookies": 3689,
      "kura": 3690,
      "Ġzabra": 3691,
      "misji": 3692,
      "czym": 3693,
      "Ġwyszuki": 3694,
      "Å¼ona": 3695,
      "Ġtakiej": 3696,
      "Ġznalaz": 3697,
      "ĠodÅ¼y": 3698,
      "Ġwspania": 3699,
      "Ġchi": 3700,
      "miÄĻdzy": 3701,
      "liwoÅĽÄĩ": 3702,
      "ĠsÅĤuÅ¼": 3703,
      "ĠpaÅºdziernika": 3704,
      "Ġ27": 3705,
      "daÅĦ": 3706,
      "Ġlubi": 3707,
      "ĠprÃ³": 3708,
      "staura": 3709,
      "ĠproblemÃ³w": 3710,
      "Ġspotkanie": 3711,
      "Ġzestaw": 3712,
      "zaleÅ¼": 3713,
      "ÑĢ": 3714,
      "Ġmodel": 3715,
      "chÃ³w": 3716,
      "ĠwpÅĤywa": 3717,
      "Ġfotogra": 3718,
      "ĠCza": 3719,
      "owali": 3720,
      "czÄħÄĩ": 3721,
      "Ġkwietnia": 3722,
      "tnego": 3723,
      "ĠCzÄĻ": 3724,
      "bel": 3725,
      "Ġlotni": 3726,
      "Ġpowinny": 3727,
      "ciela": 3728,
      "ĠJan": 3729,
      "ciele": 3730,
      "Ġhazard": 3731,
      "ĠKrzy": 3732,
      "Ġpoje": 3733,
      "Ġvi": 3734,
      "Ġoto": 3735,
      "Ġstycznia": 3736,
      "kaÄĩ": 3737,
      "Ġokresie": 3738,
      "prawa": 3739,
      "ĠjesteÅĽmy": 3740,
      "ĠPie": 3741,
      "Ġtka": 3742,
      "Ġkasyn": 3743,
      "dom": 3744,
      "Ġrozu": 3745,
      "wzglÄĻ": 3746,
      "ksu": 3747,
      "roz": 3748,
      "reje": 3749,
      "ĠwojewÃ³dz": 3750,
      "ĠzwÅĤaszcza": 3751,
      "ĠgdyÅ¼": 3752,
      "Ġchoroby": 3753,
      "ĠÅ¼o": 3754,
      "ĠzostaÅĤo": 3755,
      "Ã³Å¼": 3756,
      "Ġpotem": 3757,
      "Ġsprawdza": 3758,
      "pisÃ³w": 3759,
      "woÅĽci": 3760,
      "Ġmonta": 3761,
      "torem": 3762,
      "Ġzaka": 3763,
      "jÄħÄĩ": 3764,
      "Ġopinie": 3765,
      "Ġsobo": 3766,
      "Ġczasem": 3767,
      "Ġangiel": 3768,
      "zwyczaj": 3769,
      "ĠprzeglÄħ": 3770,
      "ĠDzi": 3771,
      "Ġelektroni": 3772,
      "Ġpopraw": 3773,
      "Ġniewiel": 3774,
      "Ġtur": 3775,
      "rektor": 3776,
      "godni": 3777,
      "Ġprzekona": 3778,
      "rzeÄĩ": 3779,
      "fie": 3780,
      "szki": 3781,
      "Ġsoli": 3782,
      "Ġwydarzenia": 3783,
      "Ġofercie": 3784,
      "ĠskÅĤad": 3785,
      "26": 3786,
      "jedno": 3787,
      "Ġdrze": 3788,
      "ĠiloÅĽci": 3789,
      "ĠmaÅĤo": 3790,
      "Ġpozwoli": 3791,
      "strz": 3792,
      "ĠmieszkaÅĦcÃ³w": 3793,
      "Ġpowinno": 3794,
      "ĠpÅĤatnoÅĽci": 3795,
      "Ġkoncer": 3796,
      "wil": 3797,
      "tycznego": 3798,
      "Ġminu": 3799,
      "Ġlistopada": 3800,
      "ĠpoÅĽredni": 3801,
      "Ġpogo": 3802,
      "ĠspoÅĤecznoÅĽci": 3803,
      "ĠgÅĤÃ³wnie": 3804,
      "ĠszczegÃ³ÅĤ": 3805,
      "mowaÄĩ": 3806,
      "Ġtyp": 3807,
      "ĠdÅº": 3808,
      "ĠHe": 3809,
      "NE": 3810,
      "port": 3811,
      "ĠCze": 3812,
      "Ġobsz": 3813,
      "Ra": 3814,
      "dzony": 3815,
      "ĠporÃ³wna": 3816,
      "miÄħ": 3817,
      "Ġkolejny": 3818,
      "tak": 3819,
      "ĠpodrÃ³": 3820,
      "ksyma": 3821,
      "miÄĻtaj": 3822,
      "45": 3823,
      "czucie": 3824,
      "Ġruchu": 3825,
      "ĠrozwiÄħzanie": 3826,
      "LA": 3827,
      "Ġpierwszym": 3828,
      "Ġzasady": 3829,
      "Ġbudynku": 3830,
      "ĠTwojej": 3831,
      "ĠVi": 3832,
      "wÃ³w": 3833,
      "Ġatmos": 3834,
      "ght": 3835,
      "Ġzapozna": 3836,
      "Å¼yÅĤ": 3837,
      "Ġsklepie": 3838,
      "**": 3839,
      "Ġtaka": 3840,
      "ĠÅ¼adnych": 3841,
      "ĠmogÄĻ": 3842,
      "Ġuli": 3843,
      "ĠpÄĻ": 3844,
      "ase": 3845,
      "ĠsprzedaÅ¼": 3846,
      "CJ": 3847,
      "ĠcaÅĤego": 3848,
      "Ġwoj": 3849,
      "ĠAd": 3850,
      "organiz": 3851,
      "ĠFo": 3852,
      "Ġodci": 3853,
      "Ġbonus": 3854,
      "Ġpokaza": 3855,
      "ĠMoÅ¼na": 3856,
      "ĠskorzystaÄĩ": 3857,
      "nse": 3858,
      "Ġodkry": 3859,
      "Ġpraca": 3860,
      "cebo": 3861,
      "ĠniektÃ³rych": 3862,
      "ĠkrÃ³t": 3863,
      "ĠÅĽmie": 3864,
      "ĠProdu": 3865,
      "Ġkolei": 3866,
      "ÅĦskich": 3867,
      "Ġliczba": 3868,
      "Ġostat": 3869,
      "Ñģ": 3870,
      "ctwem": 3871,
      "Ġzadowo": 3872,
      "czyÅĤa": 3873,
      "ĠÅ»y": 3874,
      "ĠPonadto": 3875,
      "Ġchro": 3876,
      "ĠOfer": 3877,
      "krzy": 3878,
      "Ġosobowych": 3879,
      "ĠczÅĤowieka": 3880,
      "Ġ000": 3881,
      "Ġwielko": 3882,
      "Pra": 3883,
      "ĠokreÅĽlo": 3884,
      "Ġzob": 3885,
      "Ġochrony": 3886,
      "Ġsur": 3887,
      "ĠprÄĻ": 3888,
      "Ġstre": 3889,
      "ĠÅļlÄħ": 3890,
      "Ġsymbo": 3891,
      "Ã³wczas": 3892,
      "Ġhttps": 3893,
      "Ġboha": 3894,
      "siÄĩ": 3895,
      "nal": 3896,
      "ĠTym": 3897,
      "Ġwydaje": 3898,
      "wor": 3899,
      "Ġniemie": 3900,
      "Ġzmian": 3901,
      "ĠzapÅĤa": 3902,
      "ĠpamiÄĻtaÄĩ": 3903,
      "Ġinstytu": 3904,
      "Ġmieszkanie": 3905,
      "Ġgrudnia": 3906,
      "ian": 3907,
      "05": 3908,
      "ĠnajczÄĻÅĽciej": 3909,
      "stka": 3910,
      "Ġelegan": 3911,
      "Ġseksu": 3912,
      "Ġobser": 3913,
      "ĠniezaleÅ¼": 3914,
      "chowa": 3915,
      "id": 3916,
      "Ã³ra": 3917,
      "ĠzespÃ³ÅĤ": 3918,
      "ĠzobaczyÄĩ": 3919,
      "dko": 3920,
      "ĠpoÅĽwiÄĻ": 3921,
      "ĠurzÄħdzeÅĦ": 3922,
      "Ġprzekaza": 3923,
      "Ġ26": 3924,
      "200": 3925,
      "syte": 3926,
      "ĠtwÃ³r": 3927,
      "Ġitp": 3928,
      "Ġleczenia": 3929,
      "Ġdora": 3930,
      "Å¼ek": 3931,
      "licza": 3932,
      "ĠrozwÃ³j": 3933,
      "obra": 3934,
      "Ġczerwo": 3935,
      "krotnie": 3936,
      "Ġ28": 3937,
      "Ġdr": 3938,
      "cznymi": 3939,
      "ĠplikÃ³w": 3940,
      "niwersyte": 3941,
      "ĠSie": 3942,
      "Ġrandkowy": 3943,
      "strzega": 3944,
      "LI": 3945,
      "ĠEx": 3946,
      "Wa": 3947,
      "Ġzatem": 3948,
      "Ġformie": 3949,
      "Ġnimi": 3950,
      "Ġtechnologii": 3951,
      "ĠmÄħ": 3952,
      "bor": 3953,
      "28": 3954,
      "krÄĻ": 3955,
      "ÅĽciÄĩ": 3956,
      "ÅĽcio": 3957,
      "ĠÅĽwiado": 3958,
      "simy": 3959,
      "Ġsiedzi": 3960,
      "rie": 3961,
      "wÅĤa": 3962,
      "Ġnagro": 3963,
      "Ġkobieta": 3964,
      "Ġwarszta": 3965,
      "mowych": 3966,
      "wio": 3967,
      "terze": 3968,
      "ĠodbÄĻ": 3969,
      "Ġtzw": 3970,
      "Ġzle": 3971,
      "ĠmyÅĽli": 3972,
      "Ġuch": 3973,
      "prawy": 3974,
      "Ġpobli": 3975,
      "ĠofertÄĻ": 3976,
      "ckich": 3977,
      "Ġoprac": 3978,
      "ĠbudÅ¼e": 3979,
      "ĠÅĽle": 3980,
      "Ġmeczu": 3981,
      "Ġnar": 3982,
      "ĠWÅĤa": 3983,
      "48": 3984,
      "ĠzachÄĻ": 3985,
      "Ġprzechowy": 3986,
      "Ġzapy": 3987,
      "Ġmarket": 3988,
      "ĠTra": 3989,
      "âĢĶ": 3990,
      "biÃ³r": 3991,
      "Ġdostarcza": 3992,
      "szpa": 3993,
      "nawiru": 3994,
      "mowanie": 3995,
      "Ġnorma": 3996,
      "ĠÅĤy": 3997,
      "Dzie": 3998,
      "ĠzwiÄħzanych": 3999,
      "Ġdocho": 4000,
      "ĠDodatk": 4001,
      "Ġdepozytu": 4002,
      "ĠzdjÄĻcie": 4003,
      "kowany": 4004,
      "Ġefekt": 4005,
      "--": 4006,
      "ĠgorÄħ": 4007,
      "ĠbieÅ¼Äħ": 4008,
      "Ġ2015": 4009,
      "Ġple": 4010,
      "Ġsia": 4011,
      "ĠpomiÄĻdzy": 4012,
      "fii": 4013,
      "Ġbro": 4014,
      "stawy": 4015,
      "irma": 4016,
      "wana": 4017,
      "ĠPO": 4018,
      "alna": 4019,
      "Ġrezer": 4020,
      "stych": 4021,
      "Ġseria": 4022,
      "Ġblisko": 4023,
      "tacja": 4024,
      "Ġwyboru": 4025,
      "Ġhandl": 4026,
      "Ġmomencie": 4027,
      "Ġ500": 4028,
      "Å¼eÅĦ": 4029,
      "Ġserca": 4030,
      "it": 4031,
      "ĠwiadomoÅĽci": 4032,
      "dziÅĤa": 4033,
      "Ġotrzy": 4034,
      "Ġmoni": 4035,
      "mÄħ": 4036,
      "ZE": 4037,
      "lizacjÄĻ": 4038,
      "Ġkontra": 4039,
      "wach": 4040,
      "Ġmaksyma": 4041,
      "kor": 4042,
      "szek": 4043,
      "ĠÅĽrodki": 4044,
      "Ġwycie": 4045,
      "ĠMicha": 4046,
      "ĠKlie": 4047,
      "Ġinnym": 4048,
      "ĠwiÄĻkszoÅĽÄĩ": 4049,
      "ĠdziaÅĤanie": 4050,
      "kier": 4051,
      "Ġnasi": 4052,
      "Ġpsycho": 4053,
      "Ġprofi": 4054,
      "Ġdodatkowe": 4055,
      "Ġprzyda": 4056,
      "piÄħ": 4057,
      "Ġadministra": 4058,
      "ingu": 4059,
      "Ġkuchni": 4060,
      "03": 4061,
      "Ġtworzy": 4062,
      "ĠUSA": 4063,
      "Ġrzu": 4064,
      "ĠAp": 4065,
      "Ġulu": 4066,
      "Ġstrona": 4067,
      "Ġnag": 4068,
      "ĠdoÅĽwiadczenie": 4069,
      "Ġtelefo": 4070,
      "Ġminima": 4071,
      "ĠSprawdÅº": 4072,
      "ĠwypÅĤa": 4073,
      "niom": 4074,
      "Ġ2014": 4075,
      "Ġludz": 4076,
      "ĠÅĽwiÄħ": 4077,
      "noszÄħ": 4078,
      "Ġdyspo": 4079,
      "ĠszczÄĻ": 4080,
      "ĠGoogle": 4081,
      "http": 4082,
      "Ġprzewi": 4083,
      "KO": 4084,
      "ĠoÅĽ": 4085,
      "Ġkomputer": 4086,
      "szedÅĤ": 4087,
      "Ġkart": 4088,
      "ĠzaczÄĻ": 4089,
      "Ġdoskonale": 4090,
      "ĠRob": 4091,
      "Ġkup": 4092,
      "ĠmieÅĽcie": 4093,
      "Ġpojawia": 4094,
      "De": 4095,
      "Ġstuden": 4096,
      "Ġobra": 4097,
      "Ġpremie": 4098,
      "angaÅ¼": 4099,
      "dzieÅĦ": 4100,
      "Ġszans": 4101,
      "ÅĤach": 4102,
      "Ġmikro": 4103,
      "Ġdrodze": 4104,
      "ĠmiÄĻdzynarod": 4105,
      "Ġlipca": 4106,
      "Ġche": 4107,
      "niajÄħ": 4108,
      "Ð¾Ð": 4109,
      "lot": 4110,
      "Ġ80": 4111,
      "Ġwiedzy": 4112,
      "ĠTeraz": 4113,
      "Ġmechani": 4114,
      "Ġorze": 4115,
      "ĠWszystkie": 4116,
      "pii": 4117,
      "Ġpolicja": 4118,
      "ĠzamkniÄĻ": 4119,
      "Ġpomi": 4120,
      "ĠdÅĤuÅ¼": 4121,
      "Ġsamodzie": 4122,
      "WiÄĻcej": 4123,
      "pecja": 4124,
      "pow": 4125,
      "owoÅĽÄĩ": 4126,
      "Ġmiej": 4127,
      "ĠsÅĤucha": 4128,
      "09": 4129,
      "trzeb": 4130,
      "ĠAuto": 4131,
      "ĠzostanÄħ": 4132,
      "ĠÅļwia": 4133,
      "Ġdeko": 4134,
      "ĠcaÅĤkowicie": 4135,
      "Ġniedo": 4136,
      "Ġzmar": 4137,
      "Ġefektyw": 4138,
      "Ġanali": 4139,
      "ote": 4140,
      "Ġkrzy": 4141,
      "Me": 4142,
      "Ġtwarzy": 4143,
      "ckim": 4144,
      "dzieÅ¼y": 4145,
      "ĠKasy": 4146,
      "Ġdzisiej": 4147,
      "Ġdra": 4148,
      "29": 4149,
      "mnie": 4150,
      "jÄħcymi": 4151,
      "Ġzre": 4152,
      "ĠprowadzÄħ": 4153,
      "dyda": 4154,
      "deÅĤ": 4155,
      "Ġmieli": 4156,
      "Ġkomplek": 4157,
      "chow": 4158,
      "ĠdziaÅĤaÅĦ": 4159,
      "Ġgrafi": 4160,
      "mentem": 4161,
      "Ġkata": 4162,
      "Ġprawdopodob": 4163,
      "Ġdlaczego": 4164,
      "Ġobni": 4165,
      "zÅĤ": 4166,
      "ĠWÅĤo": 4167,
      "ĠchciaÅĤ": 4168,
      "dyn": 4169,
      "stÄĻpnie": 4170,
      "ĠwÅĤÄħ": 4171,
      "Ġbyli": 4172,
      "Tak": 4173,
      "norod": 4174,
      "Ġdysku": 4175,
      "tania": 4176,
      "tujÄħ": 4177,
      "IT": 4178,
      "Ġinnego": 4179,
      "Ġrejestracji": 4180,
      "ĠbezpoÅĽrednio": 4181,
      "ĠbadaÅĦ": 4182,
      "tnym": 4183,
      "reb": 4184,
      "Ġwyniki": 4185,
      "Ġcier": 4186,
      "Ġzwykle": 4187,
      "Cena": 4188,
      "ĠmiÅĤo": 4189,
      "Ġinternetowych": 4190,
      "Ġpobra": 4191,
      "styczny": 4192,
      "ĠSP": 4193,
      "Ġwersji": 4194,
      "ĠLubli": 4195,
      "Mar": 4196,
      "__": 4197,
      "jne": 4198,
      "ciÅĤ": 4199,
      "ĠjakiÅĽ": 4200,
      "ĠudaÅĤo": 4201,
      "Ġ199": 4202,
      "tan": 4203,
      "Ġplatfor": 4204,
      "popular": 4205,
      "dnym": 4206,
      "Ġucz": 4207,
      "35": 4208,
      "Ġmecz": 4209,
      "rob": 4210,
      "SP": 4211,
      "ĠtysiÄĻcy": 4212,
      "prawia": 4213,
      "tere": 4214,
      "Ġproste": 4215,
      "Ġautomaty": 4216,
      "pli": 4217,
      "Ġprzedstawia": 4218,
      "ĠksiÄħÅ¼ki": 4219,
      "ĠPLN": 4220,
      "fr": 4221,
      "ĠwiÄħ": 4222,
      "ĠzakÅĤada": 4223,
      "owanej": 4224,
      "Ġzwo": 4225,
      "Å¼ar": 4226,
      "Ġdecyzji": 4227,
      "rezen": 4228,
      "Ġodbywa": 4229,
      "Ġmimo": 4230,
      "Ġubra": 4231,
      "nowie": 4232,
      "Ġwyzna": 4233,
      "ĠkosztÃ³w": 4234,
      "ĠgÅĤowy": 4235,
      "Ze": 4236,
      "ĠpowaÅ¼": 4237,
      "UR": 4238,
      "nel": 4239,
      "blo": 4240,
      "02": 4241,
      "Ġdi": 4242,
      "Ġnieo": 4243,
      "Aby": 4244,
      "cyjnÄħ": 4245,
      "Ġutra": 4246,
      "ĠQ": 4247,
      "erba": 4248,
      "Ġpowinni": 4249,
      "Ġpal": 4250,
      "ĠâĢ¢": 4251,
      "ĠzwiÄĻksza": 4252,
      "ĠwziÄħ": 4253,
      "Ġwystarczy": 4254,
      "ml": 4255,
      "ĠBardzo": 4256,
      "dzonych": 4257,
      "Ġode": 4258,
      "ĠogÃ³": 4259,
      "ĠchociaÅ¼": 4260,
      "Ġprzesy": 4261,
      "Ġstanu": 4262,
      "tanie": 4263,
      "ĠÅĤo": 4264,
      "04": 4265,
      "Ġtable": 4266,
      "toÅĽÄĩ": 4267,
      "Ġprzesz": 4268,
      "ĠzaangaÅ¼": 4269,
      "Å¹": 4270,
      "skiem": 4271,
      "Ġprzewodni": 4272,
      "Ġwykonane": 4273,
      "ĠoszczÄĻ": 4274,
      "AP": 4275,
      "kmach": 4276,
      "Ġposzu": 4277,
      "Ġgenera": 4278,
      "Ġsierpnia": 4279,
      "ĠsprawdziÄĩ": 4280,
      "Ġkonkuren": 4281,
      "Ġlinii": 4282,
      "Ġrestaura": 4283,
      "OT": 4284,
      "ĠzupeÅĤnie": 4285,
      "ĠPoÅ¼y": 4286,
      "Ġzdrowo": 4287,
      "Ġuwagi": 4288,
      "06": 4289,
      "ĠelementÃ³w": 4290,
      "Ġoka": 4291,
      "wska": 4292,
      "Ġnowej": 4293,
      "Ġhy": 4294,
      "Ġorganizacji": 4295,
      "gre": 4296,
      "Åºnie": 4297,
      "story": 4298,
      "up": 4299,
      "Ġposzcze": 4300,
      "Ġwith": 4301,
      "ĠÅĽcie": 4302,
      "tnÄħ": 4303,
      "Ġprzyci": 4304,
      "ĠWin": 4305,
      "Ġmusia": 4306,
      "Ġzabaw": 4307,
      "Ġdodatkowo": 4308,
      "mis": 4309,
      "tto": 4310,
      "Ġwprowadza": 4311,
      "ÅĽciami": 4312,
      "dla": 4313,
      "Ġsuper": 4314,
      "Ġjakich": 4315,
      "ĠzapewniÄĩ": 4316,
      "Ġzorganiz": 4317,
      "Ġlutego": 4318,
      "nkiem": 4319,
      "lnia": 4320,
      "Ġkolory": 4321,
      "Ġelementy": 4322,
      "ĠkorzystaÄĩ": 4323,
      "Ġpoinformowa": 4324,
      "ĠNarod": 4325,
      "Ġela": 4326,
      "pek": 4327,
      "dnienia": 4328,
      "Ġwzrost": 4329,
      "ĠudostÄĻp": 4330,
      "Ġdziewczyny": 4331,
      "ĠdokÅĤad": 4332,
      "ĠPow": 4333,
      "Ġina": 4334,
      "Ġ&": 4335,
      "Ġbram": 4336,
      "ĠmÃ³wiÄħ": 4337,
      "Ġcyk": 4338,
      "Ġmor": 4339,
      "tykÃ³w": 4340,
      "Ġcel": 4341,
      "tt": 4342,
      "Ġsklepu": 4343,
      "Ġameryka": 4344,
      "niÅ¼": 4345,
      "Ġinf": 4346,
      "stna": 4347,
      "ĠduÅ¼Äħ": 4348,
      "pki": 4349,
      "ÅĤowi": 4350,
      "ZY": 4351,
      "Ġoficja": 4352,
      "tychmiast": 4353,
      "Ġrado": 4354,
      "Ġsubstan": 4355,
      "Ba": 4356,
      "Ġgar": 4357,
      "wiÄĻcej": 4358,
      "ĠPiS": 4359,
      "Ġinnowa": 4360,
      "07": 4361,
      "ĠdÅĤugi": 4362,
      "Ġintensyw": 4363,
      "Ġdrogi": 4364,
      "czba": 4365,
      "stym": 4366,
      "Ġtelefon": 4367,
      "Ġam": 4368,
      "ĠcaÅĤÄħ": 4369,
      "Ġulicy": 4370,
      "Mie": 4371,
      "ÅĽciu": 4372,
      "ĠponiÅ¼ej": 4373,
      "Ġniemal": 4374,
      "nnego": 4375,
      "Ġwier": 4376,
      "ĠgraÄĩ": 4377,
      "ferencji": 4378,
      "vo": 4379,
      "zacja": 4380,
      "Ġucie": 4381,
      "OP": 4382,
      "Ġyou": 4383,
      "samowi": 4384,
      "kony": 4385,
      "Ġhas": 4386,
      "08": 4387,
      "Ġprzeczy": 4388,
      "Produ": 4389,
      "ĠZobacz": 4390,
      "Ġprzypomina": 4391,
      "cio": 4392,
      "Ġuzu": 4393,
      "ĠkomÃ³r": 4394,
      "logiczne": 4395,
      "Ġraczej": 4396,
      "waÅ¼a": 4397,
      "ĠMieszka": 4398,
      "ĠplacÃ³w": 4399,
      "Ġprote": 4400,
      "ĠgÅĤos": 4401,
      "Ġmeta": 4402,
      "ĠurzÄĻ": 4403,
      "Ġprof": 4404,
      "MA": 4405,
      "Ġkomfort": 4406,
      "Ġstaje": 4407,
      "Ġ29": 4408,
      "rÃ³dÅĤo": 4409,
      "dowe": 4410,
      "Ġdojrza": 4411,
      "ĠksiÄħÅ¼": 4412,
      "Ġkierunku": 4413,
      "Ġmle": 4414,
      "Ġdotyczy": 4415,
      "Ġopowiada": 4416,
      "ĠzÄĻ": 4417,
      "Ġprzys": 4418,
      "Ġzrozumie": 4419,
      "szty": 4420,
      "Ġzazna": 4421,
      "ĠSk": 4422,
      "tnoÅĽÄĩ": 4423,
      "demii": 4424,
      "Ġkoronawiru": 4425,
      "ÅĤoby": 4426,
      "pierw": 4427,
      "waj": 4428,
      "czymy": 4429,
      "Ġkrea": 4430,
      "chem": 4431,
      "Ġsamochodu": 4432,
      "ĠzwrÃ³ciÄĩ": 4433,
      "czeni": 4434,
      "strzo": 4435,
      "Ġpomys": 4436,
      "Ġkoszty": 4437,
      "Å¼onych": 4438,
      "zda": 4439,
      "Ġsamego": 4440,
      "ĠgÅĤÄĻbo": 4441,
      "Ġwin": 4442,
      "guje": 4443,
      "gla": 4444,
      "Ar": 4445,
      "Ġsalo": 4446,
      "ĠciÄħÅ¼y": 4447,
      "terna": 4448,
      "ĠdoÅĤÄħ": 4449,
      "ĠstanowiÄħ": 4450,
      "jazd": 4451,
      "Ġserii": 4452,
      "gda": 4453,
      "dka": 4454,
      "cznik": 4455,
      "Ġagen": 4456,
      "ĠWil": 4457,
      "jaw": 4458,
      "ĠzespoÅĤu": 4459,
      "ĠkrÄĻ": 4460,
      "sona": 4461,
      "CE": 4462,
      "styki": 4463,
      "nice": 4464,
      "Ġponownie": 4465,
      "hat": 4466,
      "Ġpojem": 4467,
      "Ġkarty": 4468,
      "Wszyst": 4469,
      "torzy": 4470,
      "Ġrozumie": 4471,
      "ĠpacjentÃ³w": 4472,
      "Ġkg": 4473,
      "dziaÅĤem": 4474,
      "Bar": 4475,
      "czer": 4476,
      "ĠPani": 4477,
      "ĠszczegÃ³": 4478,
      "ĠbezpieczeÅĦstwo": 4479,
      "ĠdoÅĽwiadczenia": 4480,
      "Ġautobu": 4481,
      "Ġfunkcji": 4482,
      "Go": 4483,
      "ĠwiÄĻkszoÅĽci": 4484,
      "tes": 4485,
      "owanego": 4486,
      "au": 4487,
      "Ġwiecz": 4488,
      "Ġposzuki": 4489,
      "Ġsama": 4490,
      "dowania": 4491,
      "Ġwsparcie": 4492,
      "ĠspoÅĽrÃ³d": 4493,
      "ÄĨ": 4494,
      "tch": 4495,
      "ĠtakÄħ": 4496,
      "nicja": 4497,
      "Ġdow": 4498,
      "ĠprzeglÄħdar": 4499,
      "AD": 4500,
      "turÄĻ": 4501,
      "ĠPiotr": 4502,
      "Ġdiety": 4503,
      "Ġdziw": 4504,
      "ĠEk": 4505,
      "ĠuczniÃ³w": 4506,
      "Ġprace": 4507,
      "Ġprzedszko": 4508,
      "alnym": 4509,
      "jmy": 4510,
      "Ġpokoju": 4511,
      "nieÅĽÄĩ": 4512,
      "ĠrolÄĻ": 4513,
      "Ġgrup": 4514,
      "Ġtrzyma": 4515,
      "Ġinny": 4516,
      "diÃ³w": 4517,
      "rowi": 4518,
      "Ġpoch": 4519,
      "ĠpodkreÅĽla": 4520,
      "strowa": 4521,
      "ujÄħc": 4522,
      "Ġzi": 4523,
      "AK": 4524,
      "Ġinwestycji": 4525,
      "Ġprzestrzeni": 4526,
      "Ġosie": 4527,
      "Ġwytrzyma": 4528,
      "ĠrÃ³Å¼norod": 4529,
      "Ġwypadku": 4530,
      "ĠVe": 4531,
      "waÅĤa": 4532,
      "Ġtwier": 4533,
      "ĠBry": 4534,
      "Ġrozmia": 4535,
      "ĠwartoÅĽÄĩ": 4536,
      "ĠwiedzieÄĩ": 4537,
      "ĠpunktÃ³w": 4538,
      "Ġrower": 4539,
      "ĠRady": 4540,
      "codaw": 4541,
      "sekwen": 4542,
      "Ġstrze": 4543,
      "lizowaÄĩ": 4544,
      "Ġmocno": 4545,
      "Ġpia": 4546,
      "ĠStra": 4547,
      "lania": 4548,
      "Ġpory": 4549,
      "ed": 4550,
      "Ġkonty": 4551,
      "Ġznaczenie": 4552,
      "Ġpostanowi": 4553,
      "Przed": 4554,
      "Ġport": 4555,
      "ĠÅĽw": 4556,
      "ĠpowiedzieÄĩ": 4557,
      "szto": 4558,
      "Ġtrudno": 4559,
      "ĠpoÅĤu": 4560,
      "Ġster": 4561,
      "Ġopowie": 4562,
      "ĠAn": 4563,
      "Ġstabi": 4564,
      "Å¼eniu": 4565,
      "owaÅĦ": 4566,
      "ksztaÅĤ": 4567,
      "ĠPodczas": 4568,
      "towania": 4569,
      "ĠwzglÄĻdem": 4570,
      "ecnie": 4571,
      "ĠmÄĻÅ¼czyzn": 4572,
      "ĠzÅĤa": 4573,
      "kierowa": 4574,
      "Ġupraw": 4575,
      "Ġbiur": 4576,
      "pod": 4577,
      "ĠpielÄĻgna": 4578,
      "Ġzawie": 4579,
      "wentu": 4580,
      "tkami": 4581,
      "Ġstyl": 4582,
      "fli": 4583,
      "liwa": 4584,
      "ĠzwierzÄĻ": 4585,
      "asino": 4586,
      "Ġsprawy": 4587,
      "usza": 4588,
      "sÅĤugi": 4589,
      "ĠpobliÅ¼u": 4590,
      "Ġzara": 4591,
      "czyk": 4592,
      "wanych": 4593,
      "Ġzapobiega": 4594,
      "Åºni": 4595,
      "Ġpio": 4596,
      "ĠToma": 4597,
      "Ġobo": 4598,
      "waÅĤy": 4599,
      "ĠCy": 4600,
      "ĠprzyszÅĤoÅĽci": 4601,
      "Ġpodmio": 4602,
      "nÄĻÅĤa": 4603,
      "Ġserwisu": 4604,
      "cyk": 4605,
      "ĠtÄħ": 4606,
      "Ġkocha": 4607,
      "stwie": 4608,
      "rtu": 4609,
      "ĠniektÃ³re": 4610,
      "ĠwÃ³wczas": 4611,
      "trona": 4612,
      "ÅĦca": 4613,
      "Sa": 4614,
      "Ġoprogram": 4615,
      "Ġolej": 4616,
      "nom": 4617,
      "Ġcer": 4618,
      "Lo": 4619,
      "ĠrzÄħd": 4620,
      "Ġfra": 4621,
      "czem": 4622,
      "Ġpani": 4623,
      "liknij": 4624,
      "Ġofert": 4625,
      "Ġparking": 4626,
      "Ġzagrani": 4627,
      "ĠpodrÃ³Å¼y": 4628,
      "Ġrecep": 4629,
      "Ġpodpisa": 4630,
      "Ġproblemu": 4631,
      "ĠmiejscowoÅĽci": 4632,
      "Ġporo": 4633,
      "Ġenerge": 4634,
      "dzona": 4635,
      "ĠdotyczÄħcych": 4636,
      "ĠmaÅĤ": 4637,
      "ĠuÅ¼ytkownika": 4638,
      "Ġskon": 4639,
      "kujÄħ": 4640,
      "Ġwyniku": 4641,
      "kowym": 4642,
      "ps": 4643,
      "metry": 4644,
      "Ġwas": 4645,
      "ĠChi": 4646,
      "Ġmetody": 4647,
      "Ġtygodniu": 4648,
      "ÅĽliÄĩ": 4649,
      "Ġtransa": 4650,
      "Ġzbior": 4651,
      "towej": 4652,
      "Ġzaleca": 4653,
      "Ġuroczy": 4654,
      "Ġ90": 4655,
      "GO": 4656,
      "ĠPolakÃ³w": 4657,
      "dwie": 4658,
      "cm": 4659,
      "Ġzadba": 4660,
      "mienie": 4661,
      "Ġzja": 4662,
      "turze": 4663,
      "Ġpokry": 4664,
      "ĠKre": 4665,
      "tkÄħ": 4666,
      "sob": 4667,
      "Ġpartner": 4668,
      "Ġczytel": 4669,
      "plo": 4670,
      "end": 4671,
      "ĠwystÄĻp": 4672,
      "ling": 4673,
      "ĠKaÅ¼dy": 4674,
      "36": 4675,
      "Ġole": 4676,
      "ĠzamÃ³wienia": 4677,
      "ĠSte": 4678,
      "alnej": 4679,
      "tychczas": 4680,
      "Ġzdecydowanie": 4681,
      "Ġnatychmiast": 4682,
      "Ġrazu": 4683,
      "rzÄħt": 4684,
      "czyli": 4685,
      "es": 4686,
      "Ġkandyda": 4687,
      "Ġprojek": 4688,
      "Ġdrewnia": 4689,
      "EM": 4690,
      "ĠnadziejÄĻ": 4691,
      "towanie": 4692,
      "Ġszere": 4693,
      "owanym": 4694,
      "xample": 4695,
      "Ġwios": 4696,
      "Ġniebezpie": 4697,
      "Ġrynek": 4698,
      "enty": 4699,
      "wcy": 4700,
      "Ġgatu": 4701,
      "KS": 4702,
      "ĠpaÅĦstwa": 4703,
      "ĠPierw": 4704,
      "ĠUÅ¼y": 4705,
      "By": 4706,
      "Ġzareje": 4707,
      "Ġrozgry": 4708,
      "ĠÅĽci": 4709,
      "Ġmonitor": 4710,
      "mujemy": 4711,
      "Ġokolicy": 4712,
      "Ġwarzy": 4713,
      "Ġoj": 4714,
      "mera": 4715,
      "lki": 4716,
      "Ġ>": 4717,
      "Å¼em": 4718,
      "ĠzdjÄĻÄĩ": 4719,
      "dziel": 4720,
      "Ġzdrowie": 4721,
      "bur": 4722,
      "steÅĽmy": 4723,
      "Ġtwoje": 4724,
      "Ġ70": 4725,
      "kÄħd": 4726,
      "Ġzdecydowa": 4727,
      "Spo": 4728,
      "ĠkorzyÅĽci": 4729,
      "dzanie": 4730,
      "ĠchwilÃ³w": 4731,
      "ĠInterne": 4732,
      "dzin": 4733,
      "wiej": 4734,
      "Ġnikt": 4735,
      "55": 4736,
      "Ġdam": 4737,
      "ĠKul": 4738,
      "ĠwrÄĻ": 4739,
      "ĠwidaÄĩ": 4740,
      "ĠodbÄĻdzie": 4741,
      "Ġtor": 4742,
      "toÅĽci": 4743,
      "Ġkogo": 4744,
      "ĠjakieÅĽ": 4745,
      "chodni": 4746,
      "twÃ³r": 4747,
      "ĠCon": 4748,
      "Data": 4749,
      "szone": 4750,
      "ĠTwÃ³j": 4751,
      "Ġdiagno": 4752,
      "Ġbukmach": 4753,
      "Ġbal": 4754,
      "nte": 4755,
      "Bo": 4756,
      "Ġoptyma": 4757,
      "rego": 4758,
      "Ġzaprasza": 4759,
      "ĠTar": 4760,
      "ĠsprzÄĻt": 4761,
      "ĠwysÅĤa": 4762,
      "ÅĦskim": 4763,
      "gatyw": 4764,
      "tycznym": 4765,
      "ĠUniwersyte": 4766,
      "ĠPoz": 4767,
      "ĠuwzglÄĻ": 4768,
      "Ġspodzie": 4769,
      "kan": 4770,
      "lanie": 4771,
      "dry": 4772,
      "letnie": 4773,
      "ĠmasaÅ¼": 4774,
      "ĠwokÃ³ÅĤ": 4775,
      "Ġkor": 4776,
      "dyna": 4777,
      "Ġzakupu": 4778,
      "Ġliczby": 4779,
      "Ġkampa": 4780,
      "Ġner": 4781,
      "ĠuzupeÅĤ": 4782,
      "Ġrozpozna": 4783,
      "ciÄħg": 4784,
      "Ġunik": 4785,
      "Ġtelefonu": 4786,
      "bili": 4787,
      "Ġformula": 4788,
      "ĠÅģa": 4789,
      "str": 4790,
      "Ġtajem": 4791,
      "ĠwziÄĻ": 4792,
      "ff": 4793,
      "Ġoferta": 4794,
      "our": 4795,
      "ĠDi": 4796,
      "Ġpoziomu": 4797,
      "ĠÅ¼Ã³ÅĤ": 4798,
      ".)": 4799,
      "nujÄħ": 4800,
      "Ġzaufa": 4801,
      "Å¼Äħda": 4802,
      "zem": 4803,
      "ĠEuropy": 4804,
      "ĠpomysÅĤ": 4805,
      "Ġude": 4806,
      "Ġpodatk": 4807,
      "Ġryzyko": 4808,
      "stek": 4809,
      "lec": 4810,
      ".:": 4811,
      "Ġdoprowa": 4812,
      "niejszy": 4813,
      "Ġkolejnych": 4814,
      "ĠwykorzystaÄĩ": 4815,
      "Ġostatnie": 4816,
      "ĠwÄħtp": 4817,
      "Ġtermin": 4818,
      "ĠrobiÄĩ": 4819,
      "Ġjaka": 4820,
      "33": 4821,
      "Ġniesamowi": 4822,
      "ĠWas": 4823,
      "zuka": 4824,
      "Ġkapita": 4825,
      "mato": 4826,
      "Ġpolskiego": 4827,
      "ĠDodatkowo": 4828,
      "koÅĤa": 4829,
      "stname": 4830,
      "Ġnowym": 4831,
      "Ġszczy": 4832,
      "ĠbÃ³": 4833,
      "Ġkonsekwen": 4834,
      "Pol": 4835,
      "Su": 4836,
      "WA": 4837,
      "ĠzobowiÄħza": 4838,
      "example": 4839,
      "Ġata": 4840,
      "ligen": 4841,
      "Ġinaczej": 4842,
      "ĠÅĽrodowiska": 4843,
      "ill": 4844,
      "Ġstopni": 4845,
      "cal": 4846,
      "Ġzasi": 4847,
      "ĠdostÄĻpnych": 4848,
      "ĠsamochodÃ³w": 4849,
      "ÅĽciej": 4850,
      "Ġzazwyczaj": 4851,
      "ĠdoszÅĤo": 4852,
      "ĠCO": 4853,
      "ĠPaÅĦstwa": 4854,
      "ĠskÃ³rÄĻ": 4855,
      "Ġcele": 4856,
      "Ġhipo": 4857,
      "ĠwyglÄħd": 4858,
      "ĠdostÄĻpny": 4859,
      "ĠTrze": 4860,
      "Ġwydaj": 4861,
      "giÄĻ": 4862,
      "Ġcenie": 4863,
      "ĠmiÄĻk": 4864,
      "Ġopinii": 4865,
      "ĠNiestety": 4866,
      "ĠosiÄħgniÄĻ": 4867,
      "towaÅĤ": 4868,
      "Ġpomieszcze": 4869,
      "Ġobli": 4870,
      "fikacji": 4871,
      "Ġniewy": 4872,
      "TY": 4873,
      "Ġzwyk": 4874,
      "Osta": 4875,
      "Ġpowietrza": 4876,
      "Ġopubli": 4877,
      "Ġwypowie": 4878,
      "Ġpocz": 4879,
      "Ġit": 4880,
      "Ġmen": 4881,
      "jek": 4882,
      "Ġwykonania": 4883,
      "Ġzgod": 4884,
      "sÅĤ": 4885,
      "wiÅĤ": 4886,
      "inÄĻ": 4887,
      "Ġinspi": 4888,
      "ĠsprzÄĻtu": 4889,
      "CI": 4890,
      "Ġoni": 4891,
      "ĠniezbÄĻdne": 4892,
      "snÄħ": 4893,
      "ĠwÅĤaÅĽciwoÅĽci": 4894,
      "Ġurucho": 4895,
      "Ġpapie": 4896,
      "Ġtle": 4897,
      "ĠprzecieÅ¼": 4898,
      "ĠokreÅĽla": 4899,
      "nder": 4900,
      "mpi": 4901,
      "decznie": 4902,
      "ĠprzepisÃ³w": 4903,
      "mm": 4904,
      "Ġjakiego": 4905,
      "Ġpracu": 4906,
      "Ġodpowiednio": 4907,
      "finans": 4908,
      "Ġwynagro": 4909,
      "skÃ³w": 4910,
      "ĠKatowi": 4911,
      "dÅĤa": 4912,
      "loty": 4913,
      "Å¼eniem": 4914,
      "Ġportalu": 4915,
      "ĠSza": 4916,
      "Ofer": 4917,
      "gami": 4918,
      "ces": 4919,
      "Ad": 4920,
      "ĠJez": 4921,
      "ÃĵW": 4922,
      "Ġlicen": 4923,
      "Ġprzeciwko": 4924,
      "ĠoÅĽwiet": 4925,
      "ĠdziaÅĤalnoÅĽÄĩ": 4926,
      "najmniej": 4927,
      "Ġnaby": 4928,
      "No": 4929,
      "ĠWszystko": 4930,
      "rodek": 4931,
      "Ġ;": 4932,
      "ĠTi": 4933,
      "Ġtest": 4934,
      "Ġpolskiej": 4935,
      "Ġ35": 4936,
      "Ġweek": 4937,
      "dyt": 4938,
      "owano": 4939,
      "Ġbudowy": 4940,
      "cone": 4941,
      "Ġeuropej": 4942,
      "ĠTwoich": 4943,
      "ĠciÄħg": 4944,
      "Ġprzepisy": 4945,
      "ĠduÅ¼ej": 4946,
      "Ġprocedu": 4947,
      "Bi": 4948,
      "czko": 4949,
      "ĠszczÄĻÅĽcie": 4950,
      "Ġzanie": 4951,
      "Äħb": 4952,
      "skar": 4953,
      "stoÅĽÄĩ": 4954,
      "dki": 4955,
      "ĠobjÄĻ": 4956,
      "Ġtygodni": 4957,
      "Ġmoim": 4958,
      "kiet": 4959,
      "Ġprocent": 4960,
      "Ġnaczy": 4961,
      "Ġzbiera": 4962,
      "Ġobywa": 4963,
      "Ã³z": 4964,
      "Ġdrob": 4965,
      "pekty": 4966,
      "Bu": 4967,
      "ĠsÅĤone": 4968,
      "ĠwÅĤosy": 4969,
      "Ġzmieni": 4970,
      "ĠdorosÅĤych": 4971,
      "rzone": 4972,
      "ÅĤowe": 4973,
      "39": 4974,
      "ĠStu": 4975,
      "wodni": 4976,
      "dle": 4977,
      "Ġsmart": 4978,
      "ds": 4979,
      "styka": 4980,
      "sino": 4981,
      "Ġakcesor": 4982,
      "Ġmocy": 4983,
      "ĠrodzicÃ³w": 4984,
      "Ġnegatyw": 4985,
      "Ġpane": 4986,
      "lowaÄĩ": 4987,
      "chnia": 4988,
      "Ġwyraz": 4989,
      "pres": 4990,
      "stawa": 4991,
      "Ġciem": 4992,
      "ĠHu": 4993,
      "dowych": 4994,
      "ĠpochodzÄħ": 4995,
      "ĠniepeÅĤ": 4996,
      "ĠPor": 4997,
      "tuj": 4998,
      "bija": 4999,
      "Ġdrog": 5000,
      "dnÄħ": 5001,
      "Ġutrzy": 5002,
      "nionych": 5003,
      "ĠtworzÄħ": 5004,
      "Ġwarunkach": 5005,
      "Ġsporo": 5006,
      "Ġfrancu": 5007,
      "Ġciekawe": 5008,
      "EC": 5009,
      "Ġchor": 5010,
      "ya": 5011,
      "ĠTwojego": 5012,
      "ĠpoÅĽrednictwem": 5013,
      "iÄĻdzy": 5014,
      "ĠpiÅĤka": 5015,
      "dÅĤo": 5016,
      "ĠpomoÅ¼e": 5017,
      "padek": 5018,
      "Ġwiadomo": 5019,
      "ĠmiaÅĤy": 5020,
      "ĠÅģo": 5021,
      "Ġzakresu": 5022,
      "Ġmiasto": 5023,
      "nale": 5024,
      "jesz": 5025,
      "mowÄĻ": 5026,
      "Ġreak": 5027,
      "ĠpiÅĤ": 5028,
      "ĠAng": 5029,
      "ĠGdaÅĦ": 5030,
      "Ġjesie": 5031,
      "Ġgrzy": 5032,
      "stej": 5033,
      "ĠCzÄĻsto": 5034,
      "zeum": 5035,
      "ĠukÅĤadu": 5036,
      "pieÅĦ": 5037,
      "Ġaler": 5038,
      "Ġ2013": 5039,
      "EO": 5040,
      "nospraw": 5041,
      "nÃ³": 5042,
      "Ġzabie": 5043,
      "Ġrza": 5044,
      "fikowa": 5045,
      "ĠJakie": 5046,
      "ĠEl": 5047,
      "tas": 5048,
      "ĠCasino": 5049,
      "ekla": 5050,
      "rzeniu": 5051,
      "ĠgrÄĻ": 5052,
      "czÄħÅĤ": 5053,
      "Ġproducenta": 5054,
      "ciÃ³ÅĤ": 5055,
      "bliote": 5056,
      "ĠzwierzÄħt": 5057,
      "ĠpowyÅ¼ej": 5058,
      "niec": 5059,
      "100": 5060,
      "Ġzabawy": 5061,
      "Ġewentu": 5062,
      "Ġdziwki": 5063,
      "ĠGÃ³r": 5064,
      "Ġobsza": 5065,
      "Ġzwraca": 5066,
      "ĠmiÅĤoÅĽci": 5067,
      "ari": 5068,
      "Ġex": 5069,
      "Ã³rze": 5070,
      "Ġkrze": 5071,
      "czyn": 5072,
      "Ġmusimy": 5073,
      "Ni": 5074,
      "ĠdodaÄĩ": 5075,
      "czoraj": 5076,
      "Ġfakt": 5077,
      "Ġstandar": 5078,
      "AL": 5079,
      "Ġczo": 5080,
      "Å¼er": 5081,
      "ĠEuropie": 5082,
      "Ġnowa": 5083,
      "kowski": 5084,
      "ĠprÄħ": 5085,
      "Ġdniach": 5086,
      "ĠOczywiÅĽcie": 5087,
      "ĠwarunkÃ³w": 5088,
      "ĠÅĽmierci": 5089,
      "Ġzbli": 5090,
      "Ġus": 5091,
      "Ġobok": 5092,
      "arta": 5093,
      "Ġsezonie": 5094,
      "Ġkuchen": 5095,
      "Ġstawia": 5096,
      "robi": 5097,
      "Ġkontaktu": 5098,
      "mes": 5099,
      "ĠbÃ³l": 5100,
      "Ġmas": 5101,
      "niÄĻcia": 5102,
      "Ġkal": 5103,
      "kcje": 5104,
      "jnie": 5105,
      "Ġcywi": 5106,
      "ĠrozwiÄħzaÅĦ": 5107,
      "czno": 5108,
      "Ġcza": 5109,
      "ĠwÅĤasne": 5110,
      "ĠIII": 5111,
      "alnego": 5112,
      "legÅĤoÅĽci": 5113,
      "dowane": 5114,
      "ĠnajwaÅ¼niejsze": 5115,
      "ĠUE": 5116,
      "Ġwilgo": 5117,
      "ĠspeÅĤnia": 5118,
      "ĠcÃ³r": 5119,
      "Ġsezon": 5120,
      "ĠwpÅĤa": 5121,
      "ĠKi": 5122,
      "Ġ300": 5123,
      "Ġocenia": 5124,
      "Ġofia": 5125,
      "ĠgÃ³ry": 5126,
      "70": 5127,
      "Ġregula": 5128,
      "Sy": 5129,
      "ĠzajÄĻcia": 5130,
      "Ġwszelkie": 5131,
      "rzyÅĤ": 5132,
      "Ġprzeka": 5133,
      "ĠspÃ³ÅĤki": 5134,
      "ĠwspÃ³ÅĤczes": 5135,
      "Ġpierwszego": 5136,
      "Ġzamiast": 5137,
      "Ġleczenie": 5138,
      "ĠâĢ¦": 5139,
      "ĠFacebo": 5140,
      "Ġskonta": 5141,
      "noÅĽ": 5142,
      "Ġpozycji": 5143,
      "38": 5144,
      "ĠznaczÄħ": 5145,
      "Ġzaprezen": 5146,
      "Ġhistory": 5147,
      "Ġcztery": 5148,
      "ĠÅĽwietnie": 5149,
      "ĠwystÄħ": 5150,
      "Ġzebra": 5151,
      "ĠmÃ³j": 5152,
      "ĠGro": 5153,
      "Ã³g": 5154,
      "Ġnagra": 5155,
      "Ġobejmuje": 5156,
      "ĠSan": 5157,
      "owiec": 5158,
      "Ġcelem": 5159,
      "zÄħ": 5160,
      "Ġgdyby": 5161,
      "kujÄĻ": 5162,
      "teriaÅĤ": 5163,
      "ĠCzar": 5164,
      "Ġzajmuje": 5165,
      "ĠwziÄħÄĩ": 5166,
      "Ġ31": 5167,
      "ĠPaÅĦstwo": 5168,
      "ĠpiÄħtek": 5169,
      "Ġotwo": 5170,
      "Ser": 5171,
      "Ñĥ": 5172,
      "Ġnapo": 5173,
      "ĠIch": 5174,
      "ĠspÅĤa": 5175,
      "szczu": 5176,
      "Ġzaprojekt": 5177,
      "kur": 5178,
      "Ġstosowania": 5179,
      "ĠGry": 5180,
      "ĠmaÅĤych": 5181,
      "rzuca": 5182,
      "Ġprezent": 5183,
      "ĠMinister": 5184,
      "OB": 5185,
      "Ġdziennika": 5186,
      "AS": 5187,
      "Ġgodzinie": 5188,
      "Ġscho": 5189,
      "Ġczasach": 5190,
      "Ġspotyka": 5191,
      "ĠsobotÄĻ": 5192,
      "ĠÅ¼yw": 5193,
      "Ġpokoje": 5194,
      "gÅĤÄĻ": 5195,
      "Ġstandard": 5196,
      "Ġzaawans": 5197,
      "Ġszkolenia": 5198,
      "Ġemery": 5199,
      "ĠmaÅĤe": 5200,
      "Ġur": 5201,
      "szczÄħ": 5202,
      "ĠwykoÅĦ": 5203,
      "Ġwynik": 5204,
      "Ġostate": 5205,
      "ĠsamochÃ³d": 5206,
      "Ġszkla": 5207,
      "ĠÅĽre": 5208,
      "ĠduÅ¼ym": 5209,
      "ĠGÅĤÃ³w": 5210,
      "Ju": 5211,
      "Ġskutecznie": 5212,
      "44": 5213,
      "cro": 5214,
      "nnej": 5215,
      "ĠNau": 5216,
      "his": 5217,
      "Ġdobrej": 5218,
      "ĠFil": 5219,
      "tio": 5220,
      "Ġchcemy": 5221,
      "ami": 5222,
      "Ġ2012": 5223,
      "Kiedy": 5224,
      "ĠczynnoÅĽci": 5225,
      "Ġnasza": 5226,
      "Ġozd": 5227,
      "Ġostro": 5228,
      "Ġporusza": 5229,
      "ÅĤnie": 5230,
      "Ġpobiera": 5231,
      "Ġherba": 5232,
      "Jest": 5233,
      "kimi": 5234,
      "ÅĽle": 5235,
      "ÅĤod": 5236,
      "Ġdzieje": 5237,
      "ĠEle": 5238,
      "ĠmateriaÅĤ": 5239,
      "wro": 5240,
      "ent": 5241,
      "Ġsygna": 5242,
      "dera": 5243,
      "Ġorga": 5244,
      "wolu": 5245,
      "Ġpiersi": 5246,
      "rost": 5247,
      "Ġprawdziwe": 5248,
      "ĠoÅĽwiad": 5249,
      "Ġfry": 5250,
      "ĠOsta": 5251,
      "Tu": 5252,
      "Ġspecjalne": 5253,
      "ĠbÅĤo": 5254,
      "Ġrosyj": 5255,
      "Ġpolski": 5256,
      "dziaÅĤek": 5257,
      "ĠzmieniÄĩ": 5258,
      "OÅļ": 5259,
      "Ġpers": 5260,
      "mac": 5261,
      "lew": 5262,
      "mami": 5263,
      "lob": 5264,
      "ĠSko": 5265,
      "ĠNastÄĻpnie": 5266,
      "Ġnauki": 5267,
      "ĠpozwalajÄħ": 5268,
      "ali": 5269,
      "Ġlekarza": 5270,
      "armo": 5271,
      "pina": 5272,
      "kowo": 5273,
      "Ġgaz": 5274,
      "komi": 5275,
      "dziny": 5276,
      "Cza": 5277,
      "Ġpierwszych": 5278,
      "!!!": 5279,
      "jeÅ¼d": 5280,
      "Ġnajlepszy": 5281,
      "strza": 5282,
      "Ġpodda": 5283,
      "ĠchwilÄĻ": 5284,
      "ÅĦstwie": 5285,
      "ot": 5286,
      "szczo": 5287,
      "Ġpromocji": 5288,
      "nuje": 5289,
      "PR": 5290,
      "Ġdotychczas": 5291,
      "kÃ³j": 5292,
      "Ġmal": 5293,
      "piÄĻk": 5294,
      "ĠnowÄħ": 5295,
      "produ": 5296,
      "ĠskÅĤadnikÃ³w": 5297,
      "miary": 5298,
      "zdu": 5299,
      "que": 5300,
      "owska": 5301,
      "Ġkilo": 5302,
      "ĠniedzielÄĻ": 5303,
      "Ġruch": 5304,
      "KaÅ¼": 5305,
      "Ġmojej": 5306,
      "niÄĻcie": 5307,
      "Ġrodzaj": 5308,
      "tujemy": 5309,
      "Ġhu": 5310,
      "ĠprowadziÄĩ": 5311,
      "nar": 5312,
      "Ġkorzystania": 5313,
      "ale": 5314,
      "czar": 5315,
      "49": 5316,
      "ĠcieszyÄĩ": 5317,
      "ĠduÅ¼ych": 5318,
      "wit": 5319,
      "Ġpowszech": 5320,
      "Ġpracodaw": 5321,
      "Ġportal": 5322,
      "Czytaj": 5323,
      "Ġnadz": 5324,
      "Ġranki": 5325,
      "Ġprzetwarzania": 5326,
      "dzania": 5327,
      "31": 5328,
      "Ġpowro": 5329,
      "37": 5330,
      "Ġpry": 5331,
      "korzy": 5332,
      "Ġsytuacja": 5333,
      "ĠWiÄĻcej": 5334,
      "krÃ³t": 5335,
      "Ġdyrektor": 5336,
      "Ġwraca": 5337,
      "Ġwice": 5338,
      "dal": 5339,
      "Ġniestety": 5340,
      "Ġszkole": 5341,
      "dnej": 5342,
      "Ġsukie": 5343,
      "ĠBla": 5344,
      "Ġabso": 5345,
      "stego": 5346,
      "ĠpaÅĦstw": 5347,
      "ĠBÄĻdzie": 5348,
      "zno": 5349,
      "Ġprosta": 5350,
      "ĠposzczegÃ³l": 5351,
      "Pre": 5352,
      "wajÄħ": 5353,
      "Ġdobrym": 5354,
      "wczych": 5355,
      "kola": 5356,
      "imi": 5357,
      "prawie": 5358,
      "ĠZdr": 5359,
      "Ġotwiera": 5360,
      "Ġbohater": 5361,
      "Ġpokona": 5362,
      "Ġoku": 5363,
      "Ġpoprzedni": 5364,
      "ĠmateriaÅĤy": 5365,
      "ĠzachÄĻca": 5366,
      "Ġrozry": 5367,
      "Ġzaga": 5368,
      "stÄĻpne": 5369,
      "ph": 5370,
      "ĠczÅĤowiek": 5371,
      "ĠukÅĤad": 5372,
      "Ġpolskim": 5373,
      "Ġaktua": 5374,
      "Ġcasino": 5375,
      "org": 5376,
      "ĠwnÄĻtrza": 5377,
      "Ġrach": 5378,
      "jÄħÅĤ": 5379,
      "ĠWojewÃ³dz": 5380,
      "ĠcaÅĤe": 5381,
      "Ġds": 5382,
      "Ġopisa": 5383,
      "ĠciÅĽnie": 5384,
      "ĠJuÅ¼": 5385,
      "Ġtwar": 5386,
      "Ġbry": 5387,
      "ĠnarzÄĻdzia": 5388,
      "ĠKrzyszto": 5389,
      "Ġkredytu": 5390,
      "las": 5391,
      "MoÅ¼e": 5392,
      "Ġodzy": 5393,
      "Ġkontroli": 5394,
      "Ġfirmie": 5395,
      "liny": 5396,
      "ĠPraw": 5397,
      "Ġpolecam": 5398,
      "Ġwniosek": 5399,
      "Ġupo": 5400,
      "Ġprzestrzega": 5401,
      "ĠrzÄħ": 5402,
      "Ġprzesta": 5403,
      "Dzi": 5404,
      "Ã¡": 5405,
      "Ġcyfr": 5406,
      "Ġnocy": 5407,
      "tarz": 5408,
      "tywa": 5409,
      "Ġukry": 5410,
      "stre": 5411,
      "ĠPamiÄĻtaj": 5412,
      "??": 5413,
      "Ġsan": 5414,
      "Ġpodatku": 5415,
      "low": 5416,
      "owaÅĤy": 5417,
      "Ġidealnie": 5418,
      "logu": 5419,
      "sf": 5420,
      "Ġsypia": 5421,
      "ÅĦcu": 5422,
      "ĠBer": 5423,
      "lepsze": 5424,
      "ker": 5425,
      "Ca": 5426,
      "publi": 5427,
      "Ġopcji": 5428,
      "Ġ45": 5429,
      "Ġtr": 5430,
      "Ġzachwy": 5431,
      "Ġtren": 5432,
      "ĠGu": 5433,
      "Ġgene": 5434,
      "Ñĸ": 5435,
      "ĠsprawÄĻ": 5436,
      "towego": 5437,
      "torek": 5438,
      "ĠczÄĻÅĽciej": 5439,
      "alnÄħ": 5440,
      "kle": 5441,
      "Ġpunk": 5442,
      "ĠmateriaÅĤu": 5443,
      "formacje": 5444,
      "ĠÅĽlub": 5445,
      "Pi": 5446,
      "Ġrozsze": 5447,
      "gas": 5448,
      "ĠmÅĤodych": 5449,
      "The": 5450,
      "ĠSamo": 5451,
      "Ġnawil": 5452,
      "ĠwÄħtpliwoÅĽci": 5453,
      "stycznej": 5454,
      "014": 5455,
      "Ġopo": 5456,
      "Jakie": 5457,
      "Ġkupi": 5458,
      "tic": 5459,
      "ĠTru": 5460,
      "ĠwiÄĻkszÄħ": 5461,
      "Ġodbior": 5462,
      "JeÅ¼eli": 5463,
      "Ġhor": 5464,
      "cale": 5465,
      "wiam": 5466,
      "PS": 5467,
      "owanÄħ": 5468,
      "ntom": 5469,
      "loka": 5470,
      "Ġhotel": 5471,
      "Ġprzer": 5472,
      "dows": 5473,
      "EK": 5474,
      "tali": 5475,
      "dzimy": 5476,
      "sÅĤawa": 5477,
      "parta": 5478,
      "Ġniezwyk": 5479,
      "ĠOto": 5480,
      "ÅĤania": 5481,
      "tycznÄħ": 5482,
      "Ġkonieczne": 5483,
      "Ġdziewczyna": 5484,
      "ĠNor": 5485,
      "wÃ³d": 5486,
      "Ġtematy": 5487,
      "miany": 5488,
      "ĠudziaÅĤu": 5489,
      "gni": 5490,
      "Ġrozmawia": 5491,
      "sel": 5492,
      "ina": 5493,
      "ĠniepeÅĤnospraw": 5494,
      "kracza": 5495,
      "Ġkontynu": 5496,
      "ĠprzyjÄĻ": 5497,
      "Ġow": 5498,
      "Ġwypoczy": 5499,
      "ĠfirmÄĻ": 5500,
      "ĠwiÄĻksze": 5501,
      "Ġare": 5502,
      "ĠmÃ³z": 5503,
      "ĠoferujÄħ": 5504,
      "Ġelement": 5505,
      "stawi": 5506,
      "Ġdemo": 5507,
      "Ġjakiej": 5508,
      "ĠzuÅ¼y": 5509,
      "Ġsamej": 5510,
      "Ġzdaniem": 5511,
      "spa": 5512,
      "Spraw": 5513,
      "ĠmiesiÄħc": 5514,
      "Ġdarmowy": 5515,
      "Ġjakby": 5516,
      "dru": 5517,
      "Ġwalki": 5518,
      "Ġjo": 5519,
      "ĠprzyjaciÃ³ÅĤ": 5520,
      "ĠbÅĤy": 5521,
      "dzaÄĩ": 5522,
      "Ġspecy": 5523,
      "sion": 5524,
      "Ġformy": 5525,
      "zmu": 5526,
      "ĠogÃ³le": 5527,
      "ĠroÅĽlin": 5528,
      "Ġraba": 5529,
      "ĠKolej": 5530,
      "Ġboi": 5531,
      "tyku": 5532,
      "ĠogÅĤoszenia": 5533,
      "Ġobiektu": 5534,
      "Ġoczekiwania": 5535,
      "Ġdekora": 5536,
      "Ġprocesu": 5537,
      "ĠnarzÄĻdzi": 5538,
      "Ġwsparcia": 5539,
      "Ġwarsza": 5540,
      "Ġpolity": 5541,
      "Ġzakupy": 5542,
      "ĠOnline": 5543,
      "Ġmiejscach": 5544,
      "czucia": 5545,
      "dnego": 5546,
      "ĠkaÅ¼da": 5547,
      "Ġfilmu": 5548,
      "Ġbr": 5549,
      "Ġkupu": 5550,
      "lak": 5551,
      "ĠciepÅĤa": 5552,
      "ĠaktywnoÅĽci": 5553,
      "Ġwybu": 5554,
      "wszy": 5555,
      "Ġskierowa": 5556,
      "kwi": 5557,
      "luje": 5558,
      "ĠJej": 5559,
      "ĠBI": 5560,
      "ĠartykuÅĤ": 5561,
      "Ġutwo": 5562,
      "ĠÅĤu": 5563,
      "Ġwpisu": 5564,
      "Lu": 5565,
      "cieka": 5566,
      "pÃ³w": 5567,
      "ET": 5568,
      "ĠszansÄĻ": 5569,
      "Ġkoszy": 5570,
      "cina": 5571,
      "Cho": 5572,
      "Ġogrze": 5573,
      "Ġhotelu": 5574,
      "Ġcentra": 5575,
      "ĠpoÅĤÄħczenie": 5576,
      "Ġinstalacji": 5577,
      "DziÄĻki": 5578,
      "Ġ!": 5579,
      "Szcze": 5580,
      "Ġdostar": 5581,
      "ies": 5582,
      "Ġdwo": 5583,
      "Ġkwali": 5584,
      "ĠPer": 5585,
      "ĠmÃ³wiÅĤ": 5586,
      "mowie": 5587,
      "ktÃ³re": 5588,
      "Ġswobo": 5589,
      "logicznych": 5590,
      "ĠZnaj": 5591,
      "Ġorganizmu": 5592,
      "reszcie": 5593,
      "Ġprzypadkach": 5594,
      "ĠST": 5595,
      "Ġfu": 5596,
      "Ġserwisie": 5597,
      "twie": 5598,
      "ĠobciÄħ": 5599,
      "Ġzestawie": 5600,
      "nikami": 5601,
      "Ġprawda": 5602,
      "Ġwystarcza": 5603,
      "Ġzasad": 5604,
      "ĠpoznaÄĩ": 5605,
      "myÅĽla": 5606,
      "Ġlega": 5607,
      "jÄħco": 5608,
      "ĠKrÃ³": 5609,
      "Ġkluczowe": 5610,
      "przeda": 5611,
      "ĠMÅĤo": 5612,
      "Ġprecy": 5613,
      "Ġnajpopular": 5614,
      "ĠliczyÄĩ": 5615,
      "ĠpodwyÅ¼": 5616,
      "ĠMiej": 5617,
      "sowy": 5618,
      "Ġdesi": 5619,
      "ĠMam": 5620,
      "anna": 5621,
      "Ġforum": 5622,
      "ĠartykuÅĤy": 5623,
      "szt": 5624,
      "Ġkoszt": 5625,
      "stuje": 5626,
      "ĠpiÄĻÄĩ": 5627,
      "Ġpowoduje": 5628,
      "Ġzadania": 5629,
      "Å¹rÃ³dÅĤo": 5630,
      "ĠMon": 5631,
      "ĠOl": 5632,
      "ĠcaÅĤoÅĽci": 5633,
      "raÅ¼": 5634,
      "lecam": 5635,
      "Ġaktor": 5636,
      "ÅĤÄħd": 5637,
      "Ġalterna": 5638,
      "2020": 5639,
      "ert": 5640,
      "Ġzapraszamy": 5641,
      "Ku": 5642,
      "Ġwniosku": 5643,
      "mb": 5644,
      "ĠmogÅĤa": 5645,
      "stola": 5646,
      "Ġwojs": 5647,
      "Ġwiru": 5648,
      "ÅĽwie": 5649,
      "ĠDru": 5650,
      "ĠCar": 5651,
      "ĠtysiÄħ": 5652,
      "Ġtrening": 5653,
      "ĠnaleÅ¼Äħ": 5654,
      "Ġkolorze": 5655,
      "riu": 5656,
      "32": 5657,
      "Ġfas": 5658,
      "ĠsklepÃ³w": 5659,
      "ĠlekÃ³w": 5660,
      "dium": 5661,
      "mai": 5662,
      "Ġobjawy": 5663,
      "pto": 5664,
      "Ġaku": 5665,
      "rzego": 5666,
      "Ġpacjenta": 5667,
      "oku": 5668,
      "Ġstruktu": 5669,
      "ĠpamiÄĻci": 5670,
      "ĠPrzez": 5671,
      "Ġpotrzebne": 5672,
      "Ġepi": 5673,
      "niejsza": 5674,
      "OK": 5675,
      "dgo": 5676,
      "rzÄĻdu": 5677,
      "Ġkomi": 5678,
      "Ġszybkie": 5679,
      "Ġdynami": 5680,
      "Ġj": 5681,
      "ĠMiÄĻdzy": 5682,
      "Wo": 5683,
      "cony": 5684,
      "Ġbrzu": 5685,
      "Ġniebie": 5686,
      "ĠpoÅ¼yczka": 5687,
      "Ġmarketing": 5688,
      "ĠstÃ³": 5689,
      "ĠNaleÅ¼y": 5690,
      "Ġpojedyn": 5691,
      "towany": 5692,
      "ĠmiÄĻÅĽni": 5693,
      "np": 5694,
      "Ġdodatkowych": 5695,
      "ĠmÄĻÅ¼czyzna": 5696,
      "):": 5697,
      "czytaj": 5698,
      "ĠTur": 5699,
      "34": 5700,
      "Ġwojny": 5701,
      "Ġszpitala": 5702,
      "Ġpublika": 5703,
      "Ġprosto": 5704,
      "jeÅ¼dÅ¼a": 5705,
      "Ġlitera": 5706,
      "zycji": 5707,
      "Ġdodaje": 5708,
      "Ġnarod": 5709,
      "Ġniespo": 5710,
      "lka": 5711,
      "Ġzyska": 5712,
      "Ġinteligen": 5713,
      "ĠÅĽwiatÅĤa": 5714,
      "Ġzastanawia": 5715,
      "Ġszef": 5716,
      "dowo": 5717,
      "ĠwskazÃ³w": 5718,
      "Ġcieszy": 5719,
      "mowania": 5720,
      "Ġbank": 5721,
      "dzwo": 5722,
      "ĠUni": 5723,
      "liÅĤ": 5724,
      "wne": 5725,
      "Ġklima": 5726,
      "Ġape": 5727,
      "dzajÄħ": 5728,
      "owcÃ³w": 5729,
      "Ġlekar": 5730,
      "hu": 5731,
      "ĠstaÄĩ": 5732,
      "Ġuczy": 5733,
      "lonych": 5734,
      "ĠZna": 5735,
      "Ġkultury": 5736,
      "Gra": 5737,
      "Ġpodobnie": 5738,
      "krywa": 5739,
      "ĠstaÅĤo": 5740,
      "ĠSej": 5741,
      "Ġkola": 5742,
      "szyb": 5743,
      "ĠgÅĤoÅĽ": 5744,
      "ĠspoÅĤecze": 5745,
      "Ġchemi": 5746,
      "Ð»": 5747,
      "ĠzadaÅĦ": 5748,
      "nda": 5749,
      "Ġmody": 5750,
      "ĠZjedno": 5751,
      "bÃ³r": 5752,
      "fon": 5753,
      "Ġhipote": 5754,
      "zasa": 5755,
      "NIE": 5756,
      "ance": 5757,
      "ngu": 5758,
      "ĠwyÅĽwietla": 5759,
      "Ten": 5760,
      "ls": 5761,
      "ĠstosowaÄĩ": 5762,
      "ĠWrocÅĤaw": 5763,
      "ĠXX": 5764,
      "mieniu": 5765,
      "ting": 5766,
      "ĠrÃ³wno": 5767,
      "75": 5768,
      "ĠmiesiÄĻ": 5769,
      "ĠSport": 5770,
      "ĠuÅĽmie": 5771,
      "ĠTwoim": 5772,
      "Ġkrok": 5773,
      "niejszym": 5774,
      "Ga": 5775,
      "rzony": 5776,
      "Ġzrea": 5777,
      "ĠwiedzÄĻ": 5778,
      "DZ": 5779,
      "Ġpri": 5780,
      "wcze": 5781,
      "nkÄĻ": 5782,
      "Ġsztuki": 5783,
      "ĠdÅĤugie": 5784,
      "ĠbÄĻdÄĻ": 5785,
      "Ġth": 5786,
      "Ġmart": 5787,
      "Ġpewne": 5788,
      "ĠwiedzÄħ": 5789,
      "miana": 5790,
      "szony": 5791,
      "ĠKry": 5792,
      "kÅĤo": 5793,
      "Ġ*": 5794,
      "Ġekonomi": 5795,
      "ĠstworzyÄĩ": 5796,
      "ĠInternet": 5797,
      "ĠdostÄĻpu": 5798,
      "tymi": 5799,
      "Ġ150": 5800,
      "Ġistotne": 5801,
      "Ġprepara": 5802,
      "Ġziemi": 5803,
      "ĠporzÄħd": 5804,
      "torium": 5805,
      "ĠmiaÅĤo": 5806,
      "Ġegza": 5807,
      "niowe": 5808,
      "Ġtara": 5809,
      "Ġustaw": 5810,
      "Ġeli": 5811,
      "ĠInsta": 5812,
      "tyj": 5813,
      "bet": 5814,
      "leko": 5815,
      "fry": 5816,
      "Ġrezu": 5817,
      "Ġprezes": 5818,
      "ĠAndrzej": 5819,
      "trwa": 5820,
      "ĠprzeÅĤo": 5821,
      "ÅĤÄħcz": 5822,
      "Ġartykule": 5823,
      "nau": 5824,
      "Ġwywia": 5825,
      "Ġwzrostu": 5826,
      "dowego": 5827,
      "Kolej": 5828,
      "Ġidealne": 5829,
      "lam": 5830,
      "Ġaro": 5831,
      "Ġzaledwie": 5832,
      "ĠMan": 5833,
      "ĠszkÃ³ÅĤ": 5834,
      "ĠmnÃ³": 5835,
      "nkach": 5836,
      "ĠdostÄĻpna": 5837,
      "Ġbiu": 5838,
      "tions": 5839,
      "Ġtransport": 5840,
      "ĠnapiÄĻ": 5841,
      "Ġpocho": 5842,
      "ĠprzygotowaÄĩ": 5843,
      "46": 5844,
      "Ġkod": 5845,
      "Ġrywa": 5846,
      "Ġnazwi": 5847,
      "ĠKrakowie": 5848,
      "ĠWal": 5849,
      "ĠIN": 5850,
      "2021": 5851,
      "wan": 5852,
      "VID": 5853,
      "ĠZapraszamy": 5854,
      "Ġniedaw": 5855,
      "Ġrezulta": 5856,
      "ĠchÅĤop": 5857,
      "ĠKobie": 5858,
      "leksa": 5859,
      "lnymi": 5860,
      "ys": 5861,
      "ĠBoÅ¼e": 5862,
      "Ġidzie": 5863,
      "dzili": 5864,
      "stnieje": 5865,
      "strybu": 5866,
      "Ġref": 5867,
      "ĠchorÃ³b": 5868,
      "gl": 5869,
      "Ġzasko": 5870,
      "ĠKraj": 5871,
      "czech": 5872,
      "Ġ36": 5873,
      "ceÅĦ": 5874,
      "ĠprzesÅĤa": 5875,
      "Ġnet": 5876,
      "ĠwrÃ³ci": 5877,
      "terii": 5878,
      "eli": 5879,
      "Ġsce": 5880,
      "chaÄĩ": 5881,
      "ÅĤopo": 5882,
      "Ġprzynajmniej": 5883,
      "Ġface": 5884,
      "ĠDO": 5885,
      "IÄĺ": 5886,
      "ĠcenÄĻ": 5887,
      "ranÅ¼a": 5888,
      "ĠkiedyÅĽ": 5889,
      "bienia": 5890,
      "Ġfanta": 5891,
      "Ġwywo": 5892,
      "iÄĻkujemy": 5893,
      "ĠposiadajÄħ": 5894,
      "waniem": 5895,
      "ĠrzeczywistoÅĽci": 5896,
      "ĠuniknÄħÄĩ": 5897,
      "mysÅĤu": 5898,
      "Ġdostawy": 5899,
      "ine": 5900,
      "dowi": 5901,
      "fery": 5902,
      "mieÅĦ": 5903,
      "Ġiden": 5904,
      "EL": 5905,
      "Ġzabieg": 5906,
      "mara": 5907,
      "bin": 5908,
      "grzy": 5909,
      "Podczas": 5910,
      "ĠDlaczego": 5911,
      "ĠposzczegÃ³lnych": 5912,
      "ĠMate": 5913,
      "owskiego": 5914,
      "Ġtrzeci": 5915,
      "Bardzo": 5916,
      "ĠIz": 5917,
      "ĠfilmÃ³w": 5918,
      "Ġsio": 5919,
      "Ġdziennie": 5920,
      "ÅĤami": 5921,
      "Ġpliki": 5922,
      "ĠGre": 5923,
      "ĠpiÄĻkne": 5924,
      "sten": 5925,
      "Ġwalu": 5926,
      "Ġpkt": 5927,
      "ĠuÅ¼yciu": 5928,
      "ĠKrakÃ³w": 5929,
      "osob": 5930,
      "puszcza": 5931,
      "Ġubieg": 5932,
      "rok": 5933,
      "ĠdokumentÃ³w": 5934,
      "poli": 5935,
      "Ġmiesza": 5936,
      "ĠbiorÄħ": 5937,
      "giel": 5938,
      "Ġdokumenta": 5939,
      "lizm": 5940,
      "macnia": 5941,
      "ÅĽciem": 5942,
      "Ġrapor": 5943,
      "Ġrodzin": 5944,
      "wskiego": 5945,
      "Ġakcep": 5946,
      "0142": 5947,
      "ĠszczegÃ³ÅĤy": 5948,
      "ĠKur": 5949,
      "wielbia": 5950,
      "Ġ2011": 5951,
      "tacjÄĻ": 5952,
      "mian": 5953,
      "Ġeste": 5954,
      "nictwo": 5955,
      "Ġkonser": 5956,
      "typ": 5957,
      "ĠprzeÅ¼y": 5958,
      "Ġgeo": 5959,
      "nor": 5960,
      "Ġwiesz": 5961,
      "fu": 5962,
      "Ġnaro": 5963,
      "Ġwysoko": 5964,
      "ĠmusiaÅĤ": 5965,
      "NY": 5966,
      "myka": 5967,
      "Ġzga": 5968,
      "Ġszereg": 5969,
      "pio": 5970,
      "Ġpokar": 5971,
      "ĠsiÄĻga": 5972,
      "ĠMiasta": 5973,
      "Ġstaty": 5974,
      "toli": 5975,
      "ĠodwoÅĤa": 5976,
      "kÅĤadzie": 5977,
      "Ġmg": 5978,
      "Ġkawa": 5979,
      "rej": 5980,
      "MS": 5981,
      "Ġzab": 5982,
      "ĠdecyzjÄĻ": 5983,
      "ĠwÅĤasnej": 5984,
      "Ġmebli": 5985,
      "ĠwÅĤasnych": 5986,
      "Ġminister": 5987,
      "Ġopieki": 5988,
      "Ġzastosowanie": 5989,
      "Ġupad": 5990,
      "Ġstart": 5991,
      "kowÄħ": 5992,
      "ĠTylko": 5993,
      "ĠKata": 5994,
      "ĠMamy": 5995,
      "Ġpasa": 5996,
      "Ġzdarzenia": 5997,
      "Ġama": 5998,
      "Ġlepsze": 5999,
      "Ġostatnim": 6000,
      "jki": 6001,
      "ĠdowiedzieÄĩ": 6002,
      "Ġcztere": 6003,
      "Ġstopniu": 6004,
      "landii": 6005,
      "Ġrozpoczyna": 6006,
      "Ġinformuje": 6007,
      "ĠuczestnikÃ³w": 6008,
      "ĠEuropejskiej": 6009,
      "minu": 6010,
      "ĠSam": 6011,
      "Ġwor": 6012,
      "gÃ³ÅĤy": 6013,
      "Ġwese": 6014,
      "ĠpotÄĻ": 6015,
      "ĠÅĽlu": 6016,
      "groma": 6017,
      "jak": 6018,
      "Ġmodelu": 6019,
      "Ġwery": 6020,
      "rip": 6021,
      "rastru": 6022,
      "dnienie": 6023,
      "int": 6024,
      "styczna": 6025,
      "Bra": 6026,
      "gru": 6027,
      "ĠOrgani": 6028,
      "Ġteren": 6029,
      "Ġsami": 6030,
      "ĠdobrÄħ": 6031,
      "ĠJaro": 6032,
      "tive": 6033,
      "Ġopieku": 6034,
      "ĠPaweÅĤ": 6035,
      "ĠRegu": 6036,
      "czach": 6037,
      "Ġlogi": 6038,
      "ĠnajwyÅ¼szej": 6039,
      "Ġmeble": 6040,
      "dzisz": 6041,
      "Ġprzycho": 6042,
      "kula": 6043,
      "ĠObecnie": 6044,
      "ĠWarszawy": 6045,
      "spoda": 6046,
      "teli": 6047,
      "ĠHotel": 6048,
      "ktowaÄĩ": 6049,
      "ĠmiesiÄħce": 6050,
      "Ġturniej": 6051,
      "zon": 6052,
      "ĠnarzÄĻdzie": 6053,
      "ĠmyÅĽlÄħ": 6054,
      "szczone": 6055,
      "Ġwyobra": 6056,
      "ĠliÅĽcie": 6057,
      "Ġplus": 6058,
      "czania": 6059,
      "Ġtworzenia": 6060,
      "ĠnajwiÄĻkszych": 6061,
      "mpy": 6062,
      "Ġwcale": 6063,
      "wiu": 6064,
      "twier": 6065,
      "ĠwodÄħ": 6066,
      "waÅĦ": 6067,
      "Ġzarzu": 6068,
      "tii": 6069,
      "ĠVAT": 6070,
      "ĠKultury": 6071,
      "Ġinternetowe": 6072,
      "cyjnie": 6073,
      "Ġulubio": 6074,
      "Ġhistoria": 6075,
      "towane": 6076,
      "Ġpunkt": 6077,
      "Ġekran": 6078,
      "ĠskÅĤadniki": 6079,
      "szoÅĽÄĩ": 6080,
      "Ġreda": 6081,
      "krÃ³tce": 6082,
      "psu": 6083,
      "kocha": 6084,
      "dniego": 6085,
      "dowej": 6086,
      "towo": 6087,
      "ĠsposobÃ³w": 6088,
      "Ġbukmacher": 6089,
      "ĠPowia": 6090,
      "ĠzarzÄħdzania": 6091,
      "Zapraszamy": 6092,
      "Ġkoszu": 6093,
      "ĠDzieÅĦ": 6094,
      "ĠdÅĤo": 6095,
      "Witam": 6096,
      "Ġprzyw": 6097,
      "des": 6098,
      "Ġpodobne": 6099,
      "Ġtelefoni": 6100,
      "ĠÅĤatwiej": 6101,
      "ĠSzyb": 6102,
      "Ðº": 6103,
      "ĠmoÅ¼li": 6104,
      "ĠdziaÅĤ": 6105,
      "waga": 6106,
      "sowych": 6107,
      "ĠtydzieÅĦ": 6108,
      "Ġbrz": 6109,
      "Ġkonso": 6110,
      "ĠSuper": 6111,
      "Ġsprawa": 6112,
      "ĠsiÅĤy": 6113,
      "Ġdziwka": 6114,
      "Ġfunkcje": 6115,
      "ĠRP": 6116,
      "Ġmoja": 6117,
      "ĠðŁĻ": 6118,
      "ĠurzÄħdzenie": 6119,
      "ĠMaz": 6120,
      "Ġkonkursu": 6121,
      "Å¼ÄĻ": 6122,
      "Ġwpisa": 6123,
      "La": 6124,
      "rÃ³g": 6125,
      "ĠStar": 6126,
      "ĠduÅ¼a": 6127,
      "Ġmagi": 6128,
      "ĠUnii": 6129,
      "ĠAdam": 6130,
      "ĠÅĽwiÄħte": 6131,
      "ĠNiemczech": 6132,
      "ĠrÄĻka": 6133,
      "Ġstoi": 6134,
      "Ġ'": 6135,
      "Ġnaci": 6136,
      "ĠuzaleÅ¼": 6137,
      "tÄħd": 6138,
      "âĢ¦]": 6139,
      "Ġgminy": 6140,
      "Ġpotrzebu": 6141,
      "ÅĤowo": 6142,
      "Ġbezpieczne": 6143,
      "Ġsposobem": 6144,
      "Ġizo": 6145,
      "ĠSÅĤu": 6146,
      "ĠwystÄħpi": 6147,
      "leniu": 6148,
      "88": 6149,
      "larÃ³w": 6150,
      "Ġprawdopodobnie": 6151,
      "Ġznaczy": 6152,
      "ĠkoÅĦczy": 6153,
      "ĠWs": 6154,
      "ĠSze": 6155,
      "bienie": 6156,
      "dujÄħ": 6157,
      "ĠTomasz": 6158,
      "ĠcelÃ³w": 6159,
      "cesz": 6160,
      "ĠwraÅ¼enie": 6161,
      "lizuje": 6162,
      "pinie": 6163,
      "Ġodno": 6164,
      "Ġdrugim": 6165,
      "Ġstary": 6166,
      "pienie": 6167,
      "ĠRosji": 6168,
      "Ġzanim": 6169,
      "metrÃ³w": 6170,
      "Ġpolskie": 6171,
      "ĠprÄĻd": 6172,
      "Ġrolni": 6173,
      "chan": 6174,
      "Ġzapisa": 6175,
      "ĠwiadomoÅĽÄĩ": 6176,
      "2018": 6177,
      "szem": 6178,
      "ktery": 6179,
      "illa": 6180,
      "Ġnaturalne": 6181,
      "rol": 6182,
      "Gdy": 6183,
      "ĠprojektÃ³w": 6184,
      "ĠgÅĤa": 6185,
      "leÄĩ": 6186,
      "niwersa": 6187,
      "Cz": 6188,
      "ĠzaczÄħÄĩ": 6189,
      "Ġodpowiedniego": 6190,
      "ĠzewnÄħtrz": 6191,
      "ĠwynikÃ³w": 6192,
      "ĠJana": 6193,
      "ĠopÅĤat": 6194,
      "77": 6195,
      "Â²": 6196,
      "Ġkwoty": 6197,
      "ĠkoÅĽci": 6198,
      "Ġczwartek": 6199,
      "Ġwitami": 6200,
      "ĠkrÃ³tki": 6201,
      "ĠWor": 6202,
      "Ġryzyka": 6203,
      "Â°": 6204,
      "Ġkibi": 6205,
      "ĠÅĤatwe": 6206,
      "ĠrosnÄħ": 6207,
      "ĠhistoriÄĻ": 6208,
      "lizowane": 6209,
      "Ġroze": 6210,
      "biu": 6211,
      "ĠChe": 6212,
      "ĠNowa": 6213,
      "Ġinicja": 6214,
      "Ġ2010": 6215,
      "Ġkas": 6216,
      "Ġpsychi": 6217,
      "Ġstanowisko": 6218,
      "ĠÅĤÃ³Å¼": 6219,
      "uj": 6220,
      "cjonar": 6221,
      "ÅĤgo": 6222,
      "Ġfinansowe": 6223,
      "Ġbraku": 6224,
      "ĠprzestÄĻp": 6225,
      "Ġspoj": 6226,
      "ĠdzieciÄĻ": 6227,
      "use": 6228,
      "Ġelementem": 6229,
      "Ġstudia": 6230,
      "ĠnapÄĻ": 6231,
      "ĠwysyÅĤa": 6232,
      "Ġalkoholu": 6233,
      "ĠwystÄĻpuje": 6234,
      "ĠoprÃ³cz": 6235,
      "ĠdomÃ³w": 6236,
      "Ġwygo": 6237,
      "Ġwirtu": 6238,
      "Ġodczu": 6239,
      "trzu": 6240,
      "Ġskomp": 6241,
      "...)": 6242,
      "ĠWam": 6243,
      "tre": 6244,
      "zny": 6245,
      "Ġbieg": 6246,
      "ĠprzemysÅĤ": 6247,
      "iÄĻkujÄĻ": 6248,
      "Ġwita": 6249,
      "ĠczynnikÃ³w": 6250,
      "Pe": 6251,
      "2019": 6252,
      "Ġleki": 6253,
      "Ġkorzyst": 6254,
      "cel": 6255,
      "Ġbudowa": 6256,
      "Ġustawie": 6257,
      "Ġprzepisa": 6258,
      "ĠosiÄħgnÄħÄĩ": 6259,
      "ĠWystarczy": 6260,
      "Ġpiep": 6261,
      "ĠszczegÃ³lnoÅĽci": 6262,
      "Ã³sÅĤ": 6263,
      "lop": 6264,
      "ĠsiÅĤ": 6265,
      "Ġodpo": 6266,
      "Ġnadaje": 6267,
      "ĠponiedziaÅĤek": 6268,
      "ĠciaÅĤo": 6269,
      "Ġdrewna": 6270,
      "Ġrozmowy": 6271,
      "Ġpodlega": 6272,
      "imna": 6273,
      "ponowa": 6274,
      "szeÅĦ": 6275,
      "Ġznajomy": 6276,
      "ĠInstytu": 6277,
      "Ġpewnie": 6278,
      "kowana": 6279,
      "ĠNowy": 6280,
      "Ġpisze": 6281,
      "dzieli": 6282,
      "Ġkryzy": 6283,
      "owca": 6284,
      "UM": 6285,
      "Ġrat": 6286,
      "Ġnagrody": 6287,
      "Ġprzyro": 6288,
      "ĠsÅĤÃ³w": 6289,
      "Ġpracowni": 6290,
      "ĠpÅĤo": 6291,
      "OWE": 6292,
      "ĠkaÅ¼dÄħ": 6293,
      "kiewicz": 6294,
      "czonym": 6295,
      "Ġpozba": 6296,
      "Ġgrupa": 6297,
      "ĠpostÄĻpowania": 6298,
      "ĠotrzymaÄĩ": 6299,
      "Ġgr": 6300,
      "dzono": 6301,
      "ming": 6302,
      "Ġdefi": 6303,
      "ĠpeÅĤne": 6304,
      "SK": 6305,
      "Ġwolno": 6306,
      "ĠPoza": 6307,
      "Ġsezonu": 6308,
      "ĠBoga": 6309,
      "ĠÅ»e": 6310,
      "Ġpozostaje": 6311,
      "Ġwzmoc": 6312,
      "Ġozdob": 6313,
      "poko": 6314,
      "ĠokazjÄĻ": 6315,
      "ĠSpecja": 6316,
      "car": 6317,
      "Ġokie": 6318,
      "Ġmetal": 6319,
      "Ġmaszyn": 6320,
      "Ġprezydenta": 6321,
      "Ġmalu": 6322,
      "Ġpodoba": 6323,
      "ĠPana": 6324,
      "Ġfinansowych": 6325,
      "ĠKto": 6326,
      "ĠwyjÄħtkowo": 6327,
      "kade": 6328,
      "Ġzgody": 6329,
      "Ġlimi": 6330,
      "ens": 6331,
      "towarzy": 6332,
      "peu": 6333,
      "Ġelektro": 6334,
      "ĠWiele": 6335,
      "ang": 6336,
      "Ale": 6337,
      "Ġkomunikacji": 6338,
      "niewaÅ¼": 6339,
      "mÃ³wi": 6340,
      "Ġles": 6341,
      "gÃ³lnie": 6342,
      "Ġsaty": 6343,
      "Ġkrem": 6344,
      "ĠnajwaÅ¼niejszych": 6345,
      "ĠdowÃ³d": 6346,
      "ĠpodwÃ³j": 6347,
      "Ġkompozy": 6348,
      "Ġfundu": 6349,
      "ĠwykonaÄĩ": 6350,
      "czasem": 6351,
      "ĠmnÃ³stwo": 6352,
      "Ġkrajach": 6353,
      "ĠmogÅĤy": 6354,
      "Ġlekko": 6355,
      "ĠdÅĤuÅ¼ej": 6356,
      "unku": 6357,
      "ĠPC": 6358,
      "Ġtransportu": 6359,
      "Ġzapach": 6360,
      "Ġbas": 6361,
      "ĠRi": 6362,
      "Ġtemperatury": 6363,
      "Ġwysokie": 6364,
      "Bez": 6365,
      "ret": 6366,
      "ĠtytuÅĤ": 6367,
      "ĠWyso": 6368,
      "Ġsuple": 6369,
      "figu": 6370,
      "Ġstosunku": 6371,
      "ÅĽcioÅĤa": 6372,
      "ĠÂ·": 6373,
      "ĠJedno": 6374,
      "bina": 6375,
      "ture": 6376,
      "kÅĤadni": 6377,
      "ĠposÅĤu": 6378,
      "ĠodpowiedÅº": 6379,
      "grafi": 6380,
      "sma": 6381,
      "ĠWedÅĤug": 6382,
      "Ġwykonana": 6383,
      "Ġaparta": 6384,
      "ĠJesteÅĽmy": 6385,
      "Ġmaszyny": 6386,
      "Ġrelacji": 6387,
      "Ġapara": 6388,
      "Ġudziela": 6389,
      "tÅĤu": 6390,
      "Ġznakomi": 6391,
      "brze": 6392,
      "ĠTakie": 6393,
      "Ġono": 6394,
      "Ġpiosen": 6395,
      "Ġudo": 6396,
      "Ġcom": 6397,
      "ĠQu": 6398,
      "ĠWindows": 6399,
      "Ġbur": 6400,
      "ĠzamÃ³wienie": 6401,
      "ĠodpowiedzialnoÅĽci": 6402,
      "szeniu": 6403,
      "ĠFina": 6404,
      "........": 6405,
      "lum": 6406,
      "Ġsposoby": 6407,
      "III": 6408,
      "Ġnara": 6409,
      "ĠuÅ¼ytkowania": 6410,
      "mum": 6411,
      "dziaÅĤy": 6412,
      "Ġkreatyw": 6413,
      "pka": 6414,
      "Ġwskazuje": 6415,
      "Ġzamierza": 6416,
      "ĠrÄħ": 6417,
      "Ġstaro": 6418,
      "ĠÅģÃ³": 6419,
      "ĠsprzÄħ": 6420,
      "ĠsystemÃ³w": 6421,
      "Ġuz": 6422,
      "Ġprowadzenia": 6423,
      "ĠmetrÃ³w": 6424,
      "ĠLek": 6425,
      "Ġspin": 6426,
      "ĠkrajÃ³w": 6427,
      "Poli": 6428,
      "ÅĤugo": 6429,
      "und": 6430,
      "zywaÄĩ": 6431,
      "Ġkwestii": 6432,
      "Ġzmniejsza": 6433,
      "lwe": 6434,
      "ĠOdpowie": 6435,
      "toni": 6436,
      "Ġtea": 6437,
      "owaÅĤo": 6438,
      "Ġpoby": 6439,
      "ĠwspÃ³ÅĤprac": 6440,
      "Ġreklamy": 6441,
      "Ġjaj": 6442,
      "Ġpazno": 6443,
      "ĠwewnÄħtrz": 6444,
      "Ġ)": 6445,
      "Ġnapa": 6446,
      "Ġwybor": 6447,
      "Ġprzygotowania": 6448,
      "Ne": 6449,
      "Ġtechniczne": 6450,
      "ĠpoÅĤÄħczenia": 6451,
      "Ġchoroba": 6452,
      "stycznego": 6453,
      "ĠTran": 6454,
      "Ġpunkty": 6455,
      "Ġyour": 6456,
      "ÅĤymi": 6457,
      "woka": 6458,
      "ĠkoniecznoÅĽci": 6459,
      "ĠchÄĻtnie": 6460,
      "woje": 6461,
      "AW": 6462,
      "ĠkÅĤopo": 6463,
      "ndy": 6464,
      "ĠproszÄĻ": 6465,
      "stitu": 6466,
      "Ġpary": 6467,
      "Ġwoda": 6468,
      "ĠwywoÅĤa": 6469,
      ".|": 6470,
      "rur": 6471,
      "59": 6472,
      "zyn": 6473,
      "tyk": 6474,
      "Ġfunda": 6475,
      "obraz": 6476,
      "Ġregularnie": 6477,
      "Ġtrenin": 6478,
      "Ġluksu": 6479,
      "bine": 6480,
      "Ġzapowie": 6481,
      "Ġniewie": 6482,
      "47": 6483,
      "Ġoceny": 6484,
      "miu": 6485,
      "zdra": 6486,
      "Ġpunktu": 6487,
      "cielem": 6488,
      "Ġwszelkich": 6489,
      "szuka": 6490,
      "Ġprosty": 6491,
      "Ġzjawi": 6492,
      "ĠwysokÄħ": 6493,
      "ĠrÄĻce": 6494,
      "Ġzostaje": 6495,
      "ĠðŁĻĤ": 6496,
      "Ġodpowiednich": 6497,
      "ĠkrÄħ": 6498,
      "ĠukoÅĦ": 6499,
      "Ġkoronawirusa": 6500,
      "Ġsprawdzi": 6501,
      "jnych": 6502,
      "Ġosobom": 6503,
      "mnieÄĩ": 6504,
      "set": 6505,
      "ĠoglÄħda": 6506,
      "Ġkru": 6507,
      "ĠKla": 6508,
      "Å¼sa": 6509,
      "cjo": 6510,
      "Ġkondy": 6511,
      "Ġpracownika": 6512,
      "nes": 6513,
      "chniÄĻ": 6514,
      "Ġczterech": 6515,
      "ĠwÅĤasnego": 6516,
      "ĠliczbÄĻ": 6517,
      "ÅĤowÄĻ": 6518,
      "Ġgracze": 6519,
      "Ġprawem": 6520,
      "ĠPosiada": 6521,
      "Ġcertyfika": 6522,
      "Ġdarmowych": 6523,
      "Ġsumie": 6524,
      "Ġ[âĢ¦]": 6525,
      "wis": 6526,
      "Pierw": 6527,
      "Ġpraktycznie": 6528,
      "Ġsh": 6529,
      "ĠPlay": 6530,
      "Wszystkie": 6531,
      "56": 6532,
      "Ġbrakuje": 6533,
      "For": 6534,
      "wiaÄĩ": 6535,
      "ĠpojazdÃ³w": 6536,
      "Ġujaw": 6537,
      "OG": 6538,
      "son": 6539,
      "derni": 6540,
      "ĠbezpÅĤatne": 6541,
      "ĠmiÅĤoÅĽÄĩ": 6542,
      "ĠwnÄĻtrz": 6543,
      "Ġzarabia": 6544,
      "Ġroli": 6545,
      "ĠzakÅĤadÃ³w": 6546,
      "Ġmld": 6547,
      "Ġlekarz": 6548,
      "bora": 6549,
      "Ġ1000": 6550,
      "Ġekstra": 6551,
      "tale": 6552,
      "dego": 6553,
      "Ġnazywa": 6554,
      "Ġindywidualnych": 6555,
      "Ġcodziennie": 6556,
      "ĠBank": 6557,
      "rzyja": 6558,
      "Ġpierwsza": 6559,
      "Ġwykonanie": 6560,
      "Ġspowodowa": 6561,
      "dnio": 6562,
      "ĠwysokoÅĽÄĩ": 6563,
      "CY": 6564,
      "ĠporÃ³wnaniu": 6565,
      "red": 6566,
      "tarza": 6567,
      "Ġzajmu": 6568,
      "ĠMimo": 6569,
      "Ġwspomnia": 6570,
      "ĠusÅĤy": 6571,
      "ĠzajÄĻ": 6572,
      "Ġke": 6573,
      "ĠPri": 6574,
      "Ġniech": 6575,
      "ĠwydarzeÅĦ": 6576,
      "Ġreli": 6577,
      "Ġwygodne": 6578,
      "ĠprzedÅĤu": 6579,
      "ĠzapewniajÄħ": 6580,
      "Ġdziedzinie": 6581,
      "cona": 6582,
      "sfak": 6583,
      "Ġbuty": 6584,
      "stal": 6585,
      "CA": 6586,
      "ĠcaÅĤkiem": 6587,
      "ĠktÃ³rymi": 6588,
      "Ġklimaty": 6589,
      "lue": 6590,
      "ĠczÄĻÅĽciÄħ": 6591,
      "sport": 6592,
      "Pla": 6593,
      "Ġniezna": 6594,
      "Ġzastrze": 6595,
      "ES": 6596,
      "Ġseku": 6597,
      "Ġprzekro": 6598,
      "Ġefekty": 6599,
      ".||": 6600,
      "ĠWz": 6601,
      "ĠoÅĽrod": 6602,
      "ĠPodstaw": 6603,
      "Ġrozpa": 6604,
      "roi": 6605,
      "%.": 6606,
      "Ġpokazuje": 6607,
      "ĠpowyÅ¼": 6608,
      "Ġuczniowie": 6609,
      "niÃ³sÅĤ": 6610,
      "ĠYou": 6611,
      "Ġwys": 6612,
      "ĠspotkaÅĦ": 6613,
      "ĠKasyno": 6614,
      "'s": 6615,
      "ĠÅģuka": 6616,
      "ÅĤÃ³Å¼": 6617,
      "ĠtrÃ³j": 6618,
      "loÅĽÄĩ": 6619,
      "ĠNawet": 6620,
      "ĠznÃ³w": 6621,
      "ĠrÃ³Å¼nego": 6622,
      "CJA": 6623,
      "Ġleku": 6624,
      "Ġkoncent": 6625,
      "Ġklub": 6626,
      "Ġkwar": 6627,
      "Ġdokony": 6628,
      "ĠprzyciÄħga": 6629,
      "pry": 6630,
      "Ġuzyskania": 6631,
      "Ġmoich": 6632,
      "Ġkomentarze": 6633,
      "ĠmontaÅ¼": 6634,
      "ĠmilionÃ³w": 6635,
      "mÅĤod": 6636,
      "jna": 6637,
      "niona": 6638,
      "Ġhazardowe": 6639,
      "Ġfrag": 6640,
      "Ã¼": 6641,
      "Ġmojego": 6642,
      "Ġlist": 6643,
      "Ġspor": 6644,
      "Ġstacjonar": 6645,
      "Ġprzesu": 6646,
      "ĠdruÅ¼yny": 6647,
      "boga": 6648,
      "ĠodpowiedniÄħ": 6649,
      "Ġetapie": 6650,
      "Ġwro": 6651,
      "Ġ@": 6652,
      "Ġintegra": 6653,
      "ĠwÅĤasnÄħ": 6654,
      "Ġspacer": 6655,
      "ĠobowiÄħzu": 6656,
      "wcÃ³w": 6657,
      "Ġterminie": 6658,
      "owoczes": 6659,
      "Ġmuzyki": 6660,
      "logie": 6661,
      "Ġimprezy": 6662,
      "kÅĤadem": 6663,
      "ĠpodejÅĽcie": 6664,
      "Ġzapalenie": 6665,
      "ĠzwiÄĻkszyÄĩ": 6666,
      "Ġwspomaga": 6667,
      "Ġthat": 6668,
      "Ġuprawia": 6669,
      "cymi": 6670,
      "ĠFunda": 6671,
      "Ġczasami": 6672,
      "Ġzarejestrowa": 6673,
      "ĠKrzysztof": 6674,
      "Ġsklepach": 6675,
      "Ġmodele": 6676,
      "Ġpodsu": 6677,
      "ĠuÅ¼ywaÄĩ": 6678,
      "kter": 6679,
      "Ġprzyspie": 6680,
      "Ġtekst": 6681,
      "Ġpopularne": 6682,
      "Ġodebra": 6683,
      "ĠÅĽrodÄĻ": 6684,
      "tus": 6685,
      "Ġperspekty": 6686,
      "Ġpoczu": 6687,
      "Ġnajpierw": 6688,
      "ĠszczÄĻÅĽli": 6689,
      "ana": 6690,
      "Ġgodzinach": 6691,
      "Ġprzyczyny": 6692,
      "Ġdobrego": 6693,
      "szÅĤa": 6694,
      "Ġszac": 6695,
      "Ġprogramie": 6696,
      "ĠNatomiast": 6697,
      "Ġredu": 6698,
      "Ġwtorek": 6699,
      "dziÄĻ": 6700,
      "42": 6701,
      "ĠzasÅĤu": 6702,
      "Ġodpowiedniej": 6703,
      "ckja": 6704,
      "Ġodwiedza": 6705,
      "Ġup": 6706,
      "Ġeksplo": 6707,
      "Ġwymagania": 6708,
      "Ġpracuje": 6709,
      "ĠÅĤÄħczy": 6710,
      "ĠzajÄĻÄĩ": 6711,
      "Ġobserw": 6712,
      "ĠpytaÅĦ": 6713,
      "ĠPomo": 6714,
      "ĠposiÅĤ": 6715,
      "all": 6716,
      "Ġostatnio": 6717,
      "ĠrozwiÄħzaniem": 6718,
      "Ġwiary": 6719,
      "Ġsprawi": 6720,
      "ĠwyÅĽci": 6721,
      "ĠwyjaÅĽnia": 6722,
      "Ġbanku": 6723,
      "ĠJako": 6724,
      "Ġedycji": 6725,
      "Se": 6726,
      "Ġscena": 6727,
      "Ġhandlu": 6728,
      "ht": 6729,
      "Ġ32": 6730,
      "ĠwyrÃ³Å¼nia": 6731,
      "ĠmaÅĤÅ¼e": 6732,
      "Ġwez": 6733,
      "Ġdystrybu": 6734,
      "Ġwitryny": 6735,
      "skÄĻ": 6736,
      "sio": 6737,
      "mil": 6738,
      "sul": 6739,
      "ĠVegas": 6740,
      "ANE": 6741,
      "Ġkolek": 6742,
      "fil": 6743,
      "Ġkoncep": 6744,
      "Ġreko": 6745,
      "Ġoli": 6746,
      "naÅĽcie": 6747,
      "Ġzadanie": 6748,
      "ĠAleksa": 6749,
      "ĠÅģodzi": 6750,
      "Ġsukces": 6751,
      "Ġrege": 6752,
      "zwo": 6753,
      "ĠpojawiajÄħ": 6754,
      "ĠwrÄĻcz": 6755,
      "Ġnieod": 6756,
      "ĠwodÄĻ": 6757,
      "czoÅĽci": 6758,
      "dÅ¼e": 6759,
      "ĠkÄħpie": 6760,
      "Firma": 6761,
      "szan": 6762,
      "ĠNiemie": 6763,
      "Ġsystemie": 6764,
      "ĠartykuÅĤu": 6765,
      "szne": 6766,
      "Ġosobowe": 6767,
      "lonej": 6768,
      "Ġciebie": 6769,
      "ĠJestem": 6770,
      "ĠWÄĻ": 6771,
      "Ġzapowiada": 6772,
      "ĠpeÅĤnÄħ": 6773,
      "ĠsprawdÅº": 6774,
      "Ġspecjalnie": 6775,
      "Ġauta": 6776,
      "ĠCOVID": 6777,
      "Ġmedycy": 6778,
      "So": 6779,
      "gÅĤasza": 6780,
      "ieÅĤ": 6781,
      "ĠpomogÄħ": 6782,
      "IP": 6783,
      "Ġprostytutek": 6784,
      "ĠMieszkanie": 6785,
      "ĠLon": 6786,
      "ĠSh": 6787,
      "ĠwskaÅº": 6788,
      "ĠSpÃ³ÅĤ": 6789,
      "Ho": 6790,
      "Ġekra": 6791,
      "Ġodbi": 6792,
      "Ġzdra": 6793,
      "ÃŃ": 6794,
      "Ġlisty": 6795,
      "dzaj": 6796,
      "Ġletni": 6797,
      "Ġkomputera": 6798,
      "Ġzo": 6799,
      "Ġwytwarza": 6800,
      "Ġmodli": 6801,
      "ĠbyÅĤoby": 6802,
      "suje": 6803,
      "Ġmaj": 6804,
      "skry": 6805,
      "kw": 6806,
      "Ġcon": 6807,
      "ĠPoznaÅĦ": 6808,
      "Ġznane": 6809,
      "Ġpochodzi": 6810,
      "Ġkompe": 6811,
      "ĠosiÄħga": 6812,
      "ĠpowiÄĻk": 6813,
      "ĠnapisaÅĤ": 6814,
      "lti": 6815,
      "Ġprag": 6816,
      "79": 6817,
      "Ġpojazdu": 6818,
      "ĠpodÅĤÄħ": 6819,
      "ĠpewnoÅĽÄĩ": 6820,
      "Ġprzegra": 6821,
      "ĠUkrainy": 6822,
      "ĠDziÅĽ": 6823,
      "Ġtrudne": 6824,
      "Ġplanowa": 6825,
      "Ġznie": 6826,
      "Ġweekend": 6827,
      "rÃ³bowaÄĩ": 6828,
      "czami": 6829,
      "doby": 6830,
      "Ġprzo": 6831,
      "decy": 6832,
      "ĠFirma": 6833,
      "Å¼liwoÅĽÄĩ": 6834,
      "ĠCena": 6835,
      "Ġzez": 6836,
      "Ġoprogramowania": 6837,
      "Ġrezerwacji": 6838,
      "ĠWY": 6839,
      "Ġpotrzeba": 6840,
      "ĠAnna": 6841,
      "Ġawar": 6842,
      "ĠczegoÅĽ": 6843,
      "Ġwykonany": 6844,
      "dziesiÄħ": 6845,
      "tkach": 6846,
      "brzy": 6847,
      "cek": 6848,
      "Dar": 6849,
      "ĠuÅĤatwia": 6850,
      "ĠOprÃ³cz": 6851,
      "dnik": 6852,
      "Ġklas": 6853,
      "Ġkara": 6854,
      "ĠwspÃ³lnie": 6855,
      "ĠniezaleÅ¼nie": 6856,
      "ĠtÅĤuszcz": 6857,
      "Ġczekola": 6858,
      "ĠNF": 6859,
      "Ġnastola": 6860,
      "Ġinnej": 6861,
      "Ġ09": 6862,
      "Ġzmu": 6863,
      "Ġfla": 6864,
      "ĠwyglÄħ": 6865,
      "xx": 6866,
      "owani": 6867,
      "owuje": 6868,
      "tywy": 6869,
      "trzeÄĩ": 6870,
      "Ġpsa": 6871,
      "Ġprojekty": 6872,
      "Ġkompleks": 6873,
      "Ġbiura": 6874,
      "rzyna": 6875,
      "ĠKe": 6876,
      "bla": 6877,
      "ĠWielkiej": 6878,
      "ĠlistÄĻ": 6879,
      "Ġjeli": 6880,
      "kija": 6881,
      "Ġszeroki": 6882,
      "ĠtytuÅĤu": 6883,
      "iÄĻkszoÅĽÄĩ": 6884,
      "43": 6885,
      "Ġhiszpa": 6886,
      "Ġodchu": 6887,
      "Ġilu": 6888,
      "Ġharmo": 6889,
      "cko": 6890,
      "ruje": 6891,
      "Ġszanse": 6892,
      "Ġlos": 6893,
      "Ġtrener": 6894,
      "ponu": 6895,
      "ÅĦstwu": 6896,
      "lenda": 6897,
      "ĠwielkoÅĽci": 6898,
      "Dlaczego": 6899,
      "ĠpeÅĤno": 6900,
      "Ġmiast": 6901,
      "Ġerotyczne": 6902,
      "ĠfunkcjÄĻ": 6903,
      "ĠdaÄĩ": 6904,
      "Ġplasti": 6905,
      "Ġutru": 6906,
      "rzeniem": 6907,
      "ĠPubli": 6908,
      "dziale": 6909,
      "ĠzastÄĻp": 6910,
      "szeni": 6911,
      "ĠdÅĤugoÅĽci": 6912,
      "wien": 6913,
      "Ġnowoczesne": 6914,
      "misja": 6915,
      "Ġliczne": 6916,
      "Ġminera": 6917,
      "Ġarchite": 6918,
      "Ġ400": 6919,
      "Ġpodstawowych": 6920,
      "ĠpierwszÄħ": 6921,
      "Ġnieprzy": 6922,
      "Ġbrutto": 6923,
      "ĠprzestrzeÅĦ": 6924,
      "ĠkoÅĦc": 6925,
      "Ġmistrzo": 6926,
      "ĠPodob": 6927,
      "Ġemail": 6928,
      "ĠpoÅĤowie": 6929,
      "Ġodcie": 6930,
      "Podsu": 6931,
      "Ġ48": 6932,
      "toria": 6933,
      "ĠjÄĻzyku": 6934,
      "Ġmiejscem": 6935,
      "Ġinfrastru": 6936,
      "ĠmÅĤodzieÅ¼y": 6937,
      "Ġodz": 6938,
      "dniu": 6939,
      "Ġanaliz": 6940,
      "Ġinternecie": 6941,
      "Ġcech": 6942,
      "media": 6943,
      "Ġpos": 6944,
      "Ġpotrzebujesz": 6945,
      "GA": 6946,
      "Ġidealny": 6947,
      "ĠDom": 6948,
      "ĠÅĽnie": 6949,
      "ĠchÅĤopa": 6950,
      "Ġchory": 6951,
      "Ġmomentu": 6952,
      "xi": 6953,
      "uf": 6954,
      "Ġremont": 6955,
      "Liczba": 6956,
      "Ġkontek": 6957,
      "ĠumÃ³w": 6958,
      "2017": 6959,
      "ĠwÅĤaÅĽciwie": 6960,
      "dnoÅĽÄĩ": 6961,
      "ĠumowÄĻ": 6962,
      "ĠpokÃ³j": 6963,
      "ulkan": 6964,
      "Ġspad": 6965,
      "58": 6966,
      "ĠobsÅĤuga": 6967,
      "ĠKlu": 6968,
      "Ġac": 6969,
      "Ġklienci": 6970,
      "Ġpolu": 6971,
      "Ġmoment": 6972,
      "ĠdrogÄħ": 6973,
      "zz": 6974,
      "Ġtransakcji": 6975,
      "ĠwyÅĽwietleÅĦ": 6976,
      "ĠZosta": 6977,
      "Ġdzielni": 6978,
      "ÅĽre": 6979,
      "wkÄĻ": 6980,
      "Å¼yÅĤa": 6981,
      "Ġspod": 6982,
      "chodniej": 6983,
      "win": 6984,
      "Ġeki": 6985,
      "CIE": 6986,
      "ĠWÅĽrÃ³d": 6987,
      "Äĩmi": 6988,
      "ĠzrozumieÄĩ": 6989,
      "ĠÅ¼adnego": 6990,
      "ĠpielÄĻgnacji": 6991,
      "Ġinni": 6992,
      "Ġatrakcji": 6993,
      "https": 6994,
      "Ġdyspozycji": 6995,
      "Ġwykaza": 6996,
      "MI": 6997,
      "tnia": 6998,
      "dor": 6999,
      "ĠÅ¼oÅĤnie": 7000,
      "rant": 7001,
      "Ġprzeja": 7002,
      "ĠTre": 7003,
      "ĠsÅĤuÅ¼Äħ": 7004,
      "czÄħcy": 7005,
      "rowo": 7006,
      "Ġpola": 7007,
      "ĠGminy": 7008,
      "Doda": 7009,
      "ĠMuzeum": 7010,
      "Ġano": 7011,
      "Ġtabli": 7012,
      "ĠkwotÄĻ": 7013,
      "ĠMichaÅĤ": 7014,
      "Ġopis": 7015,
      "Ġrodzaje": 7016,
      "Ġpracownicy": 7017,
      "ĠgÄĻ": 7018,
      "Ġwiemy": 7019,
      "Ġspecyfi": 7020,
      "Ġmetod": 7021,
      "Ġreklam": 7022,
      "zajem": 7023,
      "ĠWojcie": 7024,
      "Ġdzwo": 7025,
      "Ġmacie": 7026,
      "ĠTwojÄħ": 7027,
      "ĠlodÃ³w": 7028,
      "nowu": 7029,
      "ĠproducentÃ³w": 7030,
      "Ġkorzystanie": 7031,
      "ĠPolskiego": 7032,
      "Ġstanowiska": 7033,
      "Ġzapewni": 7034,
      "ĠrÃ³wnie": 7035,
      "Ġrekru": 7036,
      "Ġszan": 7037,
      "Å¼onego": 7038,
      "rÄħz": 7039,
      "tis": 7040,
      "ĠzawodnikÃ³w": 7041,
      "stycznym": 7042,
      "Ġszukasz": 7043,
      "Ġapte": 7044,
      "Ġ198": 7045,
      "cial": 7046,
      "Ġfabry": 7047,
      "Ġcechy": 7048,
      "Ġzakres": 7049,
      "Ġkawy": 7050,
      "ĠstaÅĤ": 7051,
      "Ġsamodzielnie": 7052,
      "Ġswoimi": 7053,
      "ĠDziaÅĤa": 7054,
      "ms": 7055,
      "gor": 7056,
      "ĠrÃ³": 7057,
      "ĠaranÅ¼a": 7058,
      "padÃ³w": 7059,
      "ĠbudowÄĻ": 7060,
      "Ġprzycisk": 7061,
      "korzyst": 7062,
      "ĠÅĽnia": 7063,
      "ĠStre": 7064,
      "ĠPowie": 7065,
      "ĠwÅĤasnym": 7066,
      "kcjÄĻ": 7067,
      "ĠtowarÃ³w": 7068,
      "Ġkonsulta": 7069,
      "ĠpoczÄħtek": 7070,
      "Ġwchodzi": 7071,
      "Ġnieprze": 7072,
      "ĠnajmÅĤod": 7073,
      "ĠochronÄĻ": 7074,
      "jowe": 7075,
      "Ġuszkodzenia": 7076,
      "ĠnastÄħpi": 7077,
      "Ġprokura": 7078,
      "ĠÅĽla": 7079,
      "Ġzago": 7080,
      "dziesz": 7081,
      "Ġakcesoria": 7082,
      "ĠpodjÄĻ": 7083,
      "ĠÅĽpie": 7084,
      "Ġuzasa": 7085,
      "Fa": 7086,
      "Ġ00": 7087,
      "Ġklubu": 7088,
      "Ġura": 7089,
      "nieÅĦ": 7090,
      "Ġnaru": 7091,
      "ĠwyraÅ¼a": 7092,
      "Ġkarie": 7093,
      "gres": 7094,
      "tco": 7095,
      "ĠrÃ³Å¼ni": 7096,
      "Ġqu": 7097,
      "wami": 7098,
      "ĠDro": 7099,
      "WÅĤa": 7100,
      "Odpowie": 7101,
      "Ġprzekracza": 7102,
      "Sto": 7103,
      "Ġrady": 7104,
      "ĠpowiÄħza": 7105,
      "ĠtaÅĦ": 7106,
      "ĠÅ¼ywnoÅĽci": 7107,
      "Ġwybierz": 7108,
      "obi": 7109,
      "Ġkot": 7110,
      "Ġcukru": 7111,
      "rzÄħdzenia": 7112,
      "Ġosa": 7113,
      "Ġwczoraj": 7114,
      "ĠdolarÃ³w": 7115,
      "Ġrano": 7116,
      "OWY": 7117,
      "Ġprowadzenie": 7118,
      "lle": 7119,
      "Ġgor": 7120,
      "niak": 7121,
      "Ġkultura": 7122,
      "ĠznajomoÅĽci": 7123,
      "Ġcelach": 7124,
      "lerii": 7125,
      "niesienia": 7126,
      "habili": 7127,
      "sco": 7128,
      "ĠBydgo": 7129,
      "lacje": 7130,
      "ĠuÅ¼yÄĩ": 7131,
      "Ġpotwierdza": 7132,
      "ĠAna": 7133,
      "ĠÄĩwiczenia": 7134,
      "Ġprosimy": 7135,
      "ĠRodzi": 7136,
      "ody": 7137,
      "Ġkonferencji": 7138,
      "die": 7139,
      "ink": 7140,
      "spoli": 7141,
      "lip": 7142,
      "tent": 7143,
      "Ġwielkie": 7144,
      "Ġmotyw": 7145,
      "Ġwyco": 7146,
      "ĠStowarzy": 7147,
      "CIA": 7148,
      "cjonu": 7149,
      "Warto": 7150,
      "Sza": 7151,
      "ĠÅļrod": 7152,
      "ĠzasiÄĻ": 7153,
      "Ġwakacje": 7154,
      "Ġstali": 7155,
      "mium": 7156,
      "Ġnetto": 7157,
      "Ġroczni": 7158,
      "ĠfanÃ³w": 7159,
      "Ġobszarze": 7160,
      "Ġogromne": 7161,
      "ĠmontaÅ¼u": 7162,
      "ĠPS": 7163,
      "ĠpracowaÄĩ": 7164,
      "ĠOÅĽ": 7165,
      "Ġogranicza": 7166,
      "metr": 7167,
      "ĠwojewÃ³dztwa": 7168,
      "ĠÅĽrodku": 7169,
      "Ġogrod": 7170,
      "ĠWykona": 7171,
      "Ġwspomina": 7172,
      "znacza": 7173,
      "fera": 7174,
      "ĠZwiÄħz": 7175,
      "ĠukÅĤada": 7176,
      "SprawdÅº": 7177,
      "Ġti": 7178,
      "ĠmiÅĤoÅĽ": 7179,
      "Ġkomentarz": 7180,
      "Ġrekor": 7181,
      "Ġpacjent": 7182,
      "Ġprezydent": 7183,
      "Ġmoto": 7184,
      "ĠPK": 7185,
      "czonego": 7186,
      "PL": 7187,
      "Ã³rek": 7188,
      ");": 7189,
      "ĠTer": 7190,
      "Ġzba": 7191,
      "Ġkore": 7192,
      "Ġ2000": 7193,
      "Ġuchwy": 7194,
      "towym": 7195,
      "ĠUSD": 7196,
      "waÅĤo": 7197,
      "Ġspiny": 7198,
      "Ġmodu": 7199,
      "Ġkonsumen": 7200,
      "Czas": 7201,
      "Ġrezy": 7202,
      "ĠFundu": 7203,
      "Ġwzmacnia": 7204,
      "ĠTrzeba": 7205,
      "Ġuniwersa": 7206,
      "Ġchrze": 7207,
      "Ġprzechowywania": 7208,
      "szona": 7209,
      "hone": 7210,
      "pion": 7211,
      "JÄĺ": 7212,
      "Ġ(...)": 7213,
      "Ġzali": 7214,
      "ĠtuÅ¼": 7215,
      "ĠZÅĤo": 7216,
      "tce": 7217,
      "ĠdokonaÄĩ": 7218,
      "Ġpotrzebuje": 7219,
      "ĠUÅ¼ytk": 7220,
      "ĠTwoja": 7221,
      "Ġzamieszka": 7222,
      "ĠokreÅĽliÄĩ": 7223,
      "koje": 7224,
      "kowanych": 7225,
      "57": 7226,
      "Ġsing": 7227,
      "ciar": 7228,
      "ĠSystem": 7229,
      "ĠuÅ¼ywane": 7230,
      "Ġwio": 7231,
      "ĠartykuÅĤÃ³w": 7232,
      "ĠDzieci": 7233,
      "Ġzrozu": 7234,
      "41": 7235,
      "gowe": 7236,
      "Ġtabe": 7237,
      "ĠwiÄĻkszej": 7238,
      "Ġwyklu": 7239,
      "Ġdedy": 7240,
      "nina": 7241,
      "ĠCzytaj": 7242,
      "ĠnastÄĻpujÄħce": 7243,
      "ĠZdrowia": 7244,
      "Ġrozmiar": 7245,
      "ZA": 7246,
      "Ġzakaz": 7247,
      "test": 7248,
      "Ġpanie": 7249,
      "unki": 7250,
      "menda": 7251,
      "ĠogÃ³lno": 7252,
      "Ġkurs": 7253,
      "ĠÅĽwieÅ¼y": 7254,
      "kaÅ¼": 7255,
      "ĠprzejÅĽÄĩ": 7256,
      "ĠcaÅĤoÅĽÄĩ": 7257,
      "linar": 7258,
      "dztwo": 7259,
      "dawca": 7260,
      "ĠciÄħgle": 7261,
      "dziemy": 7262,
      "Ġzachowania": 7263,
      "Ġstosowanie": 7264,
      "Ġzwrot": 7265,
      "Ġzer": 7266,
      "Ġbile": 7267,
      "Ġinstytucji": 7268,
      "ĠistniejÄħ": 7269,
      "puszcz": 7270,
      "kup": 7271,
      "ĠMÄĻ": 7272,
      "ĠopÅĤaty": 7273,
      "ĠHD": 7274,
      "Ġokna": 7275,
      "Ġklient": 7276,
      "Autor": 7277,
      "Pu": 7278,
      "ĠzachowaÄĩ": 7279,
      "ĠNew": 7280,
      "Ġbab": 7281,
      "niny": 7282,
      "Op": 7283,
      "2022": 7284,
      "Ġgospoda": 7285,
      "JuÅ¼": 7286,
      "ĠBet": 7287,
      "Ġpublicznych": 7288,
      "ĠpopeÅĤ": 7289,
      "ĠKsiÄĻ": 7290,
      "rent": 7291,
      "skimi": 7292,
      "praszam": 7293,
      "ĠNIE": 7294,
      "iusz": 7295,
      "Ġwoje": 7296,
      "ĠWrocÅĤawiu": 7297,
      "Ġtowarzyskie": 7298,
      "ĠPolacy": 7299,
      "Ġnume": 7300,
      "ĠspÃ³": 7301,
      "ĠIV": 7302,
      "Ġstacji": 7303,
      "ĠowocÃ³w": 7304,
      "ĠodlegÅĤoÅĽci": 7305,
      "Ġlekarzy": 7306,
      "stÄħpiÄĩ": 7307,
      "Ġprzyby": 7308,
      "daje": 7309,
      "ĠgÅĤÃ³wnych": 7310,
      "ĠwÄħtro": 7311,
      "ĠspoÅĤecznoÅĽciowych": 7312,
      "ĠLED": 7313,
      "Ġdrugiego": 7314,
      "Ġzbu": 7315,
      "nowy": 7316,
      "Ġpana": 7317,
      "ĠczÅĤonkÃ³w": 7318,
      "Ġkim": 7319,
      "ĠtoÅ¼sa": 7320,
      "Ġzanieczy": 7321,
      "Sko": 7322,
      "Ġcyklu": 7323,
      "Ġdofinans": 7324,
      "ĠStani": 7325,
      "Ġmenu": 7326,
      "Åĥ": 7327,
      "Ġniezawo": 7328,
      "czÄħc": 7329,
      "ĠDia": 7330,
      "ĠdziesiÄĻ": 7331,
      "owicz": 7332,
      "ĠPolskiej": 7333,
      "Ġdotar": 7334,
      "ĠFesti": 7335,
      "zujÄħc": 7336,
      "ĠspecjalistÃ³w": 7337,
      "Ġsmaku": 7338,
      "html": 7339,
      "Ġodzyska": 7340,
      "ĠCu": 7341,
      "Ġprysz": 7342,
      "ther": 7343,
      "tui": 7344,
      "Ġdecyzja": 7345,
      "ding": 7346,
      "ĠopÅĤaca": 7347,
      "wni": 7348,
      "ĠIde": 7349,
      "Ġpoprawia": 7350,
      "walu": 7351,
      "Ġwymagane": 7352,
      "Ġpropon": 7353,
      "Ġnajszyb": 7354,
      "Ġfarma": 7355,
      "ĠprzeglÄħdarki": 7356,
      "Ġprzele": 7357,
      "spe": 7358,
      "dziela": 7359,
      "ĠPoznaniu": 7360,
      "ĠPolity": 7361,
      "Ġpato": 7362,
      "Ġnadmier": 7363,
      "Ġthis": 7364,
      "ĠWielko": 7365,
      "ĠwÅĤasny": 7366,
      "Ġ250": 7367,
      "gli": 7368,
      "taÅĦ": 7369,
      "Ġ120": 7370,
      "ĠpowinniÅĽmy": 7371,
      "obo": 7372,
      "rÃ³bu": 7373,
      "ĠdziaÅĤajÄħ": 7374,
      "Ġwykonywania": 7375,
      "munika": 7376,
      "Ġzaw": 7377,
      "Ġszt": 7378,
      "Ġtymi": 7379,
      "Ġpodstawowe": 7380,
      "Ġsubstancji": 7381,
      "ĠbudynkÃ³w": 7382,
      "UP": 7383,
      "Ġtale": 7384,
      "pÅĤyw": 7385,
      "Ġ38": 7386,
      "ĠsprawÄħ": 7387,
      "Ġgwarantuje": 7388,
      "Ġleczni": 7389,
      "Ġanalizy": 7390,
      "hen": 7391,
      "ĠCzer": 7392,
      "Ġoskar": 7393,
      "ĠprzypadkÃ³w": 7394,
      "ĠrÄĻki": 7395,
      "Ġgaze": 7396,
      "Ġzgroma": 7397,
      "polski": 7398,
      "ciera": 7399,
      "Ġtemperatura": 7400,
      "Ġ2009": 7401,
      "ĠPrac": 7402,
      "ĠwaÅ¼na": 7403,
      "ĠwymagajÄħ": 7404,
      "ĠMary": 7405,
      "kowcy": 7406,
      "Ġfree": 7407,
      "Ġmani": 7408,
      "ĠwaÅ¼ny": 7409,
      "ĠNasze": 7410,
      "tional": 7411,
      "Ġol": 7412,
      "ciÅĤa": 7413,
      "usa": 7414,
      "Ġlokalizacji": 7415,
      "Ġbiega": 7416,
      "Ġotrzymasz": 7417,
      "rzona": 7418,
      "ĠrzÄħdu": 7419,
      "rowane": 7420,
      "Ġzwal": 7421,
      "Ġwierzy": 7422,
      "ÅĽcija": 7423,
      "Ġglob": 7424,
      "ĠchcÄĻ": 7425,
      "CO": 7426,
      "ĠNowe": 7427,
      "Ġdyrek": 7428,
      "Ġalu": 7429,
      "Ġupa": 7430,
      "ĠwzÃ³r": 7431,
      "Ġwizu": 7432,
      "Å¼ynie": 7433,
      "MateriaÅĤ": 7434,
      "Ġkwota": 7435,
      "jciec": 7436,
      "ĠDzia": 7437,
      "ĠPy": 7438,
      "Ġopiera": 7439,
      "Ġutw": 7440,
      "rzÄħdzenie": 7441,
      "Ġtegoro": 7442,
      "czkÄħ": 7443,
      "Ġkroku": 7444,
      "Ġdanego": 7445,
      "Ġniko": 7446,
      "lowy": 7447,
      "Ġsatysfak": 7448,
      "welo": 7449,
      "kiety": 7450,
      "ĠodsÅĤo": 7451,
      "nianie": 7452,
      "czak": 7453,
      "ĠIP": 7454,
      "ĠtrudnoÅĽci": 7455,
      "ĠpÅĤu": 7456,
      "ĠwolnoÅĽci": 7457,
      "Ġzdarza": 7458,
      "Ġzysku": 7459,
      "Ġwizer": 7460,
      "Ġinterpre": 7461,
      "mem": 7462,
      "kowaniu": 7463,
      "Â®": 7464,
      "taÅĤ": 7465,
      "ĠPÃ³ÅĤ": 7466,
      "her": 7467,
      "Ġtwarz": 7468,
      "Ġfrom": 7469,
      "ĠdziaÅĤaÄĩ": 7470,
      "Ġkoja": 7471,
      "Ġbonusy": 7472,
      "Ġwydania": 7473,
      "ĠsytuacjÄĻ": 7474,
      "stwem": 7475,
      "ĠUniwersytetu": 7476,
      "ĠzdobyÄĩ": 7477,
      "ĠzakupÃ³w": 7478,
      "66": 7479,
      "Ġrowe": 7480,
      "ÅĽlij": 7481,
      "Hi": 7482,
      "Ġbazie": 7483,
      "ĠSpoÅĤe": 7484,
      "roczy": 7485,
      "ĠwÃ³z": 7486,
      "Mu": 7487,
      "ĠsieÄĩ": 7488,
      "Ġwyborem": 7489,
      "Ġzmiana": 7490,
      "Ġtrakt": 7491,
      "Ġzobacz": 7492,
      "czonej": 7493,
      "Ġmediach": 7494,
      "Aktu": 7495,
      "Ġdodatek": 7496,
      "Ġwersja": 7497,
      "GB": 7498,
      "iÃ³w": 7499,
      "Ġtech": 7500,
      "Ġodde": 7501,
      "Ġrozmowie": 7502,
      "Ġcukrzy": 7503,
      "bez": 7504,
      "EST": 7505,
      "Ġmasy": 7506,
      "rebr": 7507,
      "fal": 7508,
      "ĠnawilÅ¼a": 7509,
      "vie": 7510,
      "Ġsklepy": 7511,
      "ciÄħgniÄĻ": 7512,
      "Ġznany": 7513,
      "Ġhormo": 7514,
      "ĠksiÄħÅ¼ek": 7515,
      "rÄħg": 7516,
      "Ġwarst": 7517,
      "vel": 7518,
      "termin": 7519,
      "ĠdzieÄĩmi": 7520,
      "Ġkolekcji": 7521,
      "Ġprzew": 7522,
      "nitar": 7523,
      "Ġakty": 7524,
      "ĠPT": 7525,
      "ĠzgodÄĻ": 7526,
      "ilka": 7527,
      "ĠNet": 7528,
      "ĠPier": 7529,
      "Ġtj": 7530,
      "Ġrozli": 7531,
      "Ġproblemem": 7532,
      "kowska": 7533,
      "gÅĤoÅĽÄĩ": 7534,
      "ĠGi": 7535,
      "Ġinfek": 7536,
      "sper": 7537,
      "ĠNiemcy": 7538,
      "Ġwczes": 7539,
      "ĠKli": 7540,
      "Ġchcieli": 7541,
      "dliwoÅĽci": 7542,
      "ĠWsp": 7543,
      "iar": 7544,
      "jon": 7545,
      "ĠDarmowe": 7546,
      "rodÄĻ": 7547,
      "Äħd": 7548,
      "Ġupew": 7549,
      "Ġemocji": 7550,
      "nowe": 7551,
      "neÅĽ": 7552,
      "ĠMedy": 7553,
      "Ġpodstawy": 7554,
      "ĠPara": 7555,
      "Ġpopro": 7556,
      "ĠgÅĤÃ³wnej": 7557,
      "Ġoszu": 7558,
      "ĠZapew": 7559,
      "Ġtajemni": 7560,
      "ĠsÄĻ": 7561,
      "Ġprywatne": 7562,
      "Ġwszech": 7563,
      "ktuj": 7564,
      "Ġbiznesu": 7565,
      "chÅĤo": 7566,
      "ĠutrzymaÄĩ": 7567,
      "Ġkonstrukcji": 7568,
      "Ġsmu": 7569,
      "ptowa": 7570,
      "Dodatk": 7571,
      "ĠprzedsiÄĻbiorstwa": 7572,
      "Be": 7573,
      "Ð²": 7574,
      "Ġnajlepszym": 7575,
      "ĠOli": 7576,
      "Ġczuj": 7577,
      "Ġpartnera": 7578,
      "ĠDie": 7579,
      "Ġtermo": 7580,
      "Ġoleju": 7581,
      "ĠgÅĤÃ³wnym": 7582,
      "Ġerotyczny": 7583,
      "Ġdanej": 7584,
      "lena": 7585,
      "ĠKR": 7586,
      "Ġspek": 7587,
      "Ġabsolu": 7588,
      "Ġintera": 7589,
      "Ġposie": 7590,
      "bierze": 7591,
      "ĠzdolnoÅĽci": 7592,
      "ction": 7593,
      "Ġrandkowe": 7594,
      "Ġpozby": 7595,
      "Ġwieczo": 7596,
      "ĠogrÃ³d": 7597,
      "ĠGrzego": 7598,
      "ĠokazaÅĤo": 7599,
      "Ġskuteczne": 7600,
      "ĠimiÄĻ": 7601,
      "Ġrodzice": 7602,
      "Ġ75": 7603,
      "dzki": 7604,
      "piec": 7605,
      "ĠmiesiÄħca": 7606,
      "Ġserdecznie": 7607,
      "takt": 7608,
      "ĠbieÅ¼Äħco": 7609,
      "Ġwymiany": 7610,
      "Ġout": 7611,
      "ĠMer": 7612,
      "ĠsÄħd": 7613,
      "ĠAG": 7614,
      "ĠpomagajÄħ": 7615,
      "Ã³ze": 7616,
      "Ġwizyty": 7617,
      "ĠBru": 7618,
      "ĠoglÄħdaÄĩ": 7619,
      "ĠzakoÅĦczeniu": 7620,
      "IV": 7621,
      "Ġsesji": 7622,
      ".âĢĿ": 7623,
      "ĠPrezyden": 7624,
      "Ġkwestia": 7625,
      "miona": 7626,
      "niejszÄħ": 7627,
      "Ġposze": 7628,
      "Ġleczeniu": 7629,
      "Ġautomatycznie": 7630,
      "towaÅĤa": 7631,
      "daniem": 7632,
      "ĠWaÅ¼ne": 7633,
      "ĠtreÅĽÄĩ": 7634,
      "ĠMal": 7635,
      "niowych": 7636,
      "logicznej": 7637,
      "ĠBel": 7638,
      "Ġprzygotowy": 7639,
      "Ġdotk": 7640,
      "Ġwdro": 7641,
      "ĠÅ¼ona": 7642,
      "Å¼nej": 7643,
      "tacza": 7644,
      "lista": 7645,
      "Ġzasadzie": 7646,
      "Ġoczyszcza": 7647,
      "ĠokolicznoÅĽci": 7648,
      "IL": 7649,
      "ĠponiÅ¼": 7650,
      "Ġhigie": 7651,
      "ĠÃ": 7652,
      "ĠPoÅ¼yczka": 7653,
      "zdrawiam": 7654,
      "Wyso": 7655,
      "DA": 7656,
      "ĠTele": 7657,
      "ĠÅĤazienki": 7658,
      "Ġgruczo": 7659,
      "jsce": 7660,
      "78": 7661,
      "Ġzbro": 7662,
      "Ġmusie": 7663,
      "ĠmieszkaÅĦcy": 7664,
      "Ġwaria": 7665,
      "ĠprzeglÄħda": 7666,
      "ODO": 7667,
      "ÅĤgorza": 7668,
      "Ġwyp": 7669,
      "Ġstrategii": 7670,
      "ĠosobÄĻ": 7671,
      "lowej": 7672,
      "Ġuwielbia": 7673,
      "ĠsÄħsie": 7674,
      "szyÅĤ": 7675,
      "Ġpublicznej": 7676,
      "Ġdokumenty": 7677,
      "Ġsamych": 7678,
      "Ġspotkaniu": 7679,
      "ĠbÅĤÄħd": 7680,
      "wicza": 7681,
      "Ġkoniecznie": 7682,
      "Ġplanu": 7683,
      "ĠkogoÅĽ": 7684,
      "ĠSpi": 7685,
      "SO": 7686,
      "twar": 7687,
      "Ġrule": 7688,
      "Ġsmak": 7689,
      "ĠRzesz": 7690,
      "Ġbik": 7691,
      "stawienie": 7692,
      "65": 7693,
      "ĠpoczÄħtk": 7694,
      "Ġdieta": 7695,
      "ĠEner": 7696,
      "Ġbadanie": 7697,
      "ĠsÅĤuÅ¼by": 7698,
      "ĠðŁĺ": 7699,
      "ĠpoinformowaÅĤ": 7700,
      "Ġalternatyw": 7701,
      "szaÅĤ": 7702,
      "Ġperso": 7703,
      "Ġemocje": 7704,
      "Ġkampanii": 7705,
      "zienia": 7706,
      "ĠsÅĤuÅ¼y": 7707,
      "stycznÄħ": 7708,
      "ĠMak": 7709,
      "Ġzloka": 7710,
      "ÅĤama": 7711,
      "ANIE": 7712,
      "wione": 7713,
      "meld": 7714,
      "ĠPrywa": 7715,
      "Ġodnale": 7716,
      "zor": 7717,
      "minowa": 7718,
      "Ġfesti": 7719,
      "Ġterapii": 7720,
      "Ġfunkcjonowania": 7721,
      "Ġbroni": 7722,
      "arki": 7723,
      "Ġprocesie": 7724,
      "ĠkolorÃ³w": 7725,
      "ĠÅĽwiadczenia": 7726,
      "Ġwodo": 7727,
      "Ġpokoi": 7728,
      "ĠprzyszÅĤoÅĽÄĩ": 7729,
      "pomnia": 7730,
      "paÄĩ": 7731,
      "Ġrestauracji": 7732,
      "Ġstaran": 7733,
      "ĠWybierz": 7734,
      "nnie": 7735,
      "ĠprogramÃ³w": 7736,
      "Ġzapla": 7737,
      "tele": 7738,
      "ĠzadÅĤu": 7739,
      "Ġkonferen": 7740,
      "ĠÅºrÃ³dÅĤa": 7741,
      "Ġgrupie": 7742,
      "Ġbakter": 7743,
      "strzyma": 7744,
      "rÃ³wnowa": 7745,
      "ĠpoprawiÄĩ": 7746,
      "Ġpras": 7747,
      "ĠokreÅĽlonych": 7748,
      "ĠKsiÄħ": 7749,
      "ĠroÅĽliny": 7750,
      "Or": 7751,
      "Ġwidzenia": 7752,
      "Ġklientom": 7753,
      "Ġregiona": 7754,
      "ĠrobiÄħ": 7755,
      "Ġsportowe": 7756,
      "lary": 7757,
      "ĠstaÅĤy": 7758,
      "ĠSkar": 7759,
      "Ġdomowe": 7760,
      "Ġwenty": 7761,
      "ĠChoÄĩ": 7762,
      "ĠMicro": 7763,
      "Ġkliknij": 7764,
      "ĠJoh": 7765,
      "ĠKredyt": 7766,
      "rki": 7767,
      "Ġlogo": 7768,
      "Dy": 7769,
      "lowych": 7770,
      "Cze": 7771,
      "ĠGdzie": 7772,
      "iado": 7773,
      "Ġpil": 7774,
      "ĠnajlepszÄħ": 7775,
      "Ġzachowanie": 7776,
      "Ġograniczenia": 7777,
      "zwa": 7778,
      "Ġodse": 7779,
      "Ġlesbi": 7780,
      "Ġnego": 7781,
      "ktura": 7782,
      "jskie": 7783,
      "Ġnieba": 7784,
      "sÃ³b": 7785,
      "ÅĽliÅĤ": 7786,
      "ĠdostaÄĩ": 7787,
      "laÄĩ": 7788,
      "ĠwÅĤÃ³": 7789,
      "ĠrÃ³wnowa": 7790,
      "ĠzakÅĤady": 7791,
      "ĠszukaÄĩ": 7792,
      "Ġszybciej": 7793,
      "ĠciÄĻÅ¼ko": 7794,
      "ĠTea": 7795,
      "Ġznowu": 7796,
      "Ġlog": 7797,
      "rÃ³deÅĤ": 7798,
      "ĠPawÅĤa": 7799,
      "ĠJednym": 7800,
      "Ġprecyzyj": 7801,
      "chÄĻca": 7802,
      "ĠroÅĽnie": 7803,
      "Auto": 7804,
      "Ñı": 7805,
      "tanii": 7806,
      "Ġocho": 7807,
      "ĠstaÅĤa": 7808,
      "ĠbudÅ¼etu": 7809,
      "Ġ08": 7810,
      "Ġdobrych": 7811,
      "ĠnajwiÄĻcej": 7812,
      "Ġmama": 7813,
      "scort": 7814,
      "nerem": 7815,
      "ĠwkrÃ³tce": 7816,
      "Ġalbu": 7817,
      "czyÅĤy": 7818,
      "ĠzbiÃ³r": 7819,
      "ĠÅĽwiatÅĤo": 7820,
      "ĠcaÅĤa": 7821,
      "karz": 7822,
      "Ġkamer": 7823,
      "Ġkierowcy": 7824,
      "Ġbibliote": 7825,
      "lida": 7826,
      "hy": 7827,
      "Ġubo": 7828,
      "Â³": 7829,
      "Ġplu": 7830,
      "Ġsamopo": 7831,
      "Ġwitaminy": 7832,
      "ĠJaku": 7833,
      "Ġpost": 7834,
      "ĠzadbaÄĩ": 7835,
      "ĠAir": 7836,
      "ĠZawsze": 7837,
      "zosta": 7838,
      "Ġsportowych": 7839,
      "Ġbazy": 7840,
      "Ġfaktycznie": 7841,
      "niÄĻte": 7842,
      "fikacja": 7843,
      "Ġkompa": 7844,
      "jskich": 7845,
      "sch": 7846,
      "Ġwyszukiwar": 7847,
      "ĠAgen": 7848,
      "Ġpt": 7849,
      "regu": 7850,
      "seÅĤ": 7851,
      "Ġ2008": 7852,
      "Ġmodeli": 7853,
      "ctwie": 7854,
      "tniej": 7855,
      "Ġtygodnie": 7856,
      "widen": 7857,
      "zach": 7858,
      "Ġformu": 7859,
      "Ġdorad": 7860,
      "sorty": 7861,
      "ĠrzeczywiÅĽcie": 7862,
      "ĠHar": 7863,
      "towana": 7864,
      "ĠPrzygo": 7865,
      "ĠRÃ³w": 7866,
      "Du": 7867,
      "ĠosobÄħ": 7868,
      "ĠJas": 7869,
      "Ġpapier": 7870,
      "Ġpewien": 7871,
      "Ġwidzia": 7872,
      "sjÄĻ": 7873,
      "czonÄħ": 7874,
      "ĠczasÃ³w": 7875,
      "ĠpiÄĻciu": 7876,
      "Ġmro": 7877,
      "WedÅĤug": 7878,
      "ney": 7879,
      "ĠpowoÅĤa": 7880,
      "Ġpali": 7881,
      "kuj": 7882,
      "Ġwiek": 7883,
      "alnoÅĽci": 7884,
      "ĠSex": 7885,
      "____": 7886,
      "ĠTry": 7887,
      "RO": 7888,
      "ĠmÃ³wiÄĩ": 7889,
      "Ġstronach": 7890,
      "Ġstosowane": 7891,
      "ĠNasza": 7892,
      "ĠPolecam": 7893,
      "Ġsylwe": 7894,
      "Ġlokalnych": 7895,
      "Ġpewnym": 7896,
      "ĠobowiÄħzkÃ³w": 7897,
      "jÄĻciu": 7898,
      "ĠsprawiajÄħ": 7899,
      "Ġniczym": 7900,
      "ĠSÄħd": 7901,
      "ĠdrugÄħ": 7902,
      "Ġwykry": 7903,
      "Ġowoc": 7904,
      "Ġszybki": 7905,
      "ĠwÅĤaÅĽciciel": 7906,
      "ĠKor": 7907,
      "czniki": 7908,
      "Ġprzeznaczone": 7909,
      "ĠpÅĤ": 7910,
      "ĠzagroÅ¼enia": 7911,
      "zjo": 7912,
      "ĠRosja": 7913,
      "ĠInforma": 7914,
      "Ġrozegra": 7915,
      "Ġoparciu": 7916,
      "Ġmulti": 7917,
      "Ġporady": 7918,
      "Ġtekstu": 7919,
      "Ġasy": 7920,
      "ĠMikoÅĤa": 7921,
      "Ġznanych": 7922,
      "Kur": 7923,
      "ĠNiemiec": 7924,
      "ĠokrÄĻ": 7925,
      "ĠdÅºwiÄĻ": 7926,
      "Ġpowita": 7927,
      "racja": 7928,
      "ĠMora": 7929,
      "ley": 7930,
      "ĠusunÄħÄĩ": 7931,
      "Szy": 7932,
      "IX": 7933,
      "My": 7934,
      "54": 7935,
      "Ġder": 7936,
      "ĠuÅ¼ytku": 7937,
      "Ġskoro": 7938,
      "Ġsystemy": 7939,
      "rium": 7940,
      "ĠzgÅĤasza": 7941,
      "godne": 7942,
      "Ġnazwa": 7943,
      "ĠÅºle": 7944,
      "Ġwzor": 7945,
      "ĠÅºrÃ³deÅĤ": 7946,
      "Ġdodania": 7947,
      "ĠVulkan": 7948,
      "2023": 7949,
      "ĠdrogÄĻ": 7950,
      "Ġprzygotowanie": 7951,
      "ltai": 7952,
      "ZD": 7953,
      "ĠLublinie": 7954,
      "Ġowoce": 7955,
      "dii": 7956,
      "ĠpÅĤyty": 7957,
      "Ġtrafia": 7958,
      "Ġpolicji": 7959,
      "ĠMor": 7960,
      "SA": 7961,
      "Ġcha": 7962,
      "ĠMarcin": 7963,
      "ĠzÅĤoÅ¼yÄĩ": 7964,
      "ĠmaÅĤy": 7965,
      "Ġoczu": 7966,
      "BA": 7967,
      "Ġratu": 7968,
      "Ġetap": 7969,
      "Ġsyn": 7970,
      "resztÄħ": 7971,
      "mÃ³wiÄĩ": 7972,
      "tyfi": 7973,
      "WY": 7974,
      "PO": 7975,
      "ĠnaÅĤo": 7976,
      "Ġlink": 7977,
      "Ġfoto": 7978,
      ")||": 7979,
      "ĠpÃ³j": 7980,
      "Ġkosztuje": 7981,
      "TU": 7982,
      "Ġgroma": 7983,
      "ĠsÅĤod": 7984,
      "Ġwynaj": 7985,
      "kowaÅĤ": 7986,
      "Ġstrza": 7987,
      "Ġposi": 7988,
      "Ġzaburzenia": 7989,
      "ĠupÅĤy": 7990,
      "taÅ¼": 7991,
      "Ġkomplet": 7992,
      "ĠopÃ³Åº": 7993,
      "010": 7994,
      "raÅ¼a": 7995,
      "czest": 7996,
      "ĠlÄĻ": 7997,
      "Ġbasen": 7998,
      "Ġwykorzystanie": 7999,
      "ĠSzuka": 8000,
      "Ġgimna": 8001,
      "Ġpis": 8002,
      "dap": 8003,
      "ffi": 8004,
      "deks": 8005,
      "sÅĤucha": 8006,
      "godnienia": 8007,
      "ĠPia": 8008,
      "niania": 8009,
      "ĠGar": 8010,
      "ĠprzysÅĤu": 8011,
      "nkÄħ": 8012,
      "Ġodpoczy": 8013,
      "tuÅĤ": 8014,
      "ĠdodaÅĤ": 8015,
      "KaÅ¼dy": 8016,
      "Ġjednostki": 8017,
      "Ġwysokim": 8018,
      "ĠÅĽwiÄĻta": 8019,
      "bach": 8020,
      "Ġdochodzi": 8021,
      "luzy": 8022,
      "ĠOchro": 8023,
      "cle": 8024,
      "Ġakumula": 8025,
      "ĠpÃ³ÅĤnoc": 8026,
      "inte": 8027,
      "ĠzmÄĻ": 8028,
      "Ġczarny": 8029,
      "Å¼onej": 8030,
      "Ġukrai": 8031,
      "Ġzadzwo": 8032,
      "Ġsmo": 8033,
      "Ġrucha": 8034,
      "ĠmÅĤodzieÅ¼": 8035,
      "lis": 8036,
      "ĠparÄĻ": 8037,
      "CZY": 8038,
      "ĠÄĩwiczeÅĦ": 8039,
      "Ġskali": 8040,
      "Informacje": 8041,
      "ĠwyraÅºnie": 8042,
      "Ġtrwania": 8043,
      "asady": 8044,
      "ĠPL": 8045,
      "Ġmore": 8046,
      "Ġzgadza": 8047,
      "ĠCzas": 8048,
      "ĠIm": 8049,
      "Ġuka": 8050,
      "pen": 8051,
      "52": 8052,
      "Ġpandemii": 8053,
      "ĠokazaÄĩ": 8054,
      "lf": 8055,
      "wny": 8056,
      "ĠpomyÅĽ": 8057,
      "nÄĻÅĤy": 8058,
      "Ġprostitu": 8059,
      "ĠZjednoczonych": 8060,
      "ĠBro": 8061,
      "leria": 8062,
      "Ġedukacji": 8063,
      "Ġstale": 8064,
      "ĠChry": 8065,
      "ĠbÃ³lu": 8066,
      "ille": 8067,
      "ĠrÄħk": 8068,
      "Ġzag": 8069,
      "ĠksiÄħÅ¼ka": 8070,
      "Ġproducent": 8071,
      "Ġorganizm": 8072,
      "ĠpoÅĤudni": 8073,
      "Tra": 8074,
      "Ġpta": 8075,
      "ĠpowiedziaÅĤa": 8076,
      "ĠzbliÅ¼a": 8077,
      "ntem": 8078,
      "Ġprzetar": 8079,
      "ĠGospodar": 8080,
      "zjÄħ": 8081,
      "leb": 8082,
      "ĠÅĤatwy": 8083,
      "Ġatmosfery": 8084,
      "Ġprzebywa": 8085,
      "ĠÅĽciany": 8086,
      "ÅĦcÃ³w": 8087,
      "Ġnajnowsze": 8088,
      "Ġpl": 8089,
      "ĠwyÅ¼ej": 8090,
      "ĠpozostaÅĤych": 8091,
      "tero": 8092,
      "Ġokazuje": 8093,
      "Ġsprzyja": 8094,
      "ĠÅ¼adnej": 8095,
      "Ġkoncie": 8096,
      "Ġpolityki": 8097,
      "69": 8098,
      "Ġlapto": 8099,
      "Ġnaturalny": 8100,
      "zaleÅ¼nie": 8101,
      "Ġgospodarki": 8102,
      "lastname": 8103,
      "Strona": 8104,
      "Ġunij": 8105,
      "ĠmÃ³zgu": 8106,
      "ĠchciaÅĤa": 8107,
      "Ġ2024": 8108,
      "Ġklo": 8109,
      "ĠInternetu": 8110,
      "ĠpowodÃ³w": 8111,
      "Ġznajdziemy": 8112,
      "Ġmate": 8113,
      "faÅĤ": 8114,
      "dziÅĤy": 8115,
      "ĠobiektÃ³w": 8116,
      "owiedz": 8117,
      "ĠwygraÄĩ": 8118,
      "czom": 8119,
      "nkowe": 8120,
      "ĠwiÄħÅ¼e": 8121,
      "sznie": 8122,
      "ptowalu": 8123,
      "woz": 8124,
      "lla": 8125,
      "Ġstosuje": 8126,
      "Ġwoli": 8127,
      "ĠksztaÅĤt": 8128,
      "Ġmil": 8129,
      "jechaÄĩ": 8130,
      "ĠNiektÃ³re": 8131,
      "ĠPark": 8132,
      "Ġopcje": 8133,
      "Ġtygodnia": 8134,
      "Ġmakija": 8135,
      "dÅĤuÅ¼": 8136,
      "arka": 8137,
      "ÅĦcy": 8138,
      "Ġsukcesu": 8139,
      "Ġniemow": 8140,
      "Ġpublikacji": 8141,
      "Ġzamyka": 8142,
      "logiczny": 8143,
      "Ġtery": 8144,
      "ĠOpo": 8145,
      "ĠwaÅ¼nych": 8146,
      "ĠJÃ³ze": 8147,
      "Ġpomieszczenia": 8148,
      "dziÄĻk": 8149,
      "ĠAdministra": 8150,
      "ÅĦskÄħ": 8151,
      "Ry": 8152,
      "ĠFacebooku": 8153,
      "Ġspecjalnych": 8154,
      "ĠAgnie": 8155,
      "ĠcieszÄħ": 8156,
      "ĠzÄĻbÃ³w": 8157,
      "tia": 8158,
      "Fo": 8159,
      "Ġlegen": 8160,
      "Ġpobytu": 8161,
      "ĠHiszpa": 8162,
      "dzonego": 8163,
      "Ġtanie": 8164,
      "Ġportfe": 8165,
      "ĠÅĽrodowisko": 8166,
      "Ġsal": 8167,
      "Ġnatury": 8168,
      "wamy": 8169,
      "ĠzwrÃ³ci": 8170,
      "Cie": 8171,
      "OWA": 8172,
      "storia": 8173,
      "Dob": 8174,
      "Ġpromocje": 8175,
      "Ġtakimi": 8176,
      "zesa": 8177,
      "ĠpotrafiÄħ": 8178,
      "dziÅĤo": 8179,
      "Ġokresu": 8180,
      "don": 8181,
      "water": 8182,
      "ĠmiarÄĻ": 8183,
      "Szuka": 8184,
      "ĠWspÃ³ÅĤ": 8185,
      "ĠwspÃ³": 8186,
      "Ġwam": 8187,
      "szel": 8188,
      "ĠPoÅ¼yczki": 8189,
      "ĠÅĽciÄħ": 8190,
      "ĠkÄħtem": 8191,
      "ĠmÃ³wiÄħc": 8192,
      "Ġostatniej": 8193,
      "Ġwyborze": 8194,
      "ĠskÃ³ra": 8195,
      "liwie": 8196,
      "Dru": 8197,
      "Ġchroni": 8198,
      "ĠchwilÃ³wki": 8199,
      "Ġgabine": 8200,
      "Ġzaofer": 8201,
      "Ġsali": 8202,
      "Ġwykorzystywane": 8203,
      "Ġzwrotu": 8204,
      "Ġumowa": 8205,
      "ĠzwiÄħzek": 8206,
      "Ġserce": 8207,
      "twy": 8208,
      "Ġ=": 8209,
      "Ġbierze": 8210,
      "IM": 8211,
      "Ġogni": 8212,
      "Ġwykorzystu": 8213,
      "powtarz": 8214,
      "Ġreklama": 8215,
      "ĠBrytanii": 8216,
      "jska": 8217,
      "ĠczÅĤonk": 8218,
      "sÅĤuga": 8219,
      "ĠEwa": 8220,
      "Ġobcho": 8221,
      "Ġrol": 8222,
      "ĠrozpoczÄħÄĩ": 8223,
      "ĠNFZ": 8224,
      "oryte": 8225,
      "ĠTego": 8226,
      "Ġabo": 8227,
      "Ġzastosowania": 8228,
      "ĠUrzÄĻdu": 8229,
      "Ġinternetowa": 8230,
      "blem": 8231,
      "Ġdruga": 8232,
      "dago": 8233,
      "ĠwyposaÅ¼one": 8234,
      "Ġwykorzystuje": 8235,
      "Ġsuger": 8236,
      "ĠSek": 8237,
      "ĠmediÃ³w": 8238,
      "Ġklik": 8239,
      "Ð¼": 8240,
      "Ġprzysta": 8241,
      "Ġwszystkiego": 8242,
      "jski": 8243,
      "ĠproÅĽ": 8244,
      "ĠProjekt": 8245,
      "ĠÃ³w": 8246,
      "Å¼yser": 8247,
      "mentami": 8248,
      "ĠfirmÄħ": 8249,
      "ĠpiÄĻkna": 8250,
      "ĠAli": 8251,
      "chwy": 8252,
      "Ġoferu": 8253,
      "wskiej": 8254,
      "Ġtowaru": 8255,
      "nnÄħ": 8256,
      "ĠjÄĻzyk": 8257,
      "soft": 8258,
      "ĠuÅ¼ycia": 8259,
      "ĠdajÄħ": 8260,
      "68": 8261,
      "Ġnaturalnych": 8262,
      "ĠPozosta": 8263,
      "ĠBur": 8264,
      "ĠCom": 8265,
      "ĠAleksand": 8266,
      "ĠPas": 8267,
      "niaÄĩ": 8268,
      "Ġfigu": 8269,
      "Ġzwolnie": 8270,
      "IC": 8271,
      "ĠÅ¼yci": 8272,
      "Ġpierwo": 8273,
      "Ġoperacji": 8274,
      "ĠToru": 8275,
      "ĠbaweÅĤ": 8276,
      "xy": 8277,
      "towoltai": 8278,
      "ĠKaczy": 8279,
      "gy": 8280,
      ":)": 8281,
      "Ġgwiazd": 8282,
      "ĠwchodzÄħ": 8283,
      "ckÄħ": 8284,
      "Ġryb": 8285,
      "ĠskÃ³rze": 8286,
      "ĠjeÅº": 8287,
      "Ġodrzu": 8288,
      "Ġasorty": 8289,
      "Ġprzepis": 8290,
      "ktora": 8291,
      "szyÅĤa": 8292,
      "Ġodw": 8293,
      "Ġubezpieczenia": 8294,
      "tyna": 8295,
      "Ã³ki": 8296,
      "ĠÂ§": 8297,
      "ÅĦstwem": 8298,
      "rÃ³Å¼nic": 8299,
      "mul": 8300,
      "ĠuÅĤo": 8301,
      "DostÄĻp": 8302,
      "Ġlista": 8303,
      "Ġbrze": 8304,
      "byÅĽmy": 8305,
      "ĠzaÅĽwiad": 8306,
      "Kolor": 8307,
      "ĠIT": 8308,
      "ĠMiÄĻdzynarod": 8309,
      "2016": 8310,
      "Ġoferujemy": 8311,
      "Ġtowar": 8312,
      "Ġkierowni": 8313,
      "ĠKali": 8314,
      "Ġchirur": 8315,
      "lono": 8316,
      "Sze": 8317,
      "Ġsalon": 8318,
      "51": 8319,
      "Ġznaczenia": 8320,
      "Polska": 8321,
      "Zd": 8322,
      "ĠzaczÄħÅĤ": 8323,
      "ĠrodzajÃ³w": 8324,
      "Ġprofilu": 8325,
      "Ġszpitalu": 8326,
      "ĠIstnieje": 8327,
      "Ġtworzenie": 8328,
      "ĠstajÄħ": 8329,
      "ĠmojÄħ": 8330,
      "ĠPlus": 8331,
      "wziÄĻ": 8332,
      "loga": 8333,
      "Ġprezentuje": 8334,
      "Ġoby": 8335,
      "ĠwstÄĻp": 8336,
      "Ġstworzy": 8337,
      "knie": 8338,
      "roid": 8339,
      "Ġtryb": 8340,
      "ĠpiÄĻknie": 8341,
      "Ġzmianie": 8342,
      "ĠÅºrÃ³dÅĤo": 8343,
      "tegoria": 8344,
      "Ġwychowa": 8345,
      "Ġks": 8346,
      "Ġregionu": 8347,
      "przewo": 8348,
      "Ġsalonu": 8349,
      "Ġstres": 8350,
      "ĠdrÃ³g": 8351,
      "ĠstÃ³p": 8352,
      "ĠekspertÃ³w": 8353,
      "wna": 8354,
      "Ġunie": 8355,
      "Ġzmaga": 8356,
      "matyczne": 8357,
      "ĠReje": 8358,
      "lom": 8359,
      "czce": 8360,
      "lizacje": 8361,
      "ĠmuszÄĻ": 8362,
      "ĠobsÅĤugÄĻ": 8363,
      "wÃ³rz": 8364,
      "Ġkamie": 8365,
      "ata": 8366,
      "Ġpoczucie": 8367,
      "Ġkomentarzy": 8368,
      "ĠMarek": 8369,
      "Ġjab": 8370,
      "Ġliczy": 8371,
      "ĠGdaÅĦsk": 8372,
      "dzonej": 8373,
      "lacjÄĻ": 8374,
      "Ġskupia": 8375,
      "czeka": 8376,
      "Ġelasty": 8377,
      "ĠmÄĻÅ¼czyzny": 8378,
      "âĢľ": 8379,
      "Ġsilnika": 8380,
      "Ġuprze": 8381,
      "Ġnocleg": 8382,
      "Ġekspres": 8383,
      "Ġcharak": 8384,
      "czanie": 8385,
      "owne": 8386,
      "ĠskÅĤadzie": 8387,
      "ĠkoÅĤo": 8388,
      "Ġaspe": 8389,
      "53": 8390,
      "ĠofertÄħ": 8391,
      "Ġzawi": 8392,
      "ĠobecnoÅĽÄĩ": 8393,
      "ĠprzeszÅĤoÅĽci": 8394,
      "ĠBÄĻ": 8395,
      "Ġ37": 8396,
      "ĠÅĽrednio": 8397,
      "ĠPozy": 8398,
      "Ġzmy": 8399,
      "Ġlabora": 8400,
      "Ġwreszcie": 8401,
      "nowo": 8402,
      "Ġnogi": 8403,
      "Ġmarek": 8404,
      "wiga": 8405,
      "Ġinternetowy": 8406,
      "logicznego": 8407,
      "Ġniewiele": 8408,
      "tnio": 8409,
      "Ġpozyska": 8410,
      "ĠbezpÅĤatny": 8411,
      "Ġuwie": 8412,
      "ĠXV": 8413,
      "latek": 8414,
      "ĠchoÄĩby": 8415,
      "Ġmowa": 8416,
      "kÅĤ": 8417,
      "Ġwalce": 8418,
      "nkowo": 8419,
      "Ġprogno": 8420,
      "Ġlekarzem": 8421,
      "Ġpremier": 8422,
      "ĠWielka": 8423,
      "ĠUr": 8424,
      "ĠÅĽwiatowej": 8425,
      "ĠBonu": 8426,
      "ckpo": 8427,
      "Ġtrybie": 8428,
      "CzÄĻ": 8429,
      "cyjnymi": 8430,
      "ĠMusi": 8431,
      "skawi": 8432,
      "Ġprawnych": 8433,
      "Ġdyplo": 8434,
      "Ġkompeten": 8435,
      "Ġniedawno": 8436,
      "niosÅĤa": 8437,
      "Ġzabezpieczenia": 8438,
      "gÃ³lne": 8439,
      "mek": 8440,
      "Ġgwarancji": 8441,
      "ĠwyÅ¼sze": 8442,
      "miÄĩ": 8443,
      "ĠFrancji": 8444,
      "Ġobrazu": 8445,
      "ĠKana": 8446,
      "uth": 8447,
      "Ġnagie": 8448,
      "Ġwykorzystania": 8449,
      "wanej": 8450,
      "rodzi": 8451,
      "ĠPoÅĤu": 8452,
      "rin": 8453,
      "Ġszla": 8454,
      "Ġsytuacjach": 8455,
      "Ġwysoki": 8456,
      "nÄĻÅĤo": 8457,
      "Ġstopnia": 8458,
      "Ġobia": 8459,
      "pety": 8460,
      "ĠpoÅĤÄħczeniu": 8461,
      "Ġrehabili": 8462,
      "Ġdroga": 8463,
      "Ġnauczycieli": 8464,
      "Ġargu": 8465,
      "ĠRegi": 8466,
      "nis": 8467,
      "EG": 8468,
      "Ġwspom": 8469,
      "ĠwyglÄħdaÄĩ": 8470,
      "los": 8471,
      "Ġwyka": 8472,
      "Ġgranicy": 8473,
      "torze": 8474,
      "ela": 8475,
      "Ġzaplanowa": 8476,
      "ĠRozpo": 8477,
      "ÑĮ": 8478,
      "cjonowanie": 8479,
      "----": 8480,
      "Ġ;)": 8481,
      "akcep": 8482,
      "rasta": 8483,
      "ĠwspÃ³lnego": 8484,
      "ĠwspÃ³ÅĤpracÄĻ": 8485,
      "ĠmÃ³w": 8486,
      "ĠNic": 8487,
      "ĠpostaÄĩ": 8488,
      "rena": 8489,
      "Ap": 8490,
      "ĠKonkur": 8491,
      "Ġgracz": 8492,
      "lio": 8493,
      "ĠktÃ³remu": 8494,
      "ake": 8495,
      "ĠotrzymaÅĤ": 8496,
      "Ġustawienia": 8497,
      "Ġpowiatu": 8498,
      "warant": 8499,
      "ĠplaÅ¼y": 8500,
      "Ġkasynach": 8501,
      "Ġsnu": 8502,
      "Ġzaska": 8503,
      "chowe": 8504,
      "ĠspotkaÄĩ": 8505,
      "Ġrecenzji": 8506,
      "ĠopiniÄĻ": 8507,
      "Ġkory": 8508,
      "Ġzalog": 8509,
      "TR": 8510,
      "ndard": 8511,
      "Ġamator": 8512,
      "ĠZespo": 8513,
      "Ġzalety": 8514,
      "Ġpomimo": 8515,
      "ĠWtedy": 8516,
      "ĠTh": 8517,
      "Ġnowoczesnych": 8518,
      "wencji": 8519,
      "dzÄħc": 8520,
      "ĠÅĽli": 8521,
      "chnie": 8522,
      "Ġ2007": 8523,
      "ĠmiaÅĤem": 8524,
      "gresyw": 8525,
      "Ġpaznok": 8526,
      "Ġescort": 8527,
      "Ġkryptowalu": 8528,
      "ĠdoskonaÅĤe": 8529,
      "Ġczytaj": 8530,
      "Ġoczywi": 8531,
      "liwi": 8532,
      "czeÅĦstwo": 8533,
      "Ġpraktyce": 8534,
      "nastu": 8535,
      "Ġprzeznaczony": 8536,
      "Ġdyscy": 8537,
      "nnym": 8538,
      "dawcy": 8539,
      "ĠskoÅĦczy": 8540,
      "ĠspinÃ³w": 8541,
      "Ġzapalenia": 8542,
      "Ġwyszukiwania": 8543,
      "zienie": 8544,
      "cznika": 8545,
      "ĠdÅºwiÄĻk": 8546,
      "ĠskontaktowaÄĩ": 8547,
      "inu": 8548,
      "czycy": 8549,
      "Ġresz": 8550,
      "Ġwielka": 8551,
      "Ġ33": 8552,
      "Ġmistrz": 8553,
      "ĠgÅĤu": 8554,
      "ĠwÅĤadze": 8555,
      "Ġbutel": 8556,
      "ĠPaÅĦstwu": 8557,
      "ĠprywatnoÅĽci": 8558,
      "Ġminimum": 8559,
      "Ġsens": 8560,
      "ĠdziaÅĤki": 8561,
      "Ġprzeprowadza": 8562,
      "Ġstopy": 8563,
      "ĠSpa": 8564,
      "pospoli": 8565,
      "lski": 8566,
      "JÄĺCIA": 8567,
      "byÅĽ": 8568,
      "mierza": 8569,
      "ĠwiÄĻkszych": 8570,
      "ĠchrzeÅĽcija": 8571,
      "ĠogromnÄħ": 8572,
      "Ġutrzymania": 8573,
      "ĠbiÅ¼u": 8574,
      "rowie": 8575,
      "Ġgrozi": 8576,
      "ĠDra": 8577,
      "ĠByÅĤ": 8578,
      "ĠstudentÃ³w": 8579,
      "Ġodgrywa": 8580,
      "Ġreprezenta": 8581,
      "Ġpowiado": 8582,
      "Ġkalenda": 8583,
      "Gdzie": 8584,
      "ĠGda": 8585,
      "ĠÅĤaÅĦcu": 8586,
      "ĠzaÅĤÄħ": 8587,
      "Ġwan": 8588,
      "Ġdrzew": 8589,
      "ego": 8590,
      "ĠzmianÄĻ": 8591,
      "lory": 8592,
      "ĠInd": 8593,
      "ĠgÅĤÃ³wne": 8594,
      "ĠMagda": 8595,
      "char": 8596,
      "Ġmagazynie": 8597,
      "leniem": 8598,
      "Ġpracownik": 8599,
      "szÄĻdzie": 8600,
      "Ġdzieciom": 8601,
      "Å¼sze": 8602,
      "Ġtechnologie": 8603,
      "Ġdamskie": 8604,
      "ĠKorzysta": 8605,
      "ĠrozwiÄħ": 8606,
      "Ġwypada": 8607,
      "Ġpowietrze": 8608,
      "Ġekspery": 8609,
      "ĠwypÅĤat": 8610,
      "ĠKaro": 8611,
      "ĠNasz": 8612,
      "orii": 8613,
      "Ġranking": 8614,
      "Ġnajpopularniejszych": 8615,
      "ĠpoÅ¼yczek": 8616,
      "Ġwpis": 8617,
      "ĠArchi": 8618,
      "Ã¶": 8619,
      "Mam": 8620,
      "anu": 8621,
      "Podob": 8622,
      "Ġstarszych": 8623,
      "ĠDoda": 8624,
      "ress": 8625,
      "zur": 8626,
      "Ġinwestor": 8627,
      "ĠAt": 8628,
      "woli": 8629,
      "waÅ¼nie": 8630,
      "Ġniepowtarz": 8631,
      "Ġkonserwa": 8632,
      "Ġwychodzi": 8633,
      "niÅĤa": 8634,
      "Ġrozwa": 8635,
      "ĠmÅĤod": 8636,
      "ĠHy": 8637,
      "Ġwprowadzenie": 8638,
      "ÅĤoru": 8639,
      "rÃ³wna": 8640,
      "pom": 8641,
      "Ġwagi": 8642,
      "Ġdewelo": 8643,
      "Ġprzeci": 8644,
      "Ġ600": 8645,
      "ĠkrÃ³tko": 8646,
      "minie": 8647,
      "ĠzawierajÄħ": 8648,
      "skor": 8649,
      "Ġzacznie": 8650,
      "Ġ39": 8651,
      "Ġwymo": 8652,
      "Ġangielskiego": 8653,
      "Ġpartii": 8654,
      "ĠÅĽcian": 8655,
      "pora": 8656,
      "ĠprzedsiÄĻbiorcÃ³w": 8657,
      "cjom": 8658,
      "Ġgre": 8659,
      "Ġutrzymanie": 8660,
      "ĠsprÃ³bowaÄĩ": 8661,
      "ĠstudiÃ³w": 8662,
      "Ġkonkurs": 8663,
      "Ġinternetowego": 8664,
      "tri": 8665,
      "ĠporzÄħdku": 8666,
      "terem": 8667,
      "ĠudziaÅĤem": 8668,
      "Ġjezio": 8669,
      "Ġweb": 8670,
      "Wymiary": 8671,
      "Ġwidz": 8672,
      "ĠpowtÃ³": 8673,
      "ĠmÃ³c": 8674,
      "Ġkle": 8675,
      "ĠdÄħ": 8676,
      "rka": 8677,
      "niowy": 8678,
      "towÄħ": 8679,
      "Ġwielkim": 8680,
      "ĠCZ": 8681,
      "ĠKom": 8682,
      "lwen": 8683,
      "Ġmusieli": 8684,
      "Ġsposobu": 8685,
      "ĠInternecie": 8686,
      "ĠksztaÅĤcie": 8687,
      "ĠwpÅĤywu": 8688,
      "Ġkuchnia": 8689,
      "Ġjedzenie": 8690,
      "ĠChrystu": 8691,
      "Ġregionie": 8692,
      "Ġpropozycji": 8693,
      "ĠobowiÄħzek": 8694,
      "ĠkierowcÃ³w": 8695,
      "Ġdarm": 8696,
      "prawidÅĤ": 8697,
      "ĠMA": 8698,
      "MoÅ¼esz": 8699,
      "Ġgotowe": 8700,
      "dnak": 8701,
      "Å¼yli": 8702,
      "ĠFir": 8703,
      "ĠgodzinÄĻ": 8704,
      "ĠdziesiÄħ": 8705,
      "ĠzwiÄĻkszenie": 8706,
      "Ġatu": 8707,
      "jnej": 8708,
      "Loka": 8709,
      "ĠgieÅĤ": 8710,
      "Ġcharakteru": 8711,
      "Ġwaha": 8712,
      "gowych": 8713,
      "Ġnajcieka": 8714,
      "Ġplatformy": 8715,
      "ĠLas": 8716,
      "Ġsymboli": 8717,
      "Ġwybi": 8718,
      "nieniu": 8719,
      "Ġsamochody": 8720,
      "ÅĤowÄħ": 8721,
      "Ġulubi": 8722,
      "ore": 8723,
      "Ġitd": 8724,
      "ĠwielkÄħ": 8725,
      "ĠrÃ³Å¼nymi": 8726,
      "Ġzwyczaj": 8727,
      "Ġziemnia": 8728,
      "Ġkluczowych": 8729,
      "Ġwg": 8730,
      "Ġprzedszkola": 8731,
      "Ġopakowania": 8732,
      "ĠSpotka": 8733,
      "Ġslo": 8734,
      "ĠwyjÄħtkowy": 8735,
      "Ġpodaje": 8736,
      "ĠnajwiÄĻksze": 8737,
      "Ġszeroko": 8738,
      "Å¼liwe": 8739,
      "Ġcerami": 8740,
      "ÅĽlÄĻ": 8741,
      "dge": 8742,
      "nti": 8743,
      "cs": 8744,
      "Ġer": 8745,
      "Ġdecyduje": 8746,
      "Ġwsi": 8747,
      "ĠÅ¼u": 8748,
      "ĠÅ¼yje": 8749,
      "ĠLiczba": 8750,
      "Ġwidok": 8751,
      "Ġpragnie": 8752,
      "owaÅĤem": 8753,
      "ĠpodjÄħÄĩ": 8754,
      "ciaÅĤ": 8755,
      "Ġwzboga": 8756,
      "Ġnerw": 8757,
      "czysz": 8758,
      "Ġzasob": 8759,
      "Ġemi": 8760,
      "Ġodbiera": 8761,
      "ĠPraca": 8762,
      "gon": 8763,
      "ĠpozycjÄĻ": 8764,
      "ĠSA": 8765,
      "czono": 8766,
      "ĠrealizacjÄĻ": 8767,
      "nowsze": 8768,
      "rÄĻb": 8769,
      "Ġwarzyw": 8770,
      "ĠpowinieneÅĽ": 8771,
      "Ġserialu": 8772,
      "ĠNr": 8773,
      "ping": 8774,
      "ĠOznacza": 8775,
      "Ġtrzecie": 8776,
      "jechaÅĤ": 8777,
      "ĠstaÅĤe": 8778,
      "Ġwielki": 8779,
      "Ġpobu": 8780,
      "ĠMaria": 8781,
      "ĠodbyÅĤa": 8782,
      "Ġzegar": 8783,
      "iÄĻc": 8784,
      "lica": 8785,
      "nium": 8786,
      "Ġzarob": 8787,
      "Ġnagle": 8788,
      "Par": 8789,
      "pel": 8790,
      "ĠlubiÄħ": 8791,
      "Ġjapo": 8792,
      "Ġzatrudnienia": 8793,
      "ĠwyraÅº": 8794,
      "Ġciekawych": 8795,
      "ĠzapoznaÄĩ": 8796,
      "ĠPowsta": 8797,
      "Ġzm": 8798,
      "Ġmotory": 8799,
      "Ġpaliwa": 8800,
      "ans": 8801,
      "Mieszka": 8802,
      "Ġciekawy": 8803,
      "64": 8804,
      "UD": 8805,
      "Ġlokalu": 8806,
      "ĠszeÅĽÄĩ": 8807,
      "Ġpodu": 8808,
      "Ġcebu": 8809,
      "Ġet": 8810,
      "ĠpasaÅ¼er": 8811,
      "ĠcaÅĤo": 8812,
      "era": 8813,
      "zywania": 8814,
      "ĠBÃ³g": 8815,
      "dziesiÄħt": 8816,
      "Ġpowietrzu": 8817,
      "Ġaplikacja": 8818,
      "Ġakcja": 8819,
      "Ġreali": 8820,
      "ĠMedia": 8821,
      "Ġ55": 8822,
      "budowany": 8823,
      "ĠdÅĤugoÅĽÄĩ": 8824,
      "ĠRado": 8825,
      "mistrz": 8826,
      "Ġtransfer": 8827,
      "Å¼ny": 8828,
      "Ġzamawia": 8829,
      "yer": 8830,
      "ĠLoka": 8831,
      "Ġzostali": 8832,
      "Ġstomato": 8833,
      "siÄĻwziÄĻ": 8834,
      "Ġwieczorem": 8835,
      "ĠsÅĤuÅ¼b": 8836,
      "Ġokien": 8837,
      "Gru": 8838,
      "Ġpopularnych": 8839,
      "ham": 8840,
      "Ġpodobnych": 8841,
      "ĠApple": 8842,
      "westy": 8843,
      "ĠosiÄħgniÄĻcia": 8844,
      "ĠbrÄħz": 8845,
      "partament": 8846,
      "ĠjakiegoÅĽ": 8847,
      "Nowy": 8848,
      "Å¼onym": 8849,
      "ĠTVP": 8850,
      "Ġnew": 8851,
      "ĠprzedmiotÃ³w": 8852,
      "UT": 8853,
      "Ġtreningu": 8854,
      "Ġzesz": 8855,
      "biÄĻ": 8856,
      "ĠzrÃ³Å¼nic": 8857,
      "ĠkontekÅĽcie": 8858,
      "ĠÅ¼aden": 8859,
      "Ġzako": 8860,
      "ĠsÄħdu": 8861,
      "ĠAma": 8862,
      "dycha": 8863,
      "ceu": 8864,
      "Ġpakie": 8865,
      "ĠProgra": 8866,
      ".).": 8867,
      "Ġwymienia": 8868,
      "Ġbym": 8869,
      "ĠÅĤ": 8870,
      "gier": 8871,
      "Ġoprocent": 8872,
      "ownie": 8873,
      "Ġtwierdzi": 8874,
      "niejszego": 8875,
      "czyÅĤo": 8876,
      "ĠrozmÃ³w": 8877,
      "ĠdostosowaÄĩ": 8878,
      "Ġpersona": 8879,
      "ĠwÄĻgl": 8880,
      "ĠKomisji": 8881,
      "Ġmatki": 8882,
      "ĠpowstaÅĤ": 8883,
      "ĠJor": 8884,
      "Ġraka": 8885,
      "ĠdoskonaÅĤy": 8886,
      "Ġste": 8887,
      "ĠobjawÃ³w": 8888,
      "Ġsekund": 8889,
      "Ġoddzie": 8890,
      "ĠosÅĤa": 8891,
      "skach": 8892,
      "ĠwyjÄħtkowe": 8893,
      "Ġopcja": 8894,
      "bas": 8895,
      "Ġotrzymuje": 8896,
      "nemu": 8897,
      "tcoin": 8898,
      "ĠPrzede": 8899,
      "ĠwypoÅ¼y": 8900,
      "val": 8901,
      "ÅĤugoÅĽÄĩ": 8902,
      "wory": 8903,
      "Ġnaprawy": 8904,
      "Ġ$": 8905,
      "Ġ34": 8906,
      "Ġturnieju": 8907,
      "Ġspecjalista": 8908,
      "ĠzrÃ³wnowa": 8909,
      "ĠTVN": 8910,
      "Ġcytry": 8911,
      "Ġzapomina": 8912,
      "wslet": 8913,
      "ffe": 8914,
      "mowaÅĤ": 8915,
      "ĠwaÅ¼nym": 8916,
      "Ġzrezy": 8917,
      "Ġkolejnym": 8918,
      "Ġocie": 8919,
      "Ġzasila": 8920,
      "Ġswego": 8921,
      "woju": 8922,
      "Ġznajdziecie": 8923,
      "ĠProgram": 8924,
      "robo": 8925,
      "Ġdomowych": 8926,
      "Ġprzynosi": 8927,
      "via": 8928,
      "Å¡": 8929,
      "Ġblackja": 8930,
      "Ġkurwa": 8931,
      "ĠMaÅĤgorza": 8932,
      "UB": 8933,
      "Ġmotocyk": 8934,
      "mierz": 8935,
      "Ã¤": 8936,
      "Ġprofil": 8937,
      "ÅĽciele": 8938,
      "ĠwypÅĤaty": 8939,
      "Ġwyrazi": 8940,
      "ĠpostawiÄĩ": 8941,
      "Ġpodzi": 8942,
      "legÅĤoÅĽÄĩ": 8943,
      "Opinie": 8944,
      "ĠOF": 8945,
      "lozo": 8946,
      "lans": 8947,
      "giczne": 8948,
      "iera": 8949,
      "ĠPOL": 8950,
      "ĠBiedro": 8951,
      "ĠSzpita": 8952,
      "ind": 8953,
      "ĠMas": 8954,
      "ĠmoÅ¼ecie": 8955,
      "Ġumy": 8956,
      "Ġbezpiecznie": 8957,
      "lizowany": 8958,
      "Ġmus": 8959,
      "Ġdomy": 8960,
      "chia": 8961,
      "ĠÅ¼yÄĩ": 8962,
      "ĠbezpoÅĽre": 8963,
      "Ġkomple": 8964,
      "ĠczymÅĽ": 8965,
      "Ġcan": 8966,
      "ĠMogÄħ": 8967,
      "liki": 8968,
      "listÃ³w": 8969,
      "loguj": 8970,
      "Ġregenera": 8971,
      "Ġutrzymy": 8972,
      "Ġemocjona": 8973,
      "Ġstresu": 8974,
      "Ġremon": 8975,
      "rowania": 8976,
      "0119": 8977,
      "ĠCel": 8978,
      "Ġprzodu": 8979,
      "Ġokazja": 8980,
      "Ġprzeszko": 8981,
      "Ġekspo": 8982,
      "Ġkonfli": 8983,
      "Ġwymiar": 8984,
      "Ġran": 8985,
      "UK": 8986,
      "sme": 8987,
      "Ġsloty": 8988,
      "tycznymi": 8989,
      "Ġdostawa": 8990,
      "ĠAmeryka": 8991,
      "Ġnajwy": 8992,
      "ĠskrÃ³": 8993,
      "Ġatrakcyjne": 8994,
      "ĠodpornoÅĽci": 8995,
      "cku": 8996,
      "ĠmogÅĤo": 8997,
      "ĠzaoszczÄĻ": 8998,
      "ĠÅ¼Äħ": 8999,
      "ĠBezpie": 9000,
      "Ġsilnik": 9001,
      "zuj": 9002,
      "lecamy": 9003,
      "ĠpomieszczeÅĦ": 9004,
      "ĠKiel": 9005,
      "Ġtoreb": 9006,
      "Ġumieszcza": 9007,
      "Fil": 9008,
      "Ġbywa": 9009,
      "mujÄħc": 9010,
      "unt": 9011,
      "67": 9012,
      "ĠgranicÄħ": 9013,
      "Ġmetoda": 9014,
      "ĠwystÄĻpujÄħ": 9015,
      "Ġsystemem": 9016,
      "Ġpowoli": 9017,
      "Mini": 9018,
      "Ġpromieni": 9019,
      "ÅĤuje": 9020,
      "Ġrzadko": 9021,
      "ĠpiÄĻkny": 9022,
      "ĠzdolnoÅĽÄĩ": 9023,
      "ĠTam": 9024,
      "ĠÅĽmieci": 9025,
      "nnik": 9026,
      "Å»y": 9027,
      "Ð´": 9028,
      "ĠodbyÅĤ": 9029,
      "vid": 9030,
      "Ġwysoka": 9031,
      "ĠMiasto": 9032,
      "ĠRobert": 9033,
      "mas": 9034,
      "szonych": 9035,
      "ĠdoÅĽwiadczeniem": 9036,
      "Ġrozbu": 9037,
      "Ġwygrywa": 9038,
      "ĠdojrzaÅĤe": 9039,
      "UL": 9040,
      "Ġzdrowe": 9041,
      "tter": 9042,
      "ĠwyksztaÅĤ": 9043,
      "ĠnakÅĤada": 9044,
      "ĠOgÃ³l": 9045,
      "Ġgotowy": 9046,
      "stkÄĻ": 9047,
      "Ġprogramy": 9048,
      "ĠzapÅĤaciÄĩ": 9049,
      "lowane": 9050,
      "rzymy": 9051,
      "Ġpropozycje": 9052,
      "zacjÄĻ": 9053,
      "Ġszkoleni": 9054,
      "stawienia": 9055,
      "ĠÅģukasz": 9056,
      "nge": 9057,
      "Ġdobro": 9058,
      "kera": 9059,
      "ĠSztu": 9060,
      "ĠwÄħt": 9061,
      "tos": 9062,
      "Ġfotowoltai": 9063,
      "Ġhazar": 9064,
      "Sp": 9065,
      "rzyj": 9066,
      "ĠOD": 9067,
      "ĠpsÃ³w": 9068,
      "Kla": 9069,
      "ness": 9070,
      "Ġdiete": 9071,
      "ĠstwierdziÅĤ": 9072,
      "hop": 9073,
      "Ġostatecznie": 9074,
      "linie": 9075,
      "Ġwynagrodzenia": 9076,
      "ĠNajlep": 9077,
      "Ġpolska": 9078,
      "Ġodczy": 9079,
      "ĠpeÅĤen": 9080,
      "odpor": 9081,
      "snÄħÄĩ": 9082,
      "Ġskutki": 9083,
      "Ġmarka": 9084,
      "ĠKoÅĽci": 9085,
      "kÅĤadniki": 9086,
      "rÃ³buj": 9087,
      "Ġkwiaty": 9088,
      "ĠpojawiÅĤ": 9089,
      "ĠserwisÃ³w": 9090,
      "nkami": 9091,
      "ĠDobrze": 9092,
      "Ġrewolu": 9093,
      "Ġprioryte": 9094,
      "krea": 9095,
      "Ġsekre": 9096,
      "Ġinteres": 9097,
      "ĠwkÅĤad": 9098,
      "Ġspokojnie": 9099,
      "ĠgwaÅĤ": 9100,
      "ĠKier": 9101,
      "98": 9102,
      "Ġpoy": 9103,
      "ĠÅĤÄħcznie": 9104,
      "Ġ..": 9105,
      "Ġsamolo": 9106,
      "ĠWiÄĻkszoÅĽÄĩ": 9107,
      "ÅĦce": 9108,
      "ĠNad": 9109,
      "Ġkolejna": 9110,
      "ĠPart": 9111,
      "kr": 9112,
      "Ġzadaniem": 9113,
      "ĠprocesÃ³w": 9114,
      "nisa": 9115,
      "Ġbiznesowych": 9116,
      "ĠpeÅĤnym": 9117,
      "Ġneody": 9118,
      "kowskiego": 9119,
      "Ġmedycznych": 9120,
      "Ġdzisiejszych": 9121,
      "Ġsyna": 9122,
      "Ġzamont": 9123,
      "ĠmnÄħ": 9124,
      "ĠwydajnoÅĽÄĩ": 9125,
      "Ġsypialni": 9126,
      "Ġprowi": 9127,
      "Komenta": 9128,
      "ĠÅģÃ³dÅº": 9129,
      "ciach": 9130,
      "ĠwyposaÅ¼ony": 9131,
      "Ġmkw": 9132,
      "ĠodpornoÅĽÄĩ": 9133,
      "ĠbliÅ¼ej": 9134,
      "cisz": 9135,
      "ĠaktywnoÅĽÄĩ": 9136,
      "ĠÅĽrodek": 9137,
      "kg": 9138,
      "Ġgrubo": 9139,
      "Ġhave": 9140,
      "ĠczekaÄĩ": 9141,
      "Ġchwil": 9142,
      "ĠBlack": 9143,
      "ĠSzczeci": 9144,
      "Ġmniejsze": 9145,
      "gue": 9146,
      "Å¼nych": 9147,
      "ĠEko": 9148,
      "ĠkoÅĦcÃ³w": 9149,
      "ĠNaro": 9150,
      "ĠodÅ¼ywia": 9151,
      "Ġdowolnym": 9152,
      "Ġmiastach": 9153,
      "Ġindywidualne": 9154,
      "jka": 9155,
      "ĠwiÄĻkszy": 9156,
      "Brak": 9157,
      "Ġcukier": 9158,
      "ANIA": 9159,
      "ĠÅĤÄħczÄħ": 9160,
      "lakty": 9161,
      "ĠtysiÄħce": 9162,
      "owskiej": 9163,
      "Nowe": 9164,
      "Ġkonkursie": 9165,
      "ĠnajbliÅ¼szych": 9166,
      "ĠwysyÅĤki": 9167,
      "ĠwpÅĤaty": 9168,
      "ÅĤowych": 9169,
      "Ġmoderni": 9170,
      "Ġtrasy": 9171,
      "ĠMateusz": 9172,
      "rad": 9173,
      "Ġri": 9174,
      "niamy": 9175,
      "ĠmyÅĽl": 9176,
      "ĠciepÅĤo": 9177,
      "ĠZu": 9178,
      "dÅºmi": 9179,
      "].": 9180,
      "kli": 9181,
      "Ġgazu": 9182,
      "Ġzio": 9183,
      "Ġnowotw": 9184,
      "ĠspodziewaÄĩ": 9185,
      "dowie": 9186,
      "ĠLublin": 9187,
      "Ġgospodarczej": 9188,
      "ĠJapo": 9189,
      "Ġrelacje": 9190,
      "Ġstanowisku": 9191,
      "ĠÅĽmierÄĩ": 9192,
      "ĠwysiÅĤ": 9193,
      "Ġinternetu": 9194,
      "ÅĤownie": 9195,
      "nili": 9196,
      "mana": 9197,
      "Åºli": 9198,
      "ĠpodziÄĻk": 9199,
      "Ġzabiegu": 9200,
      "Si": 9201,
      "ĠSzkoÅĤy": 9202,
      "ĠZUS": 9203,
      "Ġtelewizji": 9204,
      "SzczegÃ³ÅĤy": 9205,
      "mna": 9206,
      "Ġwodzie": 9207,
      "Sk": 9208,
      "wanego": 9209,
      "ĠnaleÅ¼a": 9210,
      "yo": 9211,
      "Al": 9212,
      "rucha": 9213,
      "dliwe": 9214,
      "ĠformÄĻ": 9215,
      "ĠSty": 9216,
      "Ġdanym": 9217,
      "Ġidealnym": 9218,
      "ĠpeÅĤnej": 9219,
      "%,": 9220,
      "cili": 9221,
      "Ġulega": 9222,
      "owaliÅĽmy": 9223,
      "ĠForum": 9224,
      "ĠZw": 9225,
      "Ġrozstrzy": 9226,
      "dnicy": 9227,
      "ĠuÅ¼yte": 9228,
      "Ġrodzina": 9229,
      "ĠChociaÅ¼": 9230,
      "Ġpowtarza": 9231,
      "Ġskarb": 9232,
      "Ġszaf": 9233,
      "sla": 9234,
      "ĠÅĽwiadomoÅĽÄĩ": 9235,
      "Ġawans": 9236,
      "Ġpremiera": 9237,
      "Ġplany": 9238,
      "towanych": 9239,
      "Ġprzewa": 9240,
      "Ġmecze": 9241,
      "ĠmÄĻÅ¼a": 9242,
[...]
